{
  "version": "1.0",
  "truncation": {
    "direction": "Right",
    "max_length": 512,
    "strategy": "LongestFirst",
    "stride": 256
  },
  "padding": {
    "strategy": {
      "Fixed": 512
    },
    "direction": "Right",
    "pad_to_multiple_of": null,
    "pad_id": 0,
    "pad_type_id": 0,
    "pad_token": "[PAD]"
  },
  "added_tokens": [
    {
      "id": 0,
      "content": "[PAD]",
      "single_word": false,
      "lstrip": false,
      "rstrip": false,
      "normalized": false,
      "special": true
    },
    {
      "id": 1,
      "content": "[UNK]",
      "single_word": false,
      "lstrip": false,
      "rstrip": false,
      "normalized": false,
      "special": true
    },
    {
      "id": 2,
      "content": "[CLS]",
      "single_word": false,
      "lstrip": false,
      "rstrip": false,
      "normalized": false,
      "special": true
    },
    {
      "id": 3,
      "content": "[SEP]",
      "single_word": false,
      "lstrip": false,
      "rstrip": false,
      "normalized": false,
      "special": true
    },
    {
      "id": 4,
      "content": "[MASK]",
      "single_word": false,
      "lstrip": false,
      "rstrip": false,
      "normalized": false,
      "special": true
    },
    {
      "id": 50000,
      "content": "קנבוס",
      "single_word": false,
      "lstrip": false,
      "rstrip": false,
      "normalized": true,
      "special": false
    },
    {
      "id": 50001,
      "content": "קוקאין",
      "single_word": false,
      "lstrip": false,
      "rstrip": false,
      "normalized": true,
      "special": false
    },
    {
      "id": 50002,
      "content": "חשיש",
      "single_word": false,
      "lstrip": false,
      "rstrip": false,
      "normalized": true,
      "special": false
    },
    {
      "id": 50003,
      "content": "לסוכן",
      "single_word": false,
      "lstrip": false,
      "rstrip": false,
      "normalized": true,
      "special": false
    },
    {
      "id": 50004,
      "content": "הנאשמת",
      "single_word": false,
      "lstrip": false,
      "rstrip": false,
      "normalized": true,
      "special": false
    },
    {
      "id": 50005,
      "content": "קנביס",
      "single_word": false,
      "lstrip": false,
      "rstrip": false,
      "normalized": true,
      "special": false
    },
    {
      "id": 50006,
      "content": "למאשימה",
      "single_word": false,
      "lstrip": false,
      "rstrip": false,
      "normalized": true,
      "special": false
    },
    {
      "id": 50007,
      "content": "תשלג",
      "single_word": false,
      "lstrip": false,
      "rstrip": false,
      "normalized": true,
      "special": false
    },
    {
      "id": 50008,
      "content": "והנאשם",
      "single_word": false,
      "lstrip": false,
      "rstrip": false,
      "normalized": true,
      "special": false
    },
    {
      "id": 50009,
      "content": "19א",
      "single_word": false,
      "lstrip": false,
      "rstrip": false,
      "normalized": true,
      "special": false
    },
    {
      "id": 50010,
      "content": "שקיות",
      "single_word": false,
      "lstrip": false,
      "rstrip": false,
      "normalized": true,
      "special": false
    },
    {
      "id": 50011,
      "content": "שקית",
      "single_word": false,
      "lstrip": false,
      "rstrip": false,
      "normalized": true,
      "special": false
    },
    {
      "id": 50012,
      "content": "קג",
      "single_word": false,
      "lstrip": false,
      "rstrip": false,
      "normalized": true,
      "special": false
    },
    {
      "id": 50013,
      "content": "תשלג1973",
      "single_word": false,
      "lstrip": false,
      "rstrip": false,
      "normalized": true,
      "special": false
    },
    {
      "id": 50014,
      "content": "7ג",
      "single_word": false,
      "lstrip": false,
      "rstrip": false,
      "normalized": true,
      "special": false
    },
    {
      "id": 50015,
      "content": "לצריכתו",
      "single_word": false,
      "lstrip": false,
      "rstrip": false,
      "normalized": true,
      "special": false
    },
    {
      "id": 50016,
      "content": "MDMA",
      "single_word": false,
      "lstrip": false,
      "rstrip": false,
      "normalized": true,
      "special": false
    },
    {
      "id": 50017,
      "content": "קנאביס",
      "single_word": false,
      "lstrip": false,
      "rstrip": false,
      "normalized": true,
      "special": false
    },
    {
      "id": 50018,
      "content": "התשלג1973",
      "single_word": false,
      "lstrip": false,
      "rstrip": false,
      "normalized": true,
      "special": false
    },
    {
      "id": 50019,
      "content": "גידל",
      "single_word": false,
      "lstrip": false,
      "rstrip": false,
      "normalized": true,
      "special": false
    },
    {
      "id": 50020,
      "content": "עלפי",
      "single_word": false,
      "lstrip": false,
      "rstrip": false,
      "normalized": true,
      "special": false
    },
    {
      "id": 50021,
      "content": "שתילים",
      "single_word": false,
      "lstrip": false,
      "rstrip": false,
      "normalized": true,
      "special": false
    },
    {
      "id": 50022,
      "content": "התשלג",
      "single_word": false,
      "lstrip": false,
      "rstrip": false,
      "normalized": true,
      "special": false
    },
    {
      "id": 50023,
      "content": "לגידול",
      "single_word": false,
      "lstrip": false,
      "rstrip": false,
      "normalized": true,
      "special": false
    },
    {
      "id": 50024,
      "content": "התשלז1977",
      "single_word": false,
      "lstrip": false,
      "rstrip": false,
      "normalized": true,
      "special": false
    },
    {
      "id": 50025,
      "content": "הרואין",
      "single_word": false,
      "lstrip": false,
      "rstrip": false,
      "normalized": true,
      "special": false
    },
    {
      "id": 50026,
      "content": "7אג",
      "single_word": false,
      "lstrip": false,
      "rstrip": false,
      "normalized": true,
      "special": false
    },
    {
      "id": 50027,
      "content": "והסוכן",
      "single_word": false,
      "lstrip": false,
      "rstrip": false,
      "normalized": true,
      "special": false
    },
    {
      "id": 50028,
      "content": "מעובדות",
      "single_word": false,
      "lstrip": false,
      "rstrip": false,
      "normalized": true,
      "special": false
    },
    {
      "id": 50029,
      "content": "7א7ג",
      "single_word": false,
      "lstrip": false,
      "rstrip": false,
      "normalized": true,
      "special": false
    },
    {
      "id": 50030,
      "content": "החבילה",
      "single_word": false,
      "lstrip": false,
      "rstrip": false,
      "normalized": true,
      "special": false
    },
    {
      "id": 50031,
      "content": "ובעבירה",
      "single_word": false,
      "lstrip": false,
      "rstrip": false,
      "normalized": true,
      "special": false
    },
    {
      "id": 50032,
      "content": "מחולק",
      "single_word": false,
      "lstrip": false,
      "rstrip": false,
      "normalized": true,
      "special": false
    },
    {
      "id": 50033,
      "content": "להודאתו",
      "single_word": false,
      "lstrip": false,
      "rstrip": false,
      "normalized": true,
      "special": false
    },
    {
      "id": 50034,
      "content": "נתפסו",
      "single_word": false,
      "lstrip": false,
      "rstrip": false,
      "normalized": true,
      "special": false
    },
    {
      "id": 50035,
      "content": "תשלז",
      "single_word": false,
      "lstrip": false,
      "rstrip": false,
      "normalized": true,
      "special": false
    },
    {
      "id": 50036,
      "content": "תשלז1977",
      "single_word": false,
      "lstrip": false,
      "rstrip": false,
      "normalized": true,
      "special": false
    },
    {
      "id": 50037,
      "content": "שזהותו",
      "single_word": false,
      "lstrip": false,
      "rstrip": false,
      "normalized": true,
      "special": false
    },
    {
      "id": 50038,
      "content": "התשלז",
      "single_word": false,
      "lstrip": false,
      "rstrip": false,
      "normalized": true,
      "special": false
    },
    {
      "id": 50039,
      "content": "שתילי",
      "single_word": false,
      "lstrip": false,
      "rstrip": false,
      "normalized": true,
      "special": false
    },
    {
      "id": 50040,
      "content": "הנל",
      "single_word": false,
      "lstrip": false,
      "rstrip": false,
      "normalized": true,
      "special": false
    },
    {
      "id": 50041,
      "content": "מהנאשם",
      "single_word": false,
      "lstrip": false,
      "rstrip": false,
      "normalized": true,
      "special": false
    },
    {
      "id": 50042,
      "content": "אריזות",
      "single_word": false,
      "lstrip": false,
      "rstrip": false,
      "normalized": true,
      "special": false
    },
    {
      "id": 50043,
      "content": "מנורות",
      "single_word": false,
      "lstrip": false,
      "rstrip": false,
      "normalized": true,
      "special": false
    },
    {
      "id": 50044,
      "content": "והשניים",
      "single_word": false,
      "lstrip": false,
      "rstrip": false,
      "normalized": true,
      "special": false
    },
    {
      "id": 50045,
      "content": "סיכמו",
      "single_word": false,
      "lstrip": false,
      "rstrip": false,
      "normalized": true,
      "special": false
    },
    {
      "id": 50046,
      "content": "ו19א",
      "single_word": false,
      "lstrip": false,
      "rstrip": false,
      "normalized": true,
      "special": false
    },
    {
      "id": 50047,
      "content": "טבליות",
      "single_word": false,
      "lstrip": false,
      "rstrip": false,
      "normalized": true,
      "special": false
    },
    {
      "id": 50048,
      "content": "תיווך",
      "single_word": false,
      "lstrip": false,
      "rstrip": false,
      "normalized": true,
      "special": false
    },
    {
      "id": 50049,
      "content": "סמוי",
      "single_word": false,
      "lstrip": false,
      "rstrip": false,
      "normalized": true,
      "special": false
    },
    {
      "id": 50050,
      "content": "לסחר",
      "single_word": false,
      "lstrip": false,
      "rstrip": false,
      "normalized": true,
      "special": false
    },
    {
      "id": 50051,
      "content": "בנאשם",
      "single_word": false,
      "lstrip": false,
      "rstrip": false,
      "normalized": true,
      "special": false
    },
    {
      "id": 50052,
      "content": "מאווררים",
      "single_word": false,
      "lstrip": false,
      "rstrip": false,
      "normalized": true,
      "special": false
    },
    {
      "id": 50053,
      "content": "ובתמורה",
      "single_word": false,
      "lstrip": false,
      "rstrip": false,
      "normalized": true,
      "special": false
    },
    {
      "id": 50054,
      "content": "למתואר",
      "single_word": false,
      "lstrip": false,
      "rstrip": false,
      "normalized": true,
      "special": false
    },
    {
      "id": 50055,
      "content": "ומכר",
      "single_word": false,
      "lstrip": false,
      "rstrip": false,
      "normalized": true,
      "special": false
    },
    {
      "id": 50056,
      "content": "שנאים",
      "single_word": false,
      "lstrip": false,
      "rstrip": false,
      "normalized": true,
      "special": false
    },
    {
      "id": 50057,
      "content": "מהאישום",
      "single_word": false,
      "lstrip": false,
      "rstrip": false,
      "normalized": true,
      "special": false
    },
    {
      "id": 50058,
      "content": "המסוכן",
      "single_word": false,
      "lstrip": false,
      "rstrip": false,
      "normalized": true,
      "special": false
    },
    {
      "id": 50059,
      "content": "דישון",
      "single_word": false,
      "lstrip": false,
      "rstrip": false,
      "normalized": true,
      "special": false
    },
    {
      "id": 50060,
      "content": "אדניות",
      "single_word": false,
      "lstrip": false,
      "rstrip": false,
      "normalized": true,
      "special": false
    },
    {
      "id": 50061,
      "content": "תחמושת",
      "single_word": false,
      "lstrip": false,
      "rstrip": false,
      "normalized": true,
      "special": false
    },
    {
      "id": 50062,
      "content": "לגרם",
      "single_word": false,
      "lstrip": false,
      "rstrip": false,
      "normalized": true,
      "special": false
    },
    {
      "id": 50063,
      "content": "המכילה",
      "single_word": false,
      "lstrip": false,
      "rstrip": false,
      "normalized": true,
      "special": false
    },
    {
      "id": 50064,
      "content": "השינה",
      "single_word": false,
      "lstrip": false,
      "rstrip": false,
      "normalized": true,
      "special": false
    },
    {
      "id": 50065,
      "content": "שוחחו",
      "single_word": false,
      "lstrip": false,
      "rstrip": false,
      "normalized": true,
      "special": false
    },
    {
      "id": 50066,
      "content": "בארון",
      "single_word": false,
      "lstrip": false,
      "rstrip": false,
      "normalized": true,
      "special": false
    },
    {
      "id": 50067,
      "content": "ו7ג",
      "single_word": false,
      "lstrip": false,
      "rstrip": false,
      "normalized": true,
      "special": false
    },
    {
      "id": 50068,
      "content": "ובתוכה",
      "single_word": false,
      "lstrip": false,
      "rstrip": false,
      "normalized": true,
      "special": false
    },
    {
      "id": 50069,
      "content": "יישומון",
      "single_word": false,
      "lstrip": false,
      "rstrip": false,
      "normalized": true,
      "special": false
    },
    {
      "id": 50070,
      "content": "תעתור",
      "single_word": false,
      "lstrip": false,
      "rstrip": false,
      "normalized": true,
      "special": false
    },
    {
      "id": 50071,
      "content": "במעבדה",
      "single_word": false,
      "lstrip": false,
      "rstrip": false,
      "normalized": true,
      "special": false
    },
    {
      "id": 50072,
      "content": "המכילות",
      "single_word": false,
      "lstrip": false,
      "rstrip": false,
      "normalized": true,
      "special": false
    },
    {
      "id": 50073,
      "content": "בדירתו",
      "single_word": false,
      "lstrip": false,
      "rstrip": false,
      "normalized": true,
      "special": false
    },
    {
      "id": 50074,
      "content": "לרחוב",
      "single_word": false,
      "lstrip": false,
      "rstrip": false,
      "normalized": true,
      "special": false
    },
    {
      "id": 50075,
      "content": "בשקית",
      "single_word": false,
      "lstrip": false,
      "rstrip": false,
      "normalized": true,
      "special": false
    },
    {
      "id": 50076,
      "content": "הורשעה",
      "single_word": false,
      "lstrip": false,
      "rstrip": false,
      "normalized": true,
      "special": false
    },
    {
      "id": 50077,
      "content": "לרכבו",
      "single_word": false,
      "lstrip": false,
      "rstrip": false,
      "normalized": true,
      "special": false
    },
    {
      "id": 50078,
      "content": "מריחואנה",
      "single_word": false,
      "lstrip": false,
      "rstrip": false,
      "normalized": true,
      "special": false
    },
    {
      "id": 50079,
      "content": "ימכור",
      "single_word": false,
      "lstrip": false,
      "rstrip": false,
      "normalized": true,
      "special": false
    },
    {
      "id": 50080,
      "content": "שהכילו",
      "single_word": false,
      "lstrip": false,
      "rstrip": false,
      "normalized": true,
      "special": false
    },
    {
      "id": 50081,
      "content": "והחזיק",
      "single_word": false,
      "lstrip": false,
      "rstrip": false,
      "normalized": true,
      "special": false
    },
    {
      "id": 50082,
      "content": "הטלגרם",
      "single_word": false,
      "lstrip": false,
      "rstrip": false,
      "normalized": true,
      "special": false
    },
    {
      "id": 50083,
      "content": "499א1",
      "single_word": false,
      "lstrip": false,
      "rstrip": false,
      "normalized": true,
      "special": false
    },
    {
      "id": 50084,
      "content": "ועבירה",
      "single_word": false,
      "lstrip": false,
      "rstrip": false,
      "normalized": true,
      "special": false
    },
    {
      "id": 50085,
      "content": "פלסטיק",
      "single_word": false,
      "lstrip": false,
      "rstrip": false,
      "normalized": true,
      "special": false
    },
    {
      "id": 50086,
      "content": "מזגנים",
      "single_word": false,
      "lstrip": false,
      "rstrip": false,
      "normalized": true,
      "special": false
    },
    {
      "id": 50087,
      "content": "מפוחים",
      "single_word": false,
      "lstrip": false,
      "rstrip": false,
      "normalized": true,
      "special": false
    },
    {
      "id": 50088,
      "content": "ניילון",
      "single_word": false,
      "lstrip": false,
      "rstrip": false,
      "normalized": true,
      "special": false
    },
    {
      "id": 50089,
      "content": "לייבא",
      "single_word": false,
      "lstrip": false,
      "rstrip": false,
      "normalized": true,
      "special": false
    },
    {
      "id": 50090,
      "content": "ושאל",
      "single_word": false,
      "lstrip": false,
      "rstrip": false,
      "normalized": true,
      "special": false
    },
    {
      "id": 50091,
      "content": "מכנסיו",
      "single_word": false,
      "lstrip": false,
      "rstrip": false,
      "normalized": true,
      "special": false
    },
    {
      "id": 50092,
      "content": "במחסן",
      "single_word": false,
      "lstrip": false,
      "rstrip": false,
      "normalized": true,
      "special": false
    },
    {
      "id": 50093,
      "content": "טלגרם",
      "single_word": false,
      "lstrip": false,
      "rstrip": false,
      "normalized": true,
      "special": false
    },
    {
      "id": 50094,
      "content": "LSD",
      "single_word": false,
      "lstrip": false,
      "rstrip": false,
      "normalized": true,
      "special": false
    },
    {
      "id": 50095,
      "content": "תאורה",
      "single_word": false,
      "lstrip": false,
      "rstrip": false,
      "normalized": true,
      "special": false
    },
    {
      "id": 50096,
      "content": "חבילות",
      "single_word": false,
      "lstrip": false,
      "rstrip": false,
      "normalized": true,
      "special": false
    },
    {
      "id": 50097,
      "content": "בחיפוש",
      "single_word": false,
      "lstrip": false,
      "rstrip": false,
      "normalized": true,
      "special": false
    },
    {
      "id": 50098,
      "content": "שהכילה",
      "single_word": false,
      "lstrip": false,
      "rstrip": false,
      "normalized": true,
      "special": false
    },
    {
      "id": 50099,
      "content": "29א",
      "single_word": false,
      "lstrip": false,
      "rstrip": false,
      "normalized": true,
      "special": false
    }
  ],
  "normalizer": {
    "type": "BertNormalizer",
    "clean_text": true,
    "handle_chinese_chars": true,
    "strip_accents": null,
    "lowercase": true
  },
  "pre_tokenizer": {
    "type": "BertPreTokenizer"
  },
  "post_processor": {
    "type": "TemplateProcessing",
    "single": [
      {
        "SpecialToken": {
          "id": "[CLS]",
          "type_id": 0
        }
      },
      {
        "Sequence": {
          "id": "A",
          "type_id": 0
        }
      },
      {
        "SpecialToken": {
          "id": "[SEP]",
          "type_id": 0
        }
      }
    ],
    "pair": [
      {
        "SpecialToken": {
          "id": "[CLS]",
          "type_id": 0
        }
      },
      {
        "Sequence": {
          "id": "A",
          "type_id": 0
        }
      },
      {
        "SpecialToken": {
          "id": "[SEP]",
          "type_id": 0
        }
      },
      {
        "Sequence": {
          "id": "B",
          "type_id": 1
        }
      },
      {
        "SpecialToken": {
          "id": "[SEP]",
          "type_id": 1
        }
      }
    ],
    "special_tokens": {
      "[CLS]": {
        "id": "[CLS]",
        "ids": [
          2
        ],
        "tokens": [
          "[CLS]"
        ]
      },
      "[SEP]": {
        "id": "[SEP]",
        "ids": [
          3
        ],
        "tokens": [
          "[SEP]"
        ]
      }
    }
  },
  "decoder": {
    "type": "WordPiece",
    "prefix": "##",
    "cleanup": true
  },
  "model": {
    "type": "WordPiece",
    "unk_token": "[UNK]",
    "continuing_subword_prefix": "##",
    "max_input_chars_per_word": 100,
    "vocab": {
      "[PAD]": 0,
      "[UNK]": 1,
      "[CLS]": 2,
      "[SEP]": 3,
      "[MASK]": 4,
      "!": 5,
      "\"": 6,
      "#": 7,
      "$": 8,
      "%": 9,
      "&": 10,
      "'": 11,
      "(": 12,
      ")": 13,
      "*": 14,
      "+": 15,
      ",": 16,
      "-": 17,
      ".": 18,
      "/": 19,
      "0": 20,
      "1": 21,
      "2": 22,
      "3": 23,
      "4": 24,
      "5": 25,
      "6": 26,
      "7": 27,
      "8": 28,
      "9": 29,
      ":": 30,
      ";": 31,
      "<": 32,
      "=": 33,
      ">": 34,
      "?": 35,
      "@": 36,
      "[": 37,
      "\\": 38,
      "]": 39,
      "^": 40,
      "_": 41,
      "`": 42,
      "a": 43,
      "b": 44,
      "c": 45,
      "d": 46,
      "e": 47,
      "f": 48,
      "g": 49,
      "h": 50,
      "i": 51,
      "j": 52,
      "k": 53,
      "l": 54,
      "m": 55,
      "n": 56,
      "o": 57,
      "p": 58,
      "q": 59,
      "r": 60,
      "s": 61,
      "t": 62,
      "u": 63,
      "v": 64,
      "w": 65,
      "x": 66,
      "y": 67,
      "z": 68,
      "{": 69,
      "|": 70,
      "}": 71,
      "~": 72,
      "¡": 73,
      "¢": 74,
      "£": 75,
      "¤": 76,
      "¥": 77,
      "¦": 78,
      "§": 79,
      "¨": 80,
      "©": 81,
      "ª": 82,
      "«": 83,
      "¬": 84,
      "®": 85,
      "¯": 86,
      "°": 87,
      "±": 88,
      "²": 89,
      "³": 90,
      "´": 91,
      "µ": 92,
      "¶": 93,
      "·": 94,
      "¸": 95,
      "¹": 96,
      "º": 97,
      "»": 98,
      "¼": 99,
      "½": 100,
      "¾": 101,
      "¿": 102,
      "×": 103,
      "ß": 104,
      "æ": 105,
      "ð": 106,
      "÷": 107,
      "ø": 108,
      "þ": 109,
      "œ": 110,
      "ƒ": 111,
      "ˆ": 112,
      "˜": 113,
      "α": 114,
      "γ": 115,
      "ζ": 116,
      "θ": 117,
      "κ": 118,
      "λ": 119,
      "υ": 120,
      "а": 121,
      "б": 122,
      "в": 123,
      "г": 124,
      "д": 125,
      "е": 126,
      "ж": 127,
      "з": 128,
      "и": 129,
      "к": 130,
      "л": 131,
      "м": 132,
      "н": 133,
      "о": 134,
      "п": 135,
      "р": 136,
      "с": 137,
      "т": 138,
      "у": 139,
      "ф": 140,
      "х": 141,
      "ц": 142,
      "ч": 143,
      "ш": 144,
      "щ": 145,
      "ъ": 146,
      "ы": 147,
      "ь": 148,
      "э": 149,
      "ю": 150,
      "я": 151,
      "ђ": 152,
      "є": 153,
      "ѕ": 154,
      "і": 155,
      "ј": 156,
      "љ": 157,
      "њ": 158,
      "ћ": 159,
      "џ": 160,
      "ґ": 161,
      "־": 162,
      "א": 163,
      "ב": 164,
      "ג": 165,
      "ד": 166,
      "ה": 167,
      "ו": 168,
      "ז": 169,
      "ח": 170,
      "ט": 171,
      "י": 172,
      "ך": 173,
      "כ": 174,
      "ל": 175,
      "ם": 176,
      "מ": 177,
      "ן": 178,
      "נ": 179,
      "ס": 180,
      "ע": 181,
      "ף": 182,
      "פ": 183,
      "ץ": 184,
      "צ": 185,
      "ק": 186,
      "ר": 187,
      "ש": 188,
      "ת": 189,
      "׳": 190,
      "ا": 191,
      "ل": 192,
      "م": 193,
      "ي": 194,
      "–": 195,
      "—": 196,
      "‘": 197,
      "’": 198,
      "‚": 199,
      "“": 200,
      "”": 201,
      "„": 202,
      "†": 203,
      "‡": 204,
      "•": 205,
      "…": 206,
      "‰": 207,
      "′": 208,
      "‹": 209,
      "›": 210,
      "₪": 211,
      "€": 212,
      "№": 213,
      "℡": 214,
      "™": 215,
      "ⅰ": 216,
      "ⅱ": 217,
      "ⅲ": 218,
      "ⅴ": 219,
      "ⅷ": 220,
      "√": 221,
      "∠": 222,
      "∧": 223,
      "∪": 224,
      "∵": 225,
      "≒": 226,
      "≧": 227,
      "├": 228,
      "┥": 229,
      "▼": 230,
      "◯": 231,
      "♪": 232,
      "〈": 233,
      "〒": 234,
      "〓": 235,
      "〔": 236,
      "〕": 237,
      "ぃ": 238,
      "か": 239,
      "け": 240,
      "し": 241,
      "ち": 242,
      "て": 243,
      "な": 244,
      "ね": 245,
      "ひ": 246,
      "ゑ": 247,
      "を": 248,
      "ゝ": 249,
      "ァ": 250,
      "ウ": 251,
      "ォ": 252,
      "サ": 253,
      "シ": 254,
      "タ": 255,
      "ッ": 256,
      "ヒ": 257,
      "フ": 258,
      "ヘ": 259,
      "ホ": 260,
      "ヤ": 261,
      "・": 262,
      "㍉": 263,
      "㍗": 264,
      "七": 265,
      "丘": 266,
      "丨": 267,
      "乗": 268,
      "亨": 269,
      "亳": 270,
      "仙": 271,
      "仮": 272,
      "伹": 273,
      "佃": 274,
      "位": 275,
      "佐": 276,
      "佖": 277,
      "佳": 278,
      "侚": 279,
      "侟": 280,
      "俔": 281,
      "俳": 282,
      "倉": 283,
      "倚": 284,
      "偃": 285,
      "偆": 286,
      "偵": 287,
      "偶": 288,
      "傭": 289,
      "傲": 290,
      "僉": 291,
      "僘": 292,
      "僴": 293,
      "冑": 294,
      "冝": 295,
      "冷": 296,
      "凜": 297,
      "処": 298,
      "凹": 299,
      "刕": 300,
      "刧": 301,
      "券": 302,
      "則": 303,
      "劍": 304,
      "勅": 305,
      "匀": 306,
      "匇": 307,
      "匝": 308,
      "匳": 309,
      "卲": 310,
      "卻": 311,
      "历": 312,
      "厘": 313,
      "厩": 314,
      "厭": 315,
      "厰": 316,
      "叢": 317,
      "吃": 318,
      "吋": 319,
      "呆": 320,
      "咀": 321,
      "哘": 322,
      "哲": 323,
      "商": 324,
      "問": 325,
      "喀": 326,
      "喊": 327,
      "喨": 328,
      "嘩": 329,
      "嘴": 330,
      "嚠": 331,
      "嚴": 332,
      "囲": 333,
      "囹": 334,
      "囿": 335,
      "圀": 336,
      "圉": 337,
      "圏": 338,
      "圭": 339,
      "址": 340,
      "坊": 341,
      "坙": 342,
      "坥": 343,
      "埇": 344,
      "埈": 345,
      "埣": 346,
      "埼": 347,
      "堺": 348,
      "堻": 349,
      "堽": 350,
      "塋": 351,
      "塗": 352,
      "塵": 353,
      "墊": 354,
      "墲": 355,
      "墸": 356,
      "壕": 357,
      "壜": 358,
      "夊": 359,
      "央": 360,
      "夵": 361,
      "夷": 362,
      "奅": 363,
      "奝": 364,
      "奪": 365,
      "奱": 366,
      "妁": 367,
      "妖": 368,
      "妸": 369,
      "妻": 370,
      "姥": 371,
      "姫": 372,
      "娃": 373,
      "娟": 374,
      "娼": 375,
      "媾": 376,
      "嫩": 377,
      "嬋": 378,
      "孔": 379,
      "孟": 380,
      "孻": 381,
      "宋": 382,
      "官": 383,
      "寡": 384,
      "實": 385,
      "尽": 386,
      "屆": 387,
      "屈": 388,
      "岑": 389,
      "岫": 390,
      "岳": 391,
      "岼": 392,
      "峠": 393,
      "峡": 394,
      "峵": 395,
      "崙": 396,
      "崛": 397,
      "嵂": 398,
      "嵭": 399,
      "嶤": 400,
      "工": 401,
      "平": 402,
      "幼": 403,
      "庖": 404,
      "庵": 405,
      "廿": 406,
      "式": 407,
      "弑": 408,
      "引": 409,
      "弖": 410,
      "弡": 411,
      "弦": 412,
      "弸": 413,
      "彈": 414,
      "彰": 415,
      "徂": 416,
      "待": 417,
      "徇": 418,
      "従": 419,
      "徘": 420,
      "徙": 421,
      "從": 422,
      "徨": 423,
      "徭": 424,
      "德": 425,
      "徼": 426,
      "忠": 427,
      "忽": 428,
      "怫": 429,
      "怯": 430,
      "恆": 431,
      "恠": 432,
      "恫": 433,
      "恭": 434,
      "息": 435,
      "悊": 436,
      "患": 437,
      "惞": 438,
      "惠": 439,
      "惪": 440,
      "惺": 441,
      "愀": 442,
      "愉": 443,
      "愑": 444,
      "愡": 445,
      "愴": 446,
      "愷": 447,
      "慘": 448,
      "慯": 449,
      "慴": 450,
      "慵": 451,
      "憲": 452,
      "懊": 453,
      "懋": 454,
      "懣": 455,
      "戓": 456,
      "戦": 457,
      "所": 458,
      "托": 459,
      "扛": 460,
      "找": 461,
      "把": 462,
      "抒": 463,
      "抔": 464,
      "拗": 465,
      "挧": 466,
      "振": 467,
      "捜": 468,
      "掖": 469,
      "掘": 470,
      "掟": 471,
      "探": 472,
      "掻": 473,
      "揌": 474,
      "搾": 475,
      "摧": 476,
      "摶": 477,
      "撕": 478,
      "撤": 479,
      "操": 480,
      "擎": 481,
      "擦": 482,
      "攵": 483,
      "改": 484,
      "敦": 485,
      "敲": 486,
      "斌": 487,
      "断": 488,
      "新": 489,
      "施": 490,
      "旌": 491,
      "昃": 492,
      "昞": 493,
      "昤": 494,
      "昨": 495,
      "昮": 496,
      "昶": 497,
      "晙": 498,
      "晥": 499,
      "晦": 500,
      "暖": 501,
      "曁": 502,
      "曄": 503,
      "曰": 504,
      "曵": 505,
      "曻": 506,
      "杉": 507,
      "材": 508,
      "杪": 509,
      "松": 510,
      "板": 511,
      "枩": 512,
      "架": 513,
      "柔": 514,
      "柩": 515,
      "柱": 516,
      "栃": 517,
      "栩": 518,
      "栲": 519,
      "桒": 520,
      "梟": 521,
      "梠": 522,
      "棊": 523,
      "椄": 524,
      "椽": 525,
      "楊": 526,
      "楕": 527,
      "楢": 528,
      "楳": 529,
      "榎": 530,
      "榿": 531,
      "槌": 532,
      "槓": 533,
      "様": 534,
      "槝": 535,
      "樟": 536,
      "模": 537,
      "樹": 538,
      "橆": 539,
      "橈": 540,
      "橾": 541,
      "檸": 542,
      "櫢": 543,
      "欅": 544,
      "欺": 545,
      "歐": 546,
      "歡": 547,
      "歩": 548,
      "殯": 549,
      "殱": 550,
      "殺": 551,
      "殻": 552,
      "毖": 553,
      "毳": 554,
      "氿": 555,
      "汚": 556,
      "汯": 557,
      "汰": 558,
      "泄": 559,
      "泚": 560,
      "泛": 561,
      "泪": 562,
      "泯": 563,
      "洄": 564,
      "洙": 565,
      "洶": 566,
      "活": 567,
      "浮": 568,
      "浯": 569,
      "涇": 570,
      "涜": 571,
      "涬": 572,
      "涼": 573,
      "淕": 574,
      "淫": 575,
      "淮": 576,
      "淲": 577,
      "淼": 578,
      "渉": 579,
      "渠": 580,
      "渫": 581,
      "湎": 582,
      "溿": 583,
      "滕": 584,
      "漿": 585,
      "潛": 586,
      "潺": 587,
      "澆": 588,
      "澣": 589,
      "澵": 590,
      "濛": 591,
      "濵": 592,
      "濾": 593,
      "瀇": 594,
      "瀛": 595,
      "炫": 596,
      "炬": 597,
      "炮": 598,
      "点": 599,
      "烈": 600,
      "焄": 601,
      "煌": 602,
      "煜": 603,
      "煢": 604,
      "熊": 605,
      "熔": 606,
      "熕": 607,
      "燕": 608,
      "燭": 609,
      "爨": 610,
      "牝": 611,
      "状": 612,
      "狙": 613,
      "猤": 614,
      "猿": 615,
      "獺": 616,
      "琦": 617,
      "琿": 618,
      "瑜": 619,
      "璞": 620,
      "瓜": 621,
      "瓮": 622,
      "甯": 623,
      "田": 624,
      "畑": 625,
      "畤": 626,
      "疽": 627,
      "症": 628,
      "痣": 629,
      "癆": 630,
      "癇": 631,
      "癨": 632,
      "皎": 633,
      "皜": 634,
      "盾": 635,
      "省": 636,
      "眄": 637,
      "睆": 638,
      "瞭": 639,
      "矛": 640,
      "石": 641,
      "硝": 642,
      "硺": 643,
      "碯": 644,
      "磴": 645,
      "礙": 646,
      "礼": 647,
      "祉": 648,
      "神": 649,
      "祠": 650,
      "祥": 651,
      "禊": 652,
      "福": 653,
      "禛": 654,
      "禺": 655,
      "秉": 656,
      "稍": 657,
      "税": 658,
      "穴": 659,
      "窓": 660,
      "窖": 661,
      "窰": 662,
      "竍": 663,
      "竪": 664,
      "竫": 665,
      "竭": 666,
      "筒": 667,
      "箚": 668,
      "箴": 669,
      "篌": 670,
      "簡": 671,
      "簧": 672,
      "簫": 673,
      "籔": 674,
      "精": 675,
      "系": 676,
      "紀": 677,
      "紆": 678,
      "絈": 679,
      "絳": 680,
      "綉": 681,
      "続": 682,
      "綛": 683,
      "網": 684,
      "綾": 685,
      "綿": 686,
      "縛": 687,
      "縞": 688,
      "縲": 689,
      "縹": 690,
      "繃": 691,
      "纐": 692,
      "罍": 693,
      "羣": 694,
      "群": 695,
      "羹": 696,
      "翠": 697,
      "耐": 698,
      "聒": 699,
      "聡": 700,
      "肥": 701,
      "肭": 702,
      "胆": 703,
      "脊": 704,
      "膽": 705,
      "膾": 706,
      "臑": 707,
      "臓": 708,
      "臟": 709,
      "臠": 710,
      "舌": 711,
      "舍": 712,
      "船": 713,
      "艚": 714,
      "艟": 715,
      "艮": 716,
      "色": 717,
      "芙": 718,
      "芫": 719,
      "苜": 720,
      "茉": 721,
      "茗": 722,
      "茯": 723,
      "茱": 724,
      "荳": 725,
      "莪": 726,
      "菖": 727,
      "萵": 728,
      "葆": 729,
      "葈": 730,
      "葯": 731,
      "葱": 732,
      "葺": 733,
      "蒿": 734,
      "蓍": 735,
      "蓑": 736,
      "蓙": 737,
      "蓴": 738,
      "蔟": 739,
      "蔭": 740,
      "蕗": 741,
      "薀": 742,
      "薊": 743,
      "薰": 744,
      "藕": 745,
      "藤": 746,
      "虜": 747,
      "蚕": 748,
      "蚣": 749,
      "蚩": 750,
      "蛎": 751,
      "蛮": 752,
      "蝉": 753,
      "蝦": 754,
      "螂": 755,
      "蠅": 756,
      "蠡": 757,
      "衫": 758,
      "裃": 759,
      "裝": 760,
      "裹": 761,
      "襆": 762,
      "要": 763,
      "覘": 764,
      "覦": 765,
      "覲": 766,
      "覿": 767,
      "觜": 768,
      "解": 769,
      "触": 770,
      "討": 771,
      "託": 772,
      "訳": 773,
      "訶": 774,
      "詩": 775,
      "該": 776,
      "誄": 777,
      "課": 778,
      "誾": 779,
      "調": 780,
      "諄": 781,
      "談": 782,
      "請": 783,
      "諒": 784,
      "諟": 785,
      "諦": 786,
      "諸": 787,
      "謙": 788,
      "謠": 789,
      "譁": 790,
      "變": 791,
      "讙": 792,
      "貊": 793,
      "貲": 794,
      "賃": 795,
      "賊": 796,
      "賣": 797,
      "賭": 798,
      "賰": 799,
      "賴": 800,
      "跏": 801,
      "践": 802,
      "蹇": 803,
      "蹌": 804,
      "躇": 805,
      "躔": 806,
      "躡": 807,
      "躱": 808,
      "軆": 809,
      "輝": 810,
      "轎": 811,
      "轺": 812,
      "辯": 813,
      "迅": 814,
      "近": 815,
      "迚": 816,
      "述": 817,
      "迸": 818,
      "逓": 819,
      "逮": 820,
      "週": 821,
      "遁": 822,
      "遐": 823,
      "邂": 824,
      "邊": 825,
      "邏": 826,
      "那": 827,
      "郞": 828,
      "鄒": 829,
      "鄧": 830,
      "鄭": 831,
      "酢": 832,
      "醋": 833,
      "醯": 834,
      "釤": 835,
      "釥": 836,
      "鈑": 837,
      "鉑": 838,
      "鉞": 839,
      "鉤": 840,
      "銈": 841,
      "銹": 842,
      "鋙": 843,
      "鋠": 844,
      "錂": 845,
      "錣": 846,
      "鍈": 847,
      "鍔": 848,
      "鍮": 849,
      "鍰": 850,
      "鍾": 851,
      "鏆": 852,
      "鏸": 853,
      "鐡": 854,
      "鑞": 855,
      "鑿": 856,
      "閒": 857,
      "防": 858,
      "阻": 859,
      "陋": 860,
      "陵": 861,
      "陷": 862,
      "隆": 863,
      "隯": 864,
      "雉": 865,
      "震": 866,
      "霈": 867,
      "靃": 868,
      "靕": 869,
      "静": 870,
      "面": 871,
      "靦": 872,
      "鞘": 873,
      "鞭": 874,
      "韃": 875,
      "韈": 876,
      "頁": 877,
      "頴": 878,
      "頸": 879,
      "顱": 880,
      "顴": 881,
      "飜": 882,
      "飫": 883,
      "飯": 884,
      "飼": 885,
      "餅": 886,
      "餘": 887,
      "餠": 888,
      "餾": 889,
      "饅": 890,
      "首": 891,
      "駅": 892,
      "驅": 893,
      "驎": 894,
      "髏": 895,
      "髑": 896,
      "髓": 897,
      "髫": 898,
      "鬥": 899,
      "鬻": 900,
      "魄": 901,
      "鮎": 902,
      "鮏": 903,
      "鮮": 904,
      "鯒": 905,
      "鯰": 906,
      "鰤": 907,
      "鱒": 908,
      "鳫": 909,
      "鳬": 910,
      "鳶": 911,
      "鴒": 912,
      "鴕": 913,
      "鴿": 914,
      "鵯": 915,
      "鶤": 916,
      "鶸": 917,
      "鷯": 918,
      "鷹": 919,
      "麭": 920,
      "麾": 921,
      "黔": 922,
      "黯": 923,
      "黼": 924,
      "鼈": 925,
      "齏": 926,
      "齠": 927,
      "齧": 928,
      "齪": 929,
      "﨏": 930,
      "！": 931,
      "＇": 932,
      "－": 933,
      "８": 934,
      "＠": 935,
      "［": 936,
      "ｋ": 937,
      "ｍ": 938,
      "ｑ": 939,
      "ｚ": 940,
      "｛": 941,
      "｡": 942,
      "｢": 943,
      "｣": 944,
      "､": 945,
      "･": 946,
      "ｦ": 947,
      "ｧ": 948,
      "ｨ": 949,
      "ｩ": 950,
      "ｪ": 951,
      "ｫ": 952,
      "ｬ": 953,
      "ｭ": 954,
      "ｮ": 955,
      "ｯ": 956,
      "ｰ": 957,
      "ｱ": 958,
      "ｲ": 959,
      "ｳ": 960,
      "ｴ": 961,
      "ｵ": 962,
      "ｶ": 963,
      "ｷ": 964,
      "ｸ": 965,
      "ｹ": 966,
      "ｺ": 967,
      "ｻ": 968,
      "ｼ": 969,
      "ｽ": 970,
      "ｾ": 971,
      "ｿ": 972,
      "ﾀ": 973,
      "ﾁ": 974,
      "ﾂ": 975,
      "ﾃ": 976,
      "ﾄ": 977,
      "ﾅ": 978,
      "ﾆ": 979,
      "ﾇ": 980,
      "ﾈ": 981,
      "ﾉ": 982,
      "ﾊ": 983,
      "ﾋ": 984,
      "ﾌ": 985,
      "ﾍ": 986,
      "ﾎ": 987,
      "ﾏ": 988,
      "ﾐ": 989,
      "ﾑ": 990,
      "ﾒ": 991,
      "ﾓ": 992,
      "ﾔ": 993,
      "ﾕ": 994,
      "ﾖ": 995,
      "ﾗ": 996,
      "ﾘ": 997,
      "ﾙ": 998,
      "ﾚ": 999,
      "ﾛ": 1000,
      "ﾜ": 1001,
      "ﾝ": 1002,
      "ﾞ": 1003,
      "ﾟ": 1004,
      "##7": 1005,
      "##t": 1006,
      "##ﾝ": 1007,
      "##j": 1008,
      "##o": 1009,
      "##s": 1010,
      "##e": 1011,
      "##½": 1012,
      "##n": 1013,
      "##œ": 1014,
      "##p": 1015,
      "##h": 1016,
      "##ｳ": 1017,
      "##a": 1018,
      "##3": 1019,
      "##q": 1020,
      "##r": 1021,
      "##ƒ": 1022,
      "##d": 1023,
      "##2": 1024,
      "##i": 1025,
      "##u": 1026,
      "##c": 1027,
      "##¢": 1028,
      "##¹": 1029,
      "##w": 1030,
      "##¼": 1031,
      "##m": 1032,
      "##™": 1033,
      "##ð": 1034,
      "##5": 1035,
      "##¥": 1036,
      "##י": 1037,
      "##ס": 1038,
      "##א": 1039,
      "##ג": 1040,
      "##נ": 1041,
      "##1": 1042,
      "##æ": 1043,
      "##y": 1044,
      "##÷": 1045,
      "##±": 1046,
      "##כ": 1047,
      "##ש": 1048,
      "##ד": 1049,
      "##ב": 1050,
      "##ר": 1051,
      "##ת": 1052,
      "##b": 1053,
      "##³": 1054,
      "##ע": 1055,
      "##ו": 1056,
      "##ה": 1057,
      "##ם": 1058,
      "##k": 1059,
      "##9": 1060,
      "##v": 1061,
      "##x": 1062,
      "##0": 1063,
      "##ｬ": 1064,
      "##6": 1065,
      "##8": 1066,
      "##4": 1067,
      "##ｰ": 1068,
      "##ｧ": 1069,
      "##´": 1070,
      "##ø": 1071,
      "##省": 1072,
      "##ﾌ": 1073,
      "##鍰": 1074,
      "##ﾜ": 1075,
      "##¯": 1076,
      "##€": 1077,
      "##l": 1078,
      "##z": 1079,
      "##ﾏ": 1080,
      "##ｮ": 1081,
      "##¤": 1082,
      "##g": 1083,
      "##¨": 1084,
      "##¸": 1085,
      "##f": 1086,
      "##×": 1087,
      "##ח": 1088,
      "##þ": 1089,
      "##מ": 1090,
      "##ט": 1091,
      "##©": 1092,
      "##ﾈ": 1093,
      "##ﾕ": 1094,
      "##ﾑ": 1095,
      "##ß": 1096,
      "##°": 1097,
      "##¬": 1098,
      "##ﾄ": 1099,
      "##ｸ": 1100,
      "##ﾅ": 1101,
      "##ﾖ": 1102,
      "##£": 1103,
      "##¾": 1104,
      "##ｷ": 1105,
      "##ﾇ": 1106,
      "##ﾐ": 1107,
      "##ﾔ": 1108,
      "##ｱ": 1109,
      "##ﾉ": 1110,
      "##ﾙ": 1111,
      "##ﾎ": 1112,
      "##ｯ": 1113,
      "##ｴ": 1114,
      "##ｽ": 1115,
      "##ﾒ": 1116,
      "##ｲ": 1117,
      "##ｾ": 1118,
      "##ｦ": 1119,
      "##ｶ": 1120,
      "##ｪ": 1121,
      "##¦": 1122,
      "##ｨ": 1123,
      "##ﾁ": 1124,
      "##ﾗ": 1125,
      "##け": 1126,
      "##孟": 1127,
      "##µ": 1128,
      "##ˆ": 1129,
      "##葈": 1130,
      "##ｻ": 1131,
      "##®": 1132,
      "##ｵ": 1133,
      "##ק": 1134,
      "##º": 1135,
      "##ﾊ": 1136,
      "##フ": 1137,
      "##泛": 1138,
      "##ﾆ": 1139,
      "##ｺ": 1140,
      "##ｹ": 1141,
      "##ﾓ": 1142,
      "##ﾚ": 1143,
      "##ﾘ": 1144,
      "##ﾀ": 1145,
      "##ל": 1146,
      "##ﾛ": 1147,
      "##ª": 1148,
      "##ｫ": 1149,
      "##銈": 1150,
      "##ﾂ": 1151,
      "##ﾃ": 1152,
      "##ץ": 1153,
      "##˜": 1154,
      "##ז": 1155,
      "##ן": 1156,
      "##欺": 1157,
      "##茯": 1158,
      "##ｩ": 1159,
      "##驎": 1160,
      "##ﾋ": 1161,
      "##ｼ": 1162,
      "##蓍": 1163,
      "##²": 1164,
      "##ﾟ": 1165,
      "##פ": 1166,
      "##ｭ": 1167,
      "##ﾞ": 1168,
      "##か": 1169,
      "##髏": 1170,
      "##ⅰ": 1171,
      "##濛": 1172,
      "##綿": 1173,
      "##ｿ": 1174,
      "##∧": 1175,
      "##樹": 1176,
      "##℡": 1177,
      "##昨": 1178,
      "##т": 1179,
      "##芫": 1180,
      "##м": 1181,
      "##┥": 1182,
      "##叢": 1183,
      "##צ": 1184,
      "##侚": 1185,
      "##ﾍ": 1186,
      "##ю": 1187,
      "##н": 1188,
      "##х": 1189,
      "##і": 1190,
      "##ґ": 1191,
      "##з": 1192,
      "##а": 1193,
      "##є": 1194,
      "##и": 1195,
      "##ζ": 1196,
      "##黼": 1197,
      "##ы": 1198,
      "##歩": 1199,
      "##鉑": 1200,
      "##κ": 1201,
      "##鄧": 1202,
      "##冷": 1203,
      "##∪": 1204,
      "##妻": 1205,
      "##榎": 1206,
      "##亨": 1207,
      "##鬻": 1208,
      "##要": 1209,
      "##七": 1210,
      "##ц": 1211,
      "##埇": 1212,
      "##弡": 1213,
      "##窖": 1214,
      "##丨": 1215,
      "##飼": 1216,
      "##щ": 1217,
      "##槌": 1218,
      "##壜": 1219,
      "##匝": 1220,
      "##冝": 1221,
      "##祥": 1222,
      "##賣": 1223,
      "##ッ": 1224,
      "##昶": 1225,
      "##耐": 1226,
      "##髑": 1227,
      "##硺": 1228,
      "##皜": 1229,
      "##敲": 1230,
      "##翠": 1231,
      "##葯": 1232,
      "##峡": 1233,
      "##ь": 1234,
      "##о": 1235,
      "##е": 1236,
      "##э": 1237,
      "##鏆": 1238,
      "##№": 1239,
      "##ф": 1240,
      "##ⅷ": 1241,
      "##衫": 1242,
      "##昮": 1243,
      "##捜": 1244,
      "##埈": 1245,
      "##ｚ": 1246,
      "##к": 1247,
      "##в": 1248,
      "##靦": 1249,
      "##晙": 1250,
      "##д": 1251,
      "##タ": 1252,
      "##壕": 1253,
      "##課": 1254,
      "##ף": 1255,
      "##淼": 1256,
      "##擎": 1257,
      "##絳": 1258,
      "##鐡": 1259,
      "##僘": 1260,
      "##羣": 1261,
      "##栩": 1262,
      "##餘": 1263,
      "##螂": 1264,
      "##述": 1265,
      "##煜": 1266,
      "##濾": 1267,
      "##嶤": 1268,
      "##徘": 1269,
      "##仙": 1270,
      "##澵": 1271,
      "##槓": 1272,
      "##碯": 1273,
      "##薀": 1274,
      "##墲": 1275,
      "##疽": 1276,
      "##託": 1277,
      "##涇": 1278,
      "##鋙": 1279,
      "##ך": 1280,
      "##咀": 1281,
      "##琦": 1282,
      "##韃": 1283,
      "##調": 1284,
      "##券": 1285,
      "##櫢": 1286,
      "##鍈": 1287,
      "##甯": 1288,
      "##諸": 1289,
      "##曵": 1290,
      "##神": 1291,
      "##飯": 1292,
      "##∵": 1293,
      "##毳": 1294,
      "##竍": 1295,
      "##枩": 1296,
      "##淫": 1297,
      "##醯": 1298,
      "##攵": 1299,
      "##請": 1300,
      "##鷹": 1301,
      "##旌": 1302,
      "##吃": 1303,
      "##囹": 1304,
      "##椄": 1305,
      "##悊": 1306,
      "##г": 1307,
      "##覿": 1308,
      "##８": 1309,
      "##妸": 1310,
      "##を": 1311,
      "##喀": 1312,
      "##佐": 1313,
      "##鏸": 1314,
      "##待": 1315,
      "##џ": 1316,
      "##綉": 1317,
      "##惞": 1318,
      "##狙": 1319,
      "##央": 1320,
      "##鋠": 1321,
      "##躡": 1322,
      "##韈": 1323,
      "##杉": 1324,
      "##曄": 1325,
      "##縲": 1326,
      "##舌": 1327,
      "##黯": 1328,
      "##墸": 1329,
      "##齪": 1330,
      "##轎": 1331,
      "##傲": 1332,
      "##抔": 1333,
      "##ホ": 1334,
      "##暖": 1335,
      "##雉": 1336,
      "##ѕ": 1337,
      "##癇": 1338,
      "##ј": 1339,
      "##∠": 1340,
      "##覘": 1341,
      "##擦": 1342,
      "##厘": 1343,
      "##て": 1344,
      "##匀": 1345,
      "##◯": 1346,
      "##鑿": 1347,
      "##苜": 1348,
      "##鴒": 1349,
      "##瀛": 1350,
      "##堺": 1351,
      "##賊": 1352,
      "##鄭": 1353,
      "##餠": 1354,
      "##撤": 1355,
      "##釤": 1356,
      "##ね": 1357,
      "##蠅": 1358,
      "##燕": 1359,
      "##纐": 1360,
      "##架": 1361,
      "##氿": 1362,
      "##愑": 1363,
      "##厭": 1364,
      "##処": 1365,
      "##ж": 1366,
      "##喨": 1367,
      "##薊": 1368,
      "##鱒": 1369,
      "##簫": 1370,
      "##л": 1371,
      "##魄": 1372,
      "##洶": 1373,
      "##箚": 1374,
      "##溿": 1375,
      "##ⅴ": 1376,
      "##遁": 1377,
      "##迸": 1378,
      "##僴": 1379,
      "##偵": 1380,
      "##丘": 1381,
      "##麭": 1382,
      "##臑": 1383,
      "##♪": 1384,
      "##恫": 1385,
      "##奝": 1386,
      "##膾": 1387,
      "##怫": 1388,
      "##酢": 1389,
      "##炫": 1390,
      "##蓑": 1391,
      "##慯": 1392,
      "##筒": 1393,
      "##賃": 1394,
      "##崙": 1395,
      "##ゑ": 1396,
      "##ゝ": 1397,
      "##柱": 1398,
      "##釥": 1399,
      "##涜": 1400,
      "##匇": 1401,
      "##琿": 1402,
      "##у": 1403,
      "##р": 1404,
      "##ъ": 1405,
      "##敦": 1406,
      "##臓": 1407,
      "##陷": 1408,
      "##隆": 1409,
      "##曻": 1410,
      "##蝦": 1411,
      "##絈": 1412,
      "##≒": 1413,
      "##ل": 1414,
      "##م": 1415,
      "##ا": 1416,
      "##љ": 1417,
      "##位": 1418,
      "##偶": 1419,
      "##峵": 1420,
      "##堽": 1421,
      "##ш": 1422,
      "##ћ": 1423,
      "##蝉": 1424,
      "##患": 1425,
      "##嵂": 1426,
      "##歡": 1427,
      "##蚣": 1428,
      "##懋": 1429,
      "##孻": 1430,
      "##圭": 1431,
      "##肭": 1432,
      "##ｋ": 1433,
      "##п": 1434,
      "##畑": 1435,
      "##炬": 1436,
      "##熊": 1437,
      "##鶤": 1438,
      "##靃": 1439,
      "##艮": 1440,
      "##讙": 1441,
      "##с": 1442,
      "##搾": 1443,
      "##賰": 1444,
      "##忠": 1445,
      "##覦": 1446,
      "##莪": 1447,
      "##礼": 1448,
      "##週": 1449,
      "##臟": 1450,
      "##改": 1451,
      "##瓜": 1452,
      "##ウ": 1453,
      "##訶": 1454,
      "##葆": 1455,
      "##隯": 1456,
      "##郞": 1457,
      "##羹": 1458,
      "##虜": 1459,
      "##那": 1460,
      "##洄": 1461,
      "##ⅲ": 1462,
      "##餾": 1463,
      "##倚": 1464,
      "##鳬": 1465,
      "##拗": 1466,
      "##弖": 1467,
      "##熕": 1468,
      "##澆": 1469,
      "##ي": 1470,
      "##藤": 1471,
      "##饅": 1472,
      "##則": 1473,
      "##昞": 1474,
      "##徨": 1475,
      "##囿": 1476,
      "##鑞": 1477,
      "##飫": 1478,
      "##炮": 1479,
      "##瓮": 1480,
      "##浮": 1481,
      "##猿": 1482,
      "##乗": 1483,
      "##近": 1484,
      "##德": 1485,
      "##嘴": 1486,
      "##煌": 1487,
      "##泚": 1488,
      "##愴": 1489,
      "##探": 1490,
      "##解": 1491,
      "##夊": 1492,
      "##曰": 1493,
      "##閒": 1494,
      "##匳": 1495,
      "##侟": 1496,
      "##堻": 1497,
      "##夵": 1498,
      "##硝": 1499,
      "##刧": 1500,
      "##俳": 1501,
      "##迅": 1502,
      "##鮏": 1503,
      "##昤": 1504,
      "##該": 1505,
      "##禛": 1506,
      "##泪": 1507,
      "##竭": 1508,
      "##譁": 1509,
      "##奪": 1510,
      "##畤": 1511,
      "##簡": 1512,
      "##躔": 1513,
      "##材": 1514,
      "##邊": 1515,
      "##凹": 1516,
      "##њ": 1517,
      "##鬥": 1518,
      "##勅": 1519,
      "##蹌": 1520,
      "##岫": 1521,
      "##楳": 1522,
      "##б": 1523,
      "##症": 1524,
      "##黔": 1525,
      "##式": 1526,
      "##坊": 1527,
      "##蛮": 1528,
      "##ち": 1529,
      "##妖": 1530,
      "##殱": 1531,
      "##肥": 1532,
      "##掘": 1533,
      "##秉": 1534,
      "##蓙": 1535,
      "##謙": 1536,
      "##伹": 1537,
      "##顴": 1538,
      "##浯": 1539,
      "##縞": 1540,
      "##様": 1541,
      "##鞭": 1542,
      "##瀇": 1543,
      "##板": 1544,
      "##諒": 1545,
      "##石": 1546,
      "##摧": 1547,
      "##頴": 1548,
      "##謠": 1549,
      "##竫": 1550,
      "##福": 1551,
      "##税": 1552,
      "##ｑ": 1553,
      "##続": 1554,
      "##夷": 1555,
      "##癨": 1556,
      "##汯": 1557,
      "##俔": 1558,
      "##塵": 1559,
      "##鍮": 1560,
      "##迚": 1561,
      "##殻": 1562,
      "##楊": 1563,
      "##晥": 1564,
      "##所": 1565,
      "##覲": 1566,
      "##縹": 1567,
      "##歐": 1568,
      "##娟": 1569,
      "##工": 1570,
      "##嬋": 1571,
      "##活": 1572,
      "##サ": 1573,
      "##愀": 1574,
      "##ひ": 1575,
      "##從": 1576,
      "##橈": 1577,
      "##静": 1578,
      "##飜": 1579,
      "##鍾": 1580,
      "##蔭": 1581,
      "##濵": 1582,
      "##息": 1583,
      "##圀": 1584,
      "##橆": 1585,
      "##澣": 1586,
      "##獺": 1587,
      "##藕": 1588,
      "##岳": 1589,
      "##傭": 1590,
      "##焄": 1591,
      "##裃": 1592,
      "##徼": 1593,
      "##抒": 1594,
      "##宋": 1595,
      "##檸": 1596,
      "##睆": 1597,
      "##恠": 1598,
      "##燭": 1599,
      "##践": 1600,
      "##談": 1601,
      "##愡": 1602,
      "##栃": 1603,
      "##淲": 1604,
      "##し": 1605,
      "##鳫": 1606,
      "##я": 1607,
      "##稍": 1608,
      "##≧": 1609,
      "##漿": 1610,
      "##惺": 1611,
      "##廿": 1612,
      "##渉": 1613,
      "##熔": 1614,
      "##ⅱ": 1615,
      "##嘩": 1616,
      "##淮": 1617,
      "##胆": 1618,
      "##橾": 1619,
      "##網": 1620,
      "##操": 1621,
      "##崛": 1622,
      "##僉": 1623,
      "##諟": 1624,
      "##従": 1625,
      "##誾": 1626,
      "##哲": 1627,
      "##蠡": 1628,
      "##梠": 1629,
      "##庵": 1630,
      "##ч": 1631,
      "##鮎": 1632,
      "##撕": 1633,
      "##蒿": 1634,
      "##色": 1635,
      "##状": 1636,
      "##祉": 1637,
      "##嚠": 1638,
      "##刕": 1639,
      "##ｍ": 1640,
      "##▼": 1641,
      "##璞": 1642,
      "##ヤ": 1643,
      "##掟": 1644,
      "##卻": 1645,
      "##斌": 1646,
      "##諄": 1647,
      "##紀": 1648,
      "##荳": 1649,
      "##葺": 1650,
      "##妁": 1651,
      "##實": 1652,
      "##菖": 1653,
      "##吋": 1654,
      "##跏": 1655,
      "##椽": 1656,
      "##懣": 1657,
      "##断": 1658,
      "##址": 1659,
      "##齏": 1660,
      "##盾": 1661,
      "##髫": 1662,
      "##偆": 1663,
      "##鯒": 1664,
      "##ђ": 1665,
      "##汚": 1666,
      "##涼": 1667,
      "##圉": 1668,
      "##佖": 1669,
      "##茱": 1670,
      "##鍔": 1671,
      "##嚴": 1672,
      "##湎": 1673,
      "##θ": 1674,
      "##鼈": 1675,
      "##昃": 1676,
      "##蚩": 1677,
      "##ヘ": 1678,
      "##鴕": 1679,
      "##鯰": 1680,
      "##曁": 1681,
      "##毖": 1682,
      "##塗": 1683,
      "##煢": 1684,
      "##﨏": 1685,
      "##圏": 1686,
      "##裝": 1687,
      "##戦": 1688,
      "##陵": 1689,
      "##把": 1690,
      "##怯": 1691,
      "##姥": 1692,
      "##烈": 1693,
      "##問": 1694,
      "##嫩": 1695,
      "##恆": 1696,
      "##佃": 1697,
      "##猤": 1698,
      "##軆": 1699,
      "##脊": 1700,
      "##躱": 1701,
      "##蚕": 1702,
      "##榿": 1703,
      "##薰": 1704,
      "##彰": 1705,
      "##訳": 1706,
      "##ヒ": 1707,
      "##冑": 1708,
      "##坥": 1709,
      "##坙": 1710,
      "##誄": 1711,
      "##屈": 1712,
      "##蹇": 1713,
      "##官": 1714,
      "##寡": 1715,
      "##茗": 1716,
      "##鶸": 1717,
      "##邏": 1718,
      "##縛": 1719,
      "##銹": 1720,
      "##箴": 1721,
      "##υ": 1722,
      "##α": 1723,
      "##槝": 1724,
      "##鞘": 1725,
      "##貊": 1726,
      "##陋": 1727,
      "##竪": 1728,
      "##亳": 1729,
      "##徙": 1730,
      "##慵": 1731,
      "##孔": 1732,
      "##錂": 1733,
      "##喊": 1734,
      "##逮": 1735,
      "##綛": 1736,
      "##媾": 1737,
      "##楕": 1738,
      "##劍": 1739,
      "##船": 1740,
      "##蔟": 1741,
      "##樟": 1742,
      "##触": 1743,
      "##矛": 1744,
      "##鉤": 1745,
      "##繃": 1746,
      "##掖": 1747,
      "##遐": 1748,
      "##面": 1749,
      "##├": 1750,
      "##戓": 1751,
      "##涬": 1752,
      "##窓": 1753,
      "##ォ": 1754,
      "##新": 1755,
      "##栲": 1756,
      "##佳": 1757,
      "##〓": 1758,
      "##尽": 1759,
      "##娃": 1760,
      "##禊": 1761,
      "##施": 1762,
      "##群": 1763,
      "##潺": 1764,
      "##岑": 1765,
      "##呆": 1766,
      "##篌": 1767,
      "##泄": 1768,
      "##殺": 1769,
      "##癆": 1770,
      "##洙": 1771,
      "##楢": 1772,
      "##引": 1773,
      "##徭": 1774,
      "##桒": 1775,
      "##松": 1776,
      "##幼": 1777,
      "##驅": 1778,
      "##芙": 1779,
      "##磴": 1780,
      "##倉": 1781,
      "##汰": 1782,
      "##籔": 1783,
      "##ァ": 1784,
      "##變": 1785,
      "##λ": 1786,
      "##嵭": 1787,
      "##淕": 1788,
      "##殯": 1789,
      "##觜": 1790,
      "##討": 1791,
      "##痣": 1792,
      "##柔": 1793,
      "##掻": 1794,
      "##忽": 1795,
      "##貲": 1796,
      "##聡": 1797,
      "##渠": 1798,
      "##渫": 1799,
      "##塋": 1800,
      "##托": 1801,
      "##梟": 1802,
      "##霈": 1803,
      "##錣": 1804,
      "##鰤": 1805,
      "##鳶": 1806,
      "##愷": 1807,
      "##萵": 1808,
      "##慴": 1809,
      "##慘": 1810,
      "##彈": 1811,
      "##愉": 1812,
      "##屆": 1813,
      "##賴": 1814,
      "##綾": 1815,
      "##臠": 1816,
      "##鉞": 1817,
      "##卲": 1818,
      "##埣": 1819,
      "##艟": 1820,
      "##禺": 1821,
      "##聒": 1822,
      "##齧": 1823,
      "##詩": 1824,
      "##な": 1825,
      "##鴿": 1826,
      "##棊": 1827,
      "##挧": 1828,
      "##舍": 1829,
      "##摶": 1830,
      "##髓": 1831,
      "##√": 1832,
      "##罍": 1833,
      "##裹": 1834,
      "##岼": 1835,
      "##商": 1836,
      "##憲": 1837,
      "##齠": 1838,
      "##滕": 1839,
      "##鄒": 1840,
      "##シ": 1841,
      "##蓴": 1842,
      "##皎": 1843,
      "##穴": 1844,
      "##簧": 1845,
      "##鵯": 1846,
      "##逓": 1847,
      "##γ": 1848,
      "##弑": 1849,
      "##凜": 1850,
      "##顱": 1851,
      "##礙": 1852,
      "##麾": 1853,
      "##厩": 1854,
      "##系": 1855,
      "##仮": 1856,
      "##庖": 1857,
      "##惠": 1858,
      "##奅": 1859,
      "##徇": 1860,
      "##㍉": 1861,
      "##精": 1862,
      "##峠": 1863,
      "##防": 1864,
      "##找": 1865,
      "##紆": 1866,
      "##轺": 1867,
      "##徂": 1868,
      "##襆": 1869,
      "##賭": 1870,
      "##頁": 1871,
      "##振": 1872,
      "##弸": 1873,
      "##哘": 1874,
      "##姫": 1875,
      "##膽": 1876,
      "##首": 1877,
      "##懊": 1878,
      "##平": 1879,
      "##祠": 1880,
      "##蛎": 1881,
      "##囲": 1882,
      "##偃": 1883,
      "##諦": 1884,
      "##邂": 1885,
      "##鷯": 1886,
      "##欅": 1887,
      "##震": 1888,
      "##艚": 1889,
      "##泯": 1890,
      "##模": 1891,
      "##埼": 1892,
      "##潛": 1893,
      "##杪": 1894,
      "##揌": 1895,
      "##扛": 1896,
      "##厰": 1897,
      "##窰": 1898,
      "##鈑": 1899,
      "##葱": 1900,
      "##辯": 1901,
      "##恭": 1902,
      "##瑜": 1903,
      "##鮮": 1904,
      "##阻": 1905,
      "##餅": 1906,
      "##ぃ": 1907,
      "##瞭": 1908,
      "##晦": 1909,
      "##躇": 1910,
      "##田": 1911,
      "##眄": 1912,
      "##历": 1913,
      "##墊": 1914,
      "##駅": 1915,
      "##醋": 1916,
      "##㍗": 1917,
      "##点": 1918,
      "##柩": 1919,
      "##〒": 1920,
      "##蕗": 1921,
      "##娼": 1922,
      "##奱": 1923,
      "##頸": 1924,
      "##靕": 1925,
      "##牝": 1926,
      "##爨": 1927,
      "##輝": 1928,
      "##弦": 1929,
      "##₪": 1930,
      "##茉": 1931,
      "##惪": 1932,
      "##00": 1933,
      "##aa": 1934,
      "##01": 1935,
      "##06": 1936,
      "##pe": 1937,
      "##ype": 1938,
      "##ות": 1939,
      "##03": 1940,
      "mc": 1941,
      "##04": 1942,
      "type": 1943,
      "##22": 1944,
      "tj": 1945,
      "faa": 1946,
      "##nt": 1947,
      "tf": 1948,
      "12": 1949,
      "##ים": 1950,
      "##id": 1951,
      "faaa": 1952,
      "המ": 1953,
      "##02": 1954,
      "##de": 1955,
      "##05": 1956,
      "##86": 1957,
      "##33": 1958,
      "##65": 1959,
      "500": 1960,
      "##99": 1961,
      "##31": 1962,
      "##76": 1963,
      "##82": 1964,
      "##te": 1965,
      "pg": 1966,
      "##74": 1967,
      "##55": 1968,
      "##ור": 1969,
      "##ce": 1970,
      "##07": 1971,
      "##ית": 1972,
      "##63": 1973,
      "##43": 1974,
      "mcr": 1975,
      "mcid": 1976,
      "##26": 1977,
      "faaab": 1978,
      "td": 1979,
      "##44": 1980,
      "##2f": 1981,
      "##ני": 1982,
      "##69": 1983,
      "##2e": 1984,
      "##09": 1985,
      "##73": 1986,
      "722": 1987,
      "##56": 1988,
      "##ont": 1989,
      "##70": 1990,
      "##16": 1991,
      "של": 1992,
      "##ין": 1993,
      "##ng": 1994,
      "##יו": 1995,
      "##77": 1996,
      "##23": 1997,
      "##83": 1998,
      "##ca": 1999,
      "##75": 2000,
      "##ec": 2001,
      "##15": 2002,
      "##th": 2003,
      "##7a": 2004,
      "##98": 2005,
      "##ינ": 2006,
      "##81": 2007,
      "##41": 2008,
      "333": 2009,
      "##2a": 2010,
      "##78": 2011,
      "##cc": 2012,
      "##or": 2013,
      "##d3": 2014,
      "##53": 2015,
      "font": 2016,
      "##48": 2017,
      "##שר": 2018,
      "##66": 2019,
      "##co": 2020,
      "##ea": 2021,
      "##2b": 2022,
      "##יר": 2023,
      "##082": 2024,
      "על": 2025,
      "##ער": 2026,
      "##59": 2027,
      "##49": 2028,
      "##ig": 2029,
      "##0355": 2030,
      "##060355": 2031,
      "לה": 2032,
      "##0a": 2033,
      "##54": 2034,
      "##13": 2035,
      "##726": 2036,
      "##89": 2037,
      "##14": 2038,
      "##11": 2039,
      "##6c": 2040,
      "##dd": 2041,
      "##ול": 2042,
      "##29": 2043,
      "##0b": 2044,
      "##יב": 2045,
      "##ed": 2046,
      "443": 2047,
      "##0f": 2048,
      "##79": 2049,
      "fi": 2050,
      "##ag": 2051,
      "##42": 2052,
      "##וב": 2053,
      "כי": 2054,
      "##8f": 2055,
      "##19": 2056,
      "##ter": 2057,
      "##25": 2058,
      "##וד": 2059,
      "##a3": 2060,
      "##c3": 2061,
      "##es": 2062,
      "לא": 2063,
      "##1d": 2064,
      "##0101": 2065,
      "##70d": 2066,
      "##וק": 2067,
      "##ef": 2068,
      "##ri": 2069,
      "##וח": 2070,
      "##ou": 2071,
      "##נה": 2072,
      "המש": 2073,
      "##on": 2074,
      "את": 2075,
      "faaabh": 2076,
      "##300": 2077,
      "##4c": 2078,
      "##יה": 2079,
      "##ar": 2080,
      "##eb": 2081,
      "##type": 2082,
      "##0609": 2083,
      "##68": 2084,
      "##וע": 2085,
      "##eng": 2086,
      "##ength": 2087,
      "##ff": 2088,
      "length": 2089,
      "##le": 2090,
      "##ate": 2091,
      "##תי": 2092,
      "##פט": 2093,
      "556": 2094,
      "##ad": 2095,
      "fl": 2096,
      "##בר": 2097,
      "##6e": 2098,
      "##2d": 2099,
      "##85": 2100,
      "##4d": 2101,
      "##8648": 2102,
      "במ": 2103,
      "##7b": 2104,
      "##204": 2105,
      "##7f": 2106,
      "##86f": 2107,
      "##45": 2108,
      "##16d": 2109,
      "##6f": 2110,
      "##lter": 2111,
      "11": 2112,
      "##he": 2113,
      "su": 2114,
      "##ee": 2115,
      "##0e": 2116,
      "##6d": 2117,
      "##יק": 2118,
      "##0c": 2119,
      "##0601": 2120,
      "##86f70d": 2121,
      "##2a8648": 2122,
      "##2a864886f70d": 2123,
      "33": 2124,
      "##ab": 2125,
      "##95": 2126,
      "filter": 2127,
      "##ון": 2128,
      "##at": 2129,
      "##1f": 2130,
      "##67": 2131,
      "##tr": 2132,
      "sub": 2133,
      "##code": 2134,
      "##21": 2135,
      "##לי": 2136,
      "##757a": 2137,
      "##616d": 2138,
      "##616d757a": 2139,
      "##06092a864886f70d": 2140,
      "##8d": 2141,
      "הע": 2142,
      "##קש": 2143,
      "##0000": 2144,
      "למ": 2145,
      "##תו": 2146,
      "##08": 2147,
      "##06035504": 2148,
      "##an": 2149,
      "הח": 2150,
      "##me": 2151,
      "100": 2152,
      "##76f": 2153,
      "25": 2154,
      "הת": 2155,
      "##זק": 2156,
      "##bb": 2157,
      "##76f76": 2158,
      "##decode": 2159,
      "##it": 2160,
      "##רי": 2161,
      "בה": 2162,
      "הש": 2163,
      "##וי": 2164,
      "##ect": 2165,
      "##64": 2166,
      "##אל": 2167,
      "##יום": 2168,
      "בע": 2169,
      "##ום": 2170,
      "הא": 2171,
      "in": 2172,
      "##b3": 2173,
      "##24": 2174,
      "##88": 2175,
      "הד": 2176,
      "##ol": 2177,
      "##ice": 2178,
      "subtype": 2179,
      "14": 2180,
      "im": 2181,
      "לפ": 2182,
      "##7e": 2183,
      "str": 2184,
      "faaacc": 2185,
      "##al": 2186,
      "##7d": 2187,
      "##ent": 2188,
      "##0d": 2189,
      "##yy": 2190,
      "000": 2191,
      "מש": 2192,
      "##7c": 2193,
      "##יל": 2194,
      "##5e": 2195,
      "##5a": 2196,
      "##מור": 2197,
      "##נו": 2198,
      "##ob": 2199,
      "##bd": 2200,
      "##se": 2201,
      "##b9": 2202,
      "##st": 2203,
      "##וא": 2204,
      "##0505": 2205,
      "##atedecode": 2206,
      "flatedecode": 2207,
      "##003": 2208,
      "##יש": 2209,
      "##6a": 2210,
      "##62": 2211,
      "32": 2212,
      "##6963": 2213,
      "שה": 2214,
      "##יע": 2215,
      "##uc": 2216,
      "##ing": 2217,
      "##4f": 2218,
      "##חר": 2219,
      "##ot": 2220,
      "##35": 2221,
      "##בקש": 2222,
      "##71": 2223,
      "##נות": 2224,
      "##63726": 2225,
      "##ro": 2226,
      "##cf": 2227,
      "sig": 2228,
      "##e1": 2229,
      "##0201": 2230,
      "##ht": 2231,
      "##וחזק": 2232,
      "##0603551d": 2233,
      "the": 2234,
      "##in": 2235,
      "##ופ": 2236,
      "##10": 2237,
      "##ight": 2238,
      "277": 2239,
      "##יד": 2240,
      "##91": 2241,
      "##703": 2242,
      "##קב": 2243,
      "##4a": 2244,
      "##ay": 2245,
      "struc": 2246,
      "13": 2247,
      "an": 2248,
      "20": 2249,
      "##131": 2250,
      "##ומ": 2251,
      "de": 2252,
      "##61": 2253,
      "##8a": 2254,
      "בית": 2255,
      "##5b": 2256,
      "##ox": 2257,
      "35": 2258,
      "##082b": 2259,
      "##06082b": 2260,
      "##050507": 2261,
      "##0601050507": 2262,
      "##06082b0601050507": 2263,
      "##ject": 2264,
      "##22e": 2265,
      "##ac": 2266,
      "הה": 2267,
      "444": 2268,
      "המשפט": 2269,
      "##og": 2270,
      "##e9": 2271,
      "##צא": 2272,
      "10": 2273,
      "##4b": 2274,
      "24": 2275,
      "xob": 2276,
      "xobject": 2277,
      "##tor": 2278,
      "##er": 2279,
      "##age": 2280,
      "##כל": 2281,
      "##מו": 2282,
      "##311": 2283,
      "##lem": 2284,
      "בא": 2285,
      "38": 2286,
      "##telem": 2287,
      "structelem": 2288,
      "לע": 2289,
      "##שראל": 2290,
      "201": 2291,
      "לב": 2292,
      "##d9": 2293,
      "##37": 2294,
      "##c4": 2295,
      "##df": 2296,
      "1000": 2297,
      "##da": 2298,
      "##72": 2299,
      "##סק": 2300,
      "##d06092a864886f70d": 2301,
      "##d06092a864886f70d0101": 2302,
      "cm": 2303,
      "הר": 2304,
      "הס": 2305,
      "או": 2306,
      "##a2f": 2307,
      "22": 2308,
      "##2e6": 2309,
      "##ion": 2310,
      "##ame": 2311,
      "##84": 2312,
      "19": 2313,
      "##52": 2314,
      "for": 2315,
      "בש": 2316,
      "##60": 2317,
      "##ic": 2318,
      "הנ": 2319,
      "##74616d757a": 2320,
      "dev": 2321,
      "המוחזק": 2322,
      "##לה": 2323,
      "##is": 2324,
      "498": 2325,
      "וה": 2326,
      "##cb": 2327,
      "23": 2328,
      "הפ": 2329,
      "##1a": 2330,
      "##יא": 2331,
      "470": 2332,
      "זה": 2333,
      "##ינה": 2334,
      "##וס": 2335,
      "##26c": 2336,
      "389": 2337,
      "##לא": 2338,
      "##ding": 2339,
      "##8b": 2340,
      "##דר": 2341,
      "device": 2342,
      "##ap": 2343,
      "##עי": 2344,
      "##as": 2345,
      "##2e69": 2346,
      "##76f762e69": 2347,
      "##2e676f762e69": 2348,
      "##2e676f762e696c": 2349,
      "##cri": 2350,
      "##crip": 2351,
      "##c9": 2352,
      "##46": 2353,
      "##707": 2354,
      "##לט": 2355,
      "##נת": 2356,
      "442": 2357,
      "##7474": 2358,
      "##a2f2f": 2359,
      "##7474703": 2360,
      "##687474703": 2361,
      "##2e676f762e696c2f": 2362,
      "##687474703a2f2f": 2363,
      "faaabb": 2364,
      "d7": 2365,
      "##נים": 2366,
      "##des": 2367,
      "##ערער": 2368,
      "as": 2369,
      "##idth": 2370,
      "##6576": 2371,
      "##יון": 2372,
      "faaabf": 2373,
      "##די": 2374,
      "##cent": 2375,
      "fontdes": 2376,
      "##criptor": 2377,
      "fontdescriptor": 2378,
      "##206": 2379,
      "##ae": 2380,
      "et": 2381,
      "##313": 2382,
      "##av": 2383,
      "##70756": 2384,
      "##69632f": 2385,
      "##74616d757a2e676f762e696c2f": 2386,
      "##26c69632f": 2387,
      "##7075626c69632f": 2388,
      "##74616d757a2e676f762e696c2f7075626c69632f": 2389,
      "##333": 2390,
      "21": 2391,
      "לי": 2392,
      "##וש": 2393,
      "##687474703a2f2f63726": 2394,
      "005": 2395,
      "מס": 2396,
      "##301": 2397,
      "וב": 2398,
      "לח": 2399,
      "faaaa": 2400,
      "##2c": 2401,
      "##עת": 2402,
      "##999": 2403,
      "or": 2404,
      "##bc": 2405,
      "בפ": 2406,
      "בת": 2407,
      "##ירה": 2408,
      "##165": 2409,
      "##ינו": 2410,
      "15": 2411,
      "26": 2412,
      "##קר": 2413,
      "##nco": 2414,
      "##ncoding": 2415,
      "##ie": 2416,
      "כל": 2417,
      "610": 2418,
      "##6e74": 2419,
      "שב": 2420,
      "הצ": 2421,
      "##6b": 2422,
      "##out": 2423,
      "##0002": 2424,
      "##וג": 2425,
      "##9f": 2426,
      "ti": 2427,
      "לש": 2428,
      "##47": 2429,
      "##7322e": 2430,
      "##54616d757a": 2431,
      "##74616d757a2e676f762e696c2f7075626c69632f54616d757a": 2432,
      "581": 2433,
      "##ימ": 2434,
      "faaaca": 2435,
      "##וז": 2436,
      "##טע": 2437,
      "הג": 2438,
      "##רת": 2439,
      "31": 2440,
      "##5f": 2441,
      "611": 2442,
      "##מורת": 2443,
      "##01b": 2444,
      "pro": 2445,
      "##0500": 2446,
      "הב": 2447,
      "200": 2448,
      "נית": 2449,
      "278": 2450,
      "27": 2451,
      "666": 2452,
      "##973": 2453,
      "מה": 2454,
      "##e8": 2455,
      "##שה": 2456,
      "sp": 2457,
      "##avid": 2458,
      "015": 2459,
      "##sp": 2460,
      "##93": 2461,
      "בי": 2462,
      "##446576": 2463,
      "##4e": 2464,
      "##c8": 2465,
      "##אי": 2466,
      "##נס": 2467,
      "##494c": 2468,
      "##06092a864886f70d01": 2469,
      "##e6d": 2470,
      "##f66": 2471,
      "הדין": 2472,
      "##re": 2473,
      "col": 2474,
      "david": 2475,
      "des": 2476,
      "##65726": 2477,
      "##e6d65": 2478,
      "##1656c": 2479,
      "##204973": 2480,
      "##7261656c": 2481,
      "##76f7665726": 2482,
      "##f66204973": 2483,
      "##e6d656e74": 2484,
      "##76f7665726e6d656e74": 2485,
      "##f662049737261656c": 2486,
      "המערער": 2487,
      "by": 2488,
      "span": 2489,
      "17": 2490,
      "##עיף": 2491,
      "##af": 2492,
      "304": 2493,
      "bas": 2494,
      "29": 2495,
      "52": 2496,
      "##be": 2497,
      "##ct": 2498,
      "המשיב": 2499,
      "co": 2500,
      "to": 2501,
      "249": 2502,
      "##יפ": 2503,
      "מע": 2504,
      "##וט": 2505,
      "##ch": 2506,
      "##וכ": 2507,
      "##את": 2508,
      "אין": 2509,
      "##מש": 2510,
      "##צר": 2511,
      "##17": 2512,
      "39": 2513,
      "res": 2514,
      "לפי": 2515,
      "##ועד": 2516,
      "##0603550403": 2517,
      "##a9": 2518,
      "הכ": 2519,
      "##041": 2520,
      "18": 2521,
      "##34": 2522,
      "##0301": 2523,
      "##of": 2524,
      "##לו": 2525,
      "##ica": 2526,
      "667": 2527,
      "##1302": 2528,
      "777": 2529,
      "##efont": 2530,
      "basefont": 2531,
      "##0401": 2532,
      "cont": 2533,
      "##cd": 2534,
      "##our": 2535,
      "width": 2536,
      "##310b": 2537,
      "##18": 2538,
      "##are": 2539,
      "##8237": 2540,
      "##2b0601": 2541,
      "##04018237": 2542,
      "##2b060104018237": 2543,
      "##ource": 2544,
      "tm": 2545,
      "##ירות": 2546,
      "שנ": 2547,
      "##081": 2548,
      "##b5": 2549,
      "צו": 2550,
      "##9c": 2551,
      "##2043": 2552,
      "37": 2553,
      "image": 2554,
      "of": 2555,
      "##ayout": 2556,
      "16": 2557,
      "##tem": 2558,
      "34": 2559,
      "sign": 2560,
      "##יים": 2561,
      "##206f662049737261656c": 2562,
      "##76f7665726e6d656e74206f662049737261656c": 2563,
      "##300d06092a864886f70d0101": 2564,
      "30": 2565,
      "בס": 2566,
      "יש": 2567,
      "##oft": 2568,
      "##ניין": 2569,
      "##01a": 2570,
      "content": 2571,
      "##12": 2572,
      "##שות": 2573,
      "##עה": 2574,
      "בח": 2575,
      "28": 2576,
      "##3f": 2577,
      "זו": 2578,
      "##כות": 2579,
      "##height": 2580,
      "form": 2581,
      "##1b": 2582,
      "##עור": 2583,
      "36": 2584,
      "##gb": 2585,
      "cs": 2586,
      "bt": 2587,
      "##ags": 2588,
      "##char": 2589,
      "##son": 2590,
      "##stchar": 2591,
      "##כן": 2592,
      "##a1": 2593,
      "##060355040a": 2594,
      "name": 2595,
      "הוא": 2596,
      "##כך": 2597,
      "שלא": 2598,
      "מת": 2599,
      "##f4": 2600,
      "##xt": 2601,
      "##דים": 2602,
      "48": 2603,
      "##fe": 2604,
      "##fb": 2605,
      "##ources": 2606,
      "resources": 2607,
      "##rgb": 2608,
      "לישראל": 2609,
      "המח": 2610,
      "devicergb": 2611,
      "##oo": 2612,
      "##יות": 2613,
      "כא": 2614,
      "##ity": 2615,
      "##db": 2616,
      "log": 2617,
      "אני": 2618,
      "##3009": 2619,
      "##13144": 2620,
      "##311d3": 2621,
      "##061302": 2622,
      "##204341": 2623,
      "##06035504061302": 2624,
      "##01b060355040a": 2625,
      "##494c311d3": 2626,
      "##0603550403131": 2627,
      "##300906035504061302": 2628,
      "##01b060355040a13144": 2629,
      "##494c311d301b060355040a13144": 2630,
      "##300906035504061302494c311d301b060355040a13144": 2631,
      "וא": 2632,
      "##ba": 2633,
      "חוק": 2634,
      "##mp": 2635,
      "##ue": 2636,
      "color": 2637,
      "##00024": 2638,
      "fir": 2639,
      "##ותר": 2640,
      "bol": 2641,
      "##2303": 2642,
      "##not": 2643,
      "bold": 2644,
      "tr": 2645,
      "annot": 2646,
      "##רח": 2647,
      "##כת": 2648,
      "אשר": 2649,
      "logic": 2650,
      "##אות": 2651,
      "##0382": 2652,
      "##020a": 2653,
      "מיום": 2654,
      "##310b300906035504061302494c311d301b060355040a13144": 2655,
      "faaaag": 2656,
      "##מת": 2657,
      "##2b06010401823715": 2658,
      "##יבות": 2659,
      "##28": 2660,
      "##ace": 2661,
      "##696365": 2662,
      "250": 2663,
      "it": 2664,
      "המבקש": 2665,
      "##לת": 2666,
      "332": 2667,
      "##מה": 2668,
      "##97": 2669,
      "##יח": 2670,
      "מק": 2671,
      "##5c": 2672,
      "##רה": 2673,
      "##c2e": 2674,
      "##iab": 2675,
      "55": 2676,
      "התש": 2677,
      "רא": 2678,
      "##space": 2679,
      "colorspace": 2680,
      "he": 2681,
      "##יס": 2682,
      "משפט": 2683,
      "##ut": 2684,
      "##0001": 2685,
      "##dex": 2686,
      "index": 2687,
      "42": 2688,
      "##f8": 2689,
      "##ware": 2690,
      "##oftware": 2691,
      "##ונ": 2692,
      "software": 2693,
      "layout": 2694,
      "cid": 2695,
      "##וצא": 2696,
      "##08201": 2697,
      "encoding": 2698,
      "##311c3": 2699,
      "##fo": 2700,
      "pdf": 2701,
      "##862d": 2702,
      "ar": 2703,
      "##51": 2704,
      "##5d": 2705,
      "507": 2706,
      "778": 2707,
      "do": 2708,
      "##f3": 2709,
      "##מד": 2710,
      "##00d06092a864886f70d0101": 2711,
      "##uu": 2712,
      "##name": 2713,
      "276": 2714,
      "עם": 2715,
      "ניתן": 2716,
      "525": 2717,
      "##05000382": 2718,
      "##עות": 2719,
      "גם": 2720,
      "##אה": 2721,
      "##06082b0601050507300": 2722,
      "##687474703a2f2f63726c2e": 2723,
      "##8f3": 2724,
      "##arent": 2725,
      "##רכ": 2726,
      "##a8": 2727,
      "44": 2728,
      "##יצ": 2729,
      "מא": 2730,
      "819": 2731,
      "80": 2732,
      "ביום": 2733,
      "בד": 2734,
      "##וה": 2735,
      "##שת": 2736,
      "41": 2737,
      "faaabj": 2738,
      "##8e": 2739,
      "81900024": 2740,
      "ital": 2741,
      "and": 2742,
      "##יט": 2743,
      "40": 2744,
      "##20473": 2745,
      "##20434120473": 2746,
      "##310b300906035504061302494c311d301b060355040a1314476f7665726e6d656e74206f662049737261656c": 2747,
      "לת": 2748,
      "841": 2749,
      "stem": 2750,
      "cap": 2751,
      "הק": 2752,
      "fontbb": 2753,
      "fontbbox": 2754,
      "##ngle": 2755,
      "descent": 2756,
      "fontname": 2757,
      "flags": 2758,
      "ascent": 2759,
      "##icangle": 2760,
      "italicangle": 2761,
      "stemv": 2762,
      "capheight": 2763,
      "imag": 2764,
      "##ניס": 2765,
      "page": 2766,
      "הער": 2767,
      "סעיף": 2768,
      "##8303": 2769,
      "##וצ": 2770,
      "פר": 2771,
      "וע": 2772,
      "##d1": 2773,
      "טע": 2774,
      "255": 2775,
      "ול": 2776,
      "מח": 2777,
      "ide": 2778,
      "במש": 2779,
      "ident": 2780,
      "identity": 2781,
      "##בקשה": 2782,
      "56": 2783,
      "##614": 2784,
      "43": 2785,
      "בב": 2786,
      "75": 2787,
      "##וזי": 2788,
      "##set": 2789,
      "##f2": 2790,
      "##ai": 2791,
      "contents": 2792,
      "##9a": 2793,
      "##pp": 2794,
      "##מים": 2795,
      "##0403": 2796,
      "##tp": 2797,
      "proc": 2798,
      "procset": 2799,
      "##3d": 2800,
      "##ויות": 2801,
      "##31333": 2802,
      "עד": 2803,
      "לו": 2804,
      "החלט": 2805,
      "##311c301a": 2806,
      "##022": 2807,
      "בג": 2808,
      "45": 2809,
      "##dee": 2810,
      "##yyyy": 2811,
      "אם": 2812,
      "מב": 2813,
      "##14d": 2814,
      "##atter": 2815,
      "##ורה": 2816,
      "la": 2817,
      "patter": 2818,
      "pattern": 2819,
      "##26f": 2820,
      "המחוזי": 2821,
      "##39": 2822,
      "##פר": 2823,
      "##oi": 2824,
      "##לק": 2825,
      "##605": 2826,
      "היא": 2827,
      "לחוק": 2828,
      "##ze": 2829,
      "221": 2830,
      "th": 2831,
      "265": 2832,
      "##657": 2833,
      "##פי": 2834,
      "כד": 2835,
      "##862e": 2836,
      "##47322e": 2837,
      "##74616d757a2e676f762e696c2f7075626c69632f54616d757a446576": 2838,
      "##74616d757a2e676f762e696c2f7075626c69632f54616d757a44657647322e": 2839,
      "##5263": 2840,
      "##300b": 2841,
      "##c322e": 2842,
      "##63657": 2843,
      "##687474703a2f2f63726c322e": 2844,
      "##862d687474703a2f2f63726c2e": 2845,
      "##862e687474703a2f2f63726c322e": 2846,
      "##d0603551d": 2847,
      "##74616d757a2e676f762e696c2f7075626c69632f54616d757a5263": 2848,
      "##6147322e": 2849,
      "##74616d757a2e676f762e696c2f7075626c69632f54616d757a52636147322e": 2850,
      "##a06": 2851,
      "השו": 2852,
      "sigf": 2853,
      "לאחר": 2854,
      "תש": 2855,
      "מד": 2856,
      "595": 2857,
      "##a301": 2858,
      "בין": 2859,
      "med": 2860,
      "this": 2861,
      "per": 2862,
      "##iabox": 2863,
      "mediabox": 2864,
      "57": 2865,
      "##קבע": 2866,
      "##spe": 2867,
      "##1e": 2868,
      "cop": 2869,
      "bit": 2870,
      "##טר": 2871,
      "כן": 2872,
      "ומ": 2873,
      "##יכ": 2874,
      "##יעה": 2875,
      "פסק": 2876,
      "##ינת": 2877,
      "03": 2878,
      "##7ad": 2879,
      "##083": 2880,
      "##a5": 2881,
      "##ms": 2882,
      "387": 2883,
      "ad": 2884,
      "##פק": 2885,
      "שא": 2886,
      "##חת": 2887,
      "##ותו": 2888,
      "##8201": 2889,
      "##fd": 2890,
      "##312": 2891,
      "is": 2892,
      "##555a": 2893,
      "היום": 2894,
      "##06092a864886f70d0107": 2895,
      "##חד": 2896,
      "##4414d": 2897,
      "##00000000": 2898,
      "##69636573": 2899,
      "##4414d555a": 2900,
      "##חה": 2901,
      "479": 2902,
      "##58": 2903,
      "299": 2904,
      "##atu": 2905,
      "rect": 2906,
      "לג": 2907,
      "195": 2908,
      "##06092a864886f70d0109": 2909,
      "##rco": 2910,
      "##בע": 2911,
      "##fi": 2912,
      "49": 2913,
      "##onent": 2914,
      "92": 2915,
      "##mponent": 2916,
      "height": 2917,
      "bitspe": 2918,
      "##rcomponent": 2919,
      "bitspercomponent": 2920,
      "##993": 2921,
      "##3e": 2922,
      "##חלט": 2923,
      "לד": 2924,
      "##ui": 2925,
      "parent": 2926,
      "##00a": 2927,
      "##c5": 2928,
      "בר": 2929,
      "##3b": 2930,
      "53": 2931,
      "##נית": 2932,
      "wi": 2933,
      "מצ": 2934,
      "faaabd": 2935,
      "##2043412047323": 2936,
      "length1": 2937,
      "##8c": 2938,
      "בקש": 2939,
      "gr": 2940,
      "##שו": 2941,
      "##43b": 2942,
      "54": 2943,
      "rea": 2944,
      "##020101": 2945,
      "##039": 2946,
      "##כר": 2947,
      "##מן": 2948,
      "reason": 2949,
      "תק": 2950,
      "בו": 2951,
      "##ולה": 2952,
      "##ata": 2953,
      "##לב": 2954,
      "ער": 2955,
      "true": 2956,
      "te": 2957,
      "signatu": 2958,
      "##יג": 2959,
      "נוס": 2960,
      "664": 2961,
      "653": 2962,
      "am": 2963,
      "##04a": 2964,
      "##764": 2965,
      "##nse": 2966,
      "##d5": 2967,
      "##8ad": 2968,
      "בפני": 2969,
      "##ניסה": 2970,
      "##icense": 2971,
      "##96": 2972,
      "##בות": 2973,
      "##ans": 2974,
      "##c7": 2975,
      "win": 2976,
      "##e3": 2977,
      "bb": 2978,
      "##font": 2979,
      "##כי": 2980,
      "##iencoding": 2981,
      "##ansiencoding": 2982,
      "winansiencoding": 2983,
      "##בוד": 2984,
      "si": 2985,
      "##ורך": 2986,
      "654": 2987,
      "act": 2988,
      "##ובד": 2989,
      "##f1": 2990,
      "##lu": 2991,
      "##לן": 2992,
      "ob": 2993,
      "##au": 2994,
      "##b6": 2995,
      "##פשר": 2996,
      "כך": 2997,
      "הז": 2998,
      "##27": 2999,
      "##8301": 3000,
      "##ib": 3001,
      "כדין": 3002,
      "##ew": 3003,
      "##565": 3004,
      "##יית": 3005,
      "##et": 3006,
      "##דם": 3007,
      "##fa": 3008,
      "ידי": 3009,
      "##ובה": 3010,
      "במשמורת": 3011,
      "360": 3012,
      "##פת": 3013,
      "ממ": 3014,
      "bbox": 3015,
      "00": 3016,
      "##לים": 3017,
      "ht": 3018,
      "time": 3019,
      "59": 3020,
      "date": 3021,
      "64": 3022,
      "לצ": 3023,
      "##tion": 3024,
      "553": 3025,
      "שמ": 3026,
      "##תא": 3027,
      "##006": 3028,
      "##0ce": 3029,
      "##238": 3030,
      "##020100": 3031,
      "350": 3032,
      "##ww": 3033,
      "השופט": 3034,
      "58": 3035,
      "אחר": 3036,
      "id": 3037,
      "http": 3038,
      "##כה": 3039,
      "##תנ": 3040,
      "לקב": 3041,
      "היה": 3042,
      "##fdd": 3043,
      "##1f4": 3044,
      "##תירה": 3045,
      "47": 3046,
      "##d6c": 3047,
      "##ניינ": 3048,
      "63": 3049,
      "##el": 3050,
      "##0101ff": 3051,
      "size": 3052,
      "ro": 3053,
      "##046": 3054,
      "50": 3055,
      "##כים": 3056,
      "##adf": 3057,
      "##ורת": 3058,
      "##2d446576": 3059,
      "##354414d555a": 3060,
      "##0603550403131354414d555a": 3061,
      "##310b300906035504061302494c311d301b060355040a1314476f7665726e6d656e74206f662049737261656c311c301a": 3062,
      "##636572303": 3063,
      "##04a310b300906035504061302494c311d301b060355040a1314476f7665726e6d656e74206f662049737261656c311c301a": 3064,
      "##2d44657669636573": 3065,
      "##0603550403131354414d555a2d44657669636573": 3066,
      "##04a310b300906035504061302494c311d301b060355040a1314476f7665726e6d656e74206f662049737261656c311c301a0603550403131354414d555a2d44657669636573": 3067,
      "##b89": 3068,
      "##e5": 3069,
      "95": 3070,
      "לר": 3071,
      "##ליך": 3072,
      "##sy": 3073,
      "750": 3074,
      "lm": 3075,
      "##li": 3076,
      "להלן": 3077,
      "ולא": 3078,
      "60": 3079,
      "##ריך": 3080,
      "##וף": 3081,
      "##po": 3082,
      "דין": 3083,
      "faaace": 3084,
      "##ובר": 3085,
      "##21b": 3086,
      "08": 3087,
      "##oup": 3088,
      "##2ba": 3089,
      "##d8": 3090,
      "group": 3091,
      "##696": 3092,
      "##שים": 3093,
      "פי": 3094,
      "##f5": 3095,
      "##rl": 3096,
      "##ובע": 3097,
      "widths": 3098,
      "##ao": 3099,
      "ope": 3100,
      "mat": 3101,
      "firstchar": 3102,
      "lastchar": 3103,
      "truetype": 3104,
      "##2d3": 3105,
      "##819": 3106,
      "faaabi": 3107,
      "##דינה": 3108,
      "##1c": 3109,
      "##ode": 3110,
      "הצד": 3111,
      "##iel": 3112,
      "89": 3113,
      "df": 3114,
      "##תה": 3115,
      "inc": 3116,
      "מן": 3117,
      "889": 3118,
      "xr": 3119,
      "##ther": 3120,
      "לס": 3121,
      "אף": 3122,
      "##ant": 3123,
      "sl": 3124,
      "הור": 3125,
      "inclu": 3126,
      "perm": 3127,
      "re": 3128,
      "license": 3129,
      "dl": 3130,
      "700": 3131,
      "rl": 3132,
      "copy": 3133,
      "##0416": 3134,
      "##0f04": 3135,
      "##רו": 3136,
      "##לות": 3137,
      "506": 3138,
      "99": 3139,
      "##020102": 3140,
      "##0001a3": 3141,
      "##020301": 3142,
      "##0e0416": 3143,
      "##f0603551d": 3144,
      "##003020102": 3145,
      "##0603551d0f04": 3146,
      "##300b0603551d0f04": 3147,
      "##d0603551d0e0416": 3148,
      "##0203010001a3": 3149,
      "##300b0603551d0f040403": 3150,
      "xref": 3151,
      "##שב": 3152,
      "##ii": 3153,
      "לבית": 3154,
      "##נסיבות": 3155,
      "##07c": 3156,
      "##c14": 3157,
      "etf": 3158,
      "signed": 3159,
      "flg": 3160,
      "##ddata": 3161,
      "sigfiel": 3162,
      "sigfielddata": 3163,
      "##7374": 3164,
      "##cu": 3165,
      "העותר": 3166,
      "##308201": 3167,
      "##06082b06010505073002": 3168,
      "69": 3169,
      "##709": 3170,
      "כאמור": 3171,
      "##eam": 3172,
      "רש": 3173,
      "##rix": 3174,
      "##width": 3175,
      "matrix": 3176,
      "##אים": 3177,
      "formtype": 3178,
      "##ax": 3179,
      "stream": 3180,
      "##ages": 3181,
      "735": 3182,
      "46": 3183,
      "##19f": 3184,
      "מקום": 3185,
      "##0ec": 3186,
      "אז": 3187,
      "text": 3188,
      "כדי": 3189,
      "זאת": 3190,
      "##ינוי": 3191,
      "au": 3192,
      "##סג": 3193,
      "##עתי": 3194,
      "ישראל": 3195,
      "החוק": 3196,
      "662": 3197,
      "##am": 3198,
      "##חות": 3199,
      "609": 3200,
      "##כם": 3201,
      "www": 3202,
      "##100": 3203,
      "##0414": 3204,
      "ביק": 3205,
      "use": 3206,
      "##יבור": 3207,
      "##שרד": 3208,
      "נכ": 3209,
      "##בול": 3210,
      "הדיון": 3211,
      "##0302": 3212,
      "אלה": 3213,
      "##קרה": 3214,
      "##014": 3215,
      "fr": 3216,
      "info": 3217,
      "##c8f": 3218,
      "##וצאות": 3219,
      "##0282": 3220,
      "first": 3221,
      "##7d1": 3222,
      "ft": 3223,
      "סב": 3224,
      "##gr": 3225,
      "##6801": 3226,
      "##של": 3227,
      "##0f003": 3228,
      "##e170d": 3229,
      "##0105000382": 3230,
      "##קע": 3231,
      "בכ": 3232,
      "##0204": 3233,
      "##rom": 3234,
      "root": 3235,
      "##חרור": 3236,
      "##יין": 3237,
      "##019": 3238,
      "##obe": 3239,
      "##ia": 3240,
      "##06092b06010401823715": 3241,
      "##06082b06010505070301": 3242,
      "##06082b06010505070302": 3243,
      "##23041": 3244,
      "##010104": 3245,
      "##63726c": 3246,
      "##63726c3": 3247,
      "##0603551d1f": 3248,
      "##06082b0601050507010104": 3249,
      "##83016801": 3250,
      "##f0603551d23041": 3251,
      "##0203010001a38201": 3252,
      "##f0603551d2304183016801": 3253,
      "##003020102020a": 3254,
      "מי": 3255,
      "##רש": 3256,
      "377": 3257,
      "##תיק": 3258,
      "adobe": 3259,
      "##779": 3260,
      "##c6f": 3261,
      "##65b": 3262,
      "##um": 3263,
      "##ign": 3264,
      "94": 3265,
      "מכ": 3266,
      "##049": 3267,
      "##d44": 3268,
      "##855": 3269,
      "##sign": 3270,
      "##839": 3271,
      "##803": 3272,
      "obj": 3273,
      "ניתנה": 3274,
      "##8302": 3275,
      "דבר": 3276,
      "##stm": 3277,
      "##ונה": 3278,
      "##301d0603551d0e0416": 3279,
      "##ns": 3280,
      "אל": 3281,
      "02": 3282,
      "##ניה": 3283,
      "##0201003": 3284,
      "09": 3285,
      "##424": 3286,
      "##9917": 3287,
      "##a0": 3288,
      "98": 3289,
      "##אריך": 3290,
      "##תק": 3291,
      "##2300d06092a864886f70d0101": 3292,
      "##ly": 3293,
      "נע": 3294,
      "אינ": 3295,
      "הכניסה": 3296,
      "##11e": 3297,
      "##86b": 3298,
      "##05f": 3299,
      "##244": 3300,
      "הבקשה": 3301,
      "##istr": 3302,
      "הערעור": 3303,
      "המדינה": 3304,
      "##מי": 3305,
      "##3133303": 3306,
      "##9b": 3307,
      "##ded": 3308,
      "##מצ": 3309,
      "##istry": 3310,
      "##406": 3311,
      "##de1": 3312,
      "##828": 3313,
      "sa": 3314,
      "הצדדים": 3315,
      "##רית": 3316,
      "##799": 3317,
      "##7cd": 3318,
      "בנסיבות": 3319,
      "273": 3320,
      "##ולם": 3321,
      "##0e3": 3322,
      "האמור": 3323,
      "220": 3324,
      "##יקה": 3325,
      "annots": 3326,
      "##459": 3327,
      "51": 3328,
      "faaabc": 3329,
      "פע": 3330,
      "##lo": 3331,
      "##בי": 3332,
      "##000244": 3333,
      "93": 3334,
      "##310f": 3335,
      "##gray": 3336,
      "devicegray": 3337,
      "אות": 3338,
      "##307": 3339,
      "##az": 3340,
      "בישראל": 3341,
      "##ברה": 3342,
      "##רך": 3343,
      "527": 3344,
      "216": 3345,
      "##0b05": 3346,
      "##1e1": 3347,
      "להג": 3348,
      "##כנ": 3349,
      "##ment": 3350,
      "##ee9": 3351,
      "##0b05000382": 3352,
      "##204341204732301": 3353,
      "##0b05003": 3354,
      "##204341204732301e170d": 3355,
      "##פים": 3356,
      "עוד": 3357,
      "##ni": 3358,
      "##82b": 3359,
      "##00ec": 3360,
      "##7b4": 3361,
      "##d6a": 3362,
      "שע": 3363,
      "with": 3364,
      "##סגרת": 3365,
      "##63726c3081": 3366,
      "##0603551d1f046": 3367,
      "other": 3368,
      "##86301": 3369,
      "##וך": 3370,
      "##ccc": 3371,
      "הסתנ": 3372,
      "objstm": 3373,
      "325": 3374,
      "##ebre": 3375,
      "קב": 3376,
      "עב": 3377,
      "הנו": 3378,
      "hebre": 3379,
      "hebrew": 3380,
      "lin": 3381,
      "##2ea": 3382,
      "app": 3383,
      "##57": 3384,
      "##f59": 3385,
      "##f9c": 3386,
      "##079": 3387,
      "##204341204732301e170d3133303": 3388,
      "##53d": 3389,
      "##td": 3390,
      "out": 3391,
      "##835": 3392,
      "##פור": 3393,
      "##ילה": 3394,
      "המשיבים": 3395,
      "##056": 3396,
      "##ופן": 3397,
      "imageb": 3398,
      "imagec": 3399,
      "imagei": 3400,
      "##929": 3401,
      "##65a1": 3402,
      "##oe": 3403,
      "##301f0603551d2304183016801": 3404,
      "abc": 3405,
      "abcdee": 3406,
      "##נק": 3407,
      "אי": 3408,
      "המוחזקת": 3409,
      "##116": 3410,
      "##063": 3411,
      "signature": 3412,
      "##02d": 3413,
      "##06e": 3414,
      "##פוא": 3415,
      "##חק": 3416,
      "##639": 3417,
      "1009": 3418,
      "##bf": 3419,
      "##274": 3420,
      "המשמורת": 3421,
      "359": 3422,
      "##443": 3423,
      "891": 3424,
      "##תאם": 3425,
      "יה": 3426,
      "כב": 3427,
      "229": 3428,
      "##0002441": 3429,
      "##יחס": 3430,
      "##דת": 3431,
      "tu": 3432,
      "61": 3433,
      "pages": 3434,
      "##422": 3435,
      "##יהם": 3436,
      "##2fd": 3437,
      "##97d": 3438,
      "90002441": 3439,
      "##455": 3440,
      "##מונה": 3441,
      "##ייב": 3442,
      "##אש": 3443,
      "בכל": 3444,
      "##43d": 3445,
      "##cy": 3446,
      "##qj": 3447,
      "##ur": 3448,
      "##c3b": 3449,
      "##41a": 3450,
      "הפנים": 3451,
      "##7e3": 3452,
      "mm": 3453,
      "##3128302": 3454,
      "252": 3455,
      "##file": 3456,
      "##103": 3457,
      "##6f74": 3458,
      "##858": 3459,
      "##295": 3460,
      "6539917": 3461,
      "שו": 3462,
      "##ov": 3463,
      "##aa2": 3464,
      "##a04": 3465,
      "##59c": 3466,
      "##65f": 3467,
      "##צה": 3468,
      "##c6": 3469,
      "לפני": 3470,
      "##992": 3471,
      "##d83": 3472,
      "להת": 3473,
      "300": 3474,
      "##4f5": 3475,
      "רשות": 3476,
      "##אר": 3477,
      "fontfile": 3478,
      "fontfile2": 3479,
      "576": 3480,
      "##ul": 3481,
      "##9e1": 3482,
      "62": 3483,
      "90": 3484,
      "שיק": 3485,
      "##23f": 3486,
      "##99b": 3487,
      "##73039": 3488,
      "##33375": 3489,
      "החלטה": 3490,
      "##205": 3491,
      "##7306": 3492,
      "##b06": 3493,
      "##לום": 3494,
      "##7b9": 3495,
      "##4509": 3496,
      "##ed8f": 3497,
      "##99d9": 3498,
      "##232303": 3499,
      "##591": 3500,
      "##460f": 3501,
      "##45f": 3502,
      "##ds": 3503,
      "##15a": 3504,
      "##625": 3505,
      "##acff": 3506,
      "##4cf": 3507,
      "##74616d757a2e676f762e696c2f7075626c69632f54616d757a44657647322e636572303": 3508,
      "##08a": 3509,
      "##67d6c": 3510,
      "##79307": 3511,
      "##53063": 3512,
      "##1a05f": 3513,
      "##968f3": 3514,
      "##8506082b0601050507010104": 3515,
      "##a061a05f": 3516,
      "##63726c862e687474703a2f2f63726c322e": 3517,
      "##803ed8f": 3518,
      "##00ec460f": 3519,
      "##63726c30818506082b0601050507010104": 3520,
      "##0603551d1f0467306": 3521,
      "##06e0603551d1f0467306": 3522,
      "##43d00ec460f": 3523,
      "##450967d6c": 3524,
      "##99d969": 3525,
      "##7930773039": 3526,
      "##53063a061a05f": 3527,
      "##968f3803ed8f": 3528,
      "##63726c30818506082b06010505070101047930773039": 3529,
      "##06e0603551d1f046730653063a061a05f": 3530,
      "##43d00ec460f968f3803ed8f": 3531,
      "##450967d6c99d969": 3532,
      "##06e0603551d1f046730653063a061a05f862d687474703a2f2f63726c2e": 3533,
      "##43d00ec460f968f3803ed8f450967d6c99d969": 3534,
      "##06082b06010505073001": 3535,
      "נמ": 3536,
      "##c83": 3537,
      "##ed3": 3538,
      "נד": 3539,
      "##45e": 3540,
      "בסעיף": 3541,
      "569": 3542,
      "##50b": 3543,
      "##פה": 3544,
      "התק": 3545,
      "##g7": 3546,
      "בבית": 3547,
      "##uo": 3548,
      "07": 3549,
      "##זה": 3550,
      "##ליט": 3551,
      "dec": 3552,
      "##0c6": 3553,
      "ראו": 3554,
      "##96a": 3555,
      "הית": 3556,
      "##nge": 3557,
      "##998": 3558,
      "נקבע": 3559,
      "##755": 3560,
      "##כויות": 3561,
      "לק": 3562,
      "uri": 3563,
      "##לתי": 3564,
      "##מות": 3565,
      "av": 3566,
      "##ירת": 3567,
      "##בה": 3568,
      "##mes": 3569,
      "##d7": 3570,
      "##137b": 3571,
      "##new": 3572,
      "frm": 3573,
      "em": 3574,
      "##5300": 3575,
      "##6f15": 3576,
      "##cf5e": 3577,
      "##664d": 3578,
      "334": 3579,
      "##f8ca": 3580,
      "##info": 3581,
      "##6f116": 3582,
      "##301f0603551d23041830168014b": 3583,
      "times": 3584,
      "##1f3": 3585,
      "##roman": 3586,
      "##ופה": 3587,
      "decode": 3588,
      "הט": 3589,
      "faaabg": 3590,
      "במסגרת": 3591,
      "##300d06092a864886f70d01010505": 3592,
      "ערעור": 3593,
      "בתו": 3594,
      "##fbb": 3595,
      "בהתאם": 3596,
      "##57f": 3597,
      "oa": 3598,
      "##יימ": 3599,
      "##ימו": 3600,
      "##par": 3601,
      "##mt": 3602,
      "132": 3603,
      "##ודה": 3604,
      "##c62": 3605,
      "72": 3606,
      "colum": 3607,
      "decodepar": 3608,
      "decodeparms": 3609,
      "columns": 3610,
      "##a6": 3611,
      "##238313": 3612,
      "pre": 3613,
      "##150d": 3614,
      "##חס": 3615,
      "##70bd": 3616,
      "##we": 3617,
      "##un": 3618,
      "747": 3619,
      "url": 3620,
      "##אלה": 3621,
      "##072d3": 3622,
      "##5e16d": 3623,
      "##31333238313": 3624,
      "##00000000072d3": 3625,
      "##4595e16d": 3626,
      "##4595e16d00000000072d3": 3627,
      "##ation": 3628,
      "330": 3629,
      "##צוע": 3630,
      "##pose": 3631,
      "aa": 3632,
      "אך": 3633,
      "488": 3634,
      "202": 3635,
      "##oy": 3636,
      "##צרים": 3637,
      "us": 3638,
      "אינו": 3639,
      "##גע": 3640,
      "חבר": 3641,
      "##hed": 3642,
      "##חלטה": 3643,
      "אב": 3644,
      "##oa": 3645,
      "ei": 3646,
      "##סר": 3647,
      "##02e": 3648,
      "אלא": 3649,
      "המשיבה": 3650,
      "96": 3651,
      "##זור": 3652,
      "בעני": 3653,
      "det": 3654,
      "ביקורת": 3655,
      "העתירה": 3656,
      "לכך": 3657,
      "on": 3658,
      "##20526f": 3659,
      "##20526f6f74": 3660,
      "המק": 3661,
      "199": 3662,
      "תאריך": 3663,
      "##מא": 3664,
      "הרי": 3665,
      "המת": 3666,
      "##זר": 3667,
      "##756": 3668,
      "##935": 3669,
      "##ki": 3670,
      "##פני": 3671,
      "376": 3672,
      "##ual": 3673,
      "##ידה": 3674,
      "תח": 3675,
      "##988": 3676,
      "##ובת": 3677,
      "##ted": 3678,
      "##08203": 3679,
      "אינה": 3680,
      "##טח": 3681,
      "##ומר": 3682,
      "##d6": 3683,
      "833": 3684,
      "en": 3685,
      "וכן": 3686,
      "##2313": 3687,
      "הסתננות": 3688,
      "##122": 3689,
      "##ירוש": 3690,
      "##207": 3691,
      "חלק": 3692,
      "##yyy": 3693,
      "משרד": 3694,
      "##im": 3695,
      "##text": 3696,
      "actual": 3697,
      "##0003": 3698,
      "actualtext": 3699,
      "##279": 3700,
      "pr": 3701,
      "דרך": 3702,
      "##ies": 3703,
      "##map": 3704,
      "בער": 3705,
      "dw": 3706,
      "275": 3707,
      "##yk": 3708,
      "##iu": 3709,
      "##3306": 3710,
      "pri": 3711,
      "##צאה": 3712,
      "##וקול": 3713,
      "##ניות": 3714,
      "307": 3715,
      "322": 3716,
      "##sion": 3717,
      "ap": 3718,
      "not": 3719,
      "בני": 3720,
      "##0393": 3721,
      "##וטוקול": 3722,
      "##099": 3723,
      "המצ": 3724,
      "##e6": 3725,
      "##כלל": 3726,
      "any": 3727,
      "למש": 3728,
      "##ical": 3729,
      "print": 3730,
      "בדבר": 3731,
      "##023": 3732,
      "וכי": 3733,
      "permit": 3734,
      "included": 3735,
      "##7c5": 3736,
      "cr": 3737,
      "##70d313": 3738,
      "##cen": 3739,
      "##92": 3740,
      "tou": 3741,
      "ac": 3742,
      "##edic": 3743,
      "predic": 3744,
      "without": 3745,
      "כוח": 3746,
      "predictor": 3747,
      "##ולים": 3748,
      "##dant": 3749,
      "##tog": 3750,
      "##ibl": 3751,
      "##ביעה": 3752,
      "mit": 3753,
      "##right": 3754,
      "copyright": 3755,
      "bibl": 3756,
      "##ntype": 3757,
      "opentype": 3758,
      "biblical": 3759,
      "##nicode": 3760,
      "tounicode": 3761,
      "descen": 3762,
      "type0": 3763,
      "##קרקע": 3764,
      "##fonts": 3765,
      "##dantfonts": 3766,
      "descendantfonts": 3767,
      "##שי": 3768,
      "עו": 3769,
      "לטע": 3770,
      "yˆ": 3771,
      "##יעת": 3772,
      "##stem": 3773,
      "##רות": 3774,
      "חש": 3775,
      "##וכח": 3776,
      "##system": 3777,
      "cidsystem": 3778,
      "cidsysteminfo": 3779,
      "##type2": 3780,
      "cidfont": 3781,
      "cidfonttype2": 3782,
      "##מכות": 3783,
      "##idmap": 3784,
      "cidtog": 3785,
      "cidtogidmap": 3786,
      "##נהל": 3787,
      "##der": 3788,
      "docu": 3789,
      "66": 3790,
      "84": 3791,
      "##69676": 3792,
      "324": 3793,
      "##והה": 3794,
      "באופן": 3795,
      "עצ": 3796,
      "משמורת": 3797,
      "##69a": 3798,
      "faaacd": 3799,
      "##4f1": 3800,
      "##4b9": 3801,
      "במועד": 3802,
      "בק": 3803,
      "##23d": 3804,
      "##00000": 3805,
      "מוחזק": 3806,
      "נג": 3807,
      "כאשר": 3808,
      "הוד": 3809,
      "251": 3810,
      "מר": 3811,
      "000000": 3812,
      "##oh": 3813,
      "##ce3": 3814,
      "##462": 3815,
      "כפי": 3816,
      "##0eb": 3817,
      "##cm": 3818,
      "crea": 3819,
      "בקשה": 3820,
      "prod": 3821,
      "לעניין": 3822,
      "##וות": 3823,
      "886": 3824,
      "##2eb": 3825,
      "מטע": 3826,
      "##81e": 3827,
      "##יבה": 3828,
      "##719": 3829,
      "בנו": 3830,
      "##48c": 3831,
      "##b4": 3832,
      "##ud": 3833,
      "האר": 3834,
      "prev": 3835,
      "##ידי": 3836,
      "578": 3837,
      "##18d": 3838,
      "המע": 3839,
      "ds": 3840,
      "##64c": 3841,
      "##ועדה": 3842,
      "##רט": 3843,
      "לתק": 3844,
      "306": 3845,
      "415": 3846,
      "65": 3847,
      "##יני": 3848,
      "##ps": 3849,
      "יס": 3850,
      "##60603550403131": 3851,
      "##76f7665726e6d656e74206f662049737261656c20526f6f74": 3852,
      "##f476f7665726e6d656e74206f662049737261656c20526f6f74": 3853,
      "##310b300906035504061302494c311d301b060355040a1314476f7665726e6d656e74206f662049737261656c3128302": 3854,
      "##056310b300906035504061302494c311d301b060355040a1314476f7665726e6d656e74206f662049737261656c3128302": 3855,
      "##60603550403131f476f7665726e6d656e74206f662049737261656c20526f6f74": 3856,
      "##056310b300906035504061302494c311d301b060355040a1314476f7665726e6d656e74206f662049737261656c312830260603550403131f476f7665726e6d656e74206f662049737261656c20526f6f74": 3857,
      "אזרח": 3858,
      "##בקשת": 3859,
      "##ובא": 3860,
      "##מוד": 3861,
      "331": 3862,
      "##יתן": 3863,
      "##ערך": 3864,
      "##de3": 3865,
      "##b1": 3866,
      "##d9d": 3867,
      "##וחר": 3868,
      "##pk": 3869,
      "##ישור": 3870,
      "88": 3871,
      "310": 3872,
      "שחרור": 3873,
      "##513": 3874,
      "##כום": 3875,
      "73": 3876,
      "##ua": 3877,
      "יד": 3878,
      "##082022": 3879,
      "השת": 3880,
      "##f04": 3881,
      "##נאי": 3882,
      "##ge": 3883,
      "להע": 3884,
      "mo": 3885,
      "##08205": 3886,
      "בתק": 3887,
      "מיו": 3888,
      "##c98": 3889,
      "##00609": 3890,
      "##2bd": 3891,
      "##010403": 3892,
      "action": 3893,
      "##130101ff": 3894,
      "##2b06010401823715010403": 3895,
      "##300b0603551d0f0404030201": 3896,
      "##006092b06010401823715010403": 3897,
      "##130101ff04": 3898,
      "##ילת": 3899,
      "400": 3900,
      "org": 3901,
      "לנ": 3902,
      "67": 3903,
      "בעניין": 3904,
      "faaaai": 3905,
      "81": 3906,
      "##ישה": 3907,
      "היו": 3908,
      "##301d0603551d0e04160414": 3909,
      "##צו": 3910,
      "##984": 3911,
      "fiel": 3912,
      "fields": 3913,
      "הציבור": 3914,
      "##ריתרי": 3915,
      "68": 3916,
      "##רם": 3917,
      "##כב": 3918,
      "##יפה": 3919,
      "כה": 3920,
      "##כתב": 3921,
      "##0c1e": 3922,
      "max": 3923,
      "##ופת": 3924,
      "##vy": 3925,
      "##010500": 3926,
      "##757374": 3927,
      "טענות": 3928,
      "##757374696365": 3929,
      "נס": 3930,
      "עמד": 3931,
      "##dc": 3932,
      "##2176": 3933,
      "##995": 3934,
      "##תייחס": 3935,
      "##ncy": 3936,
      "210": 3937,
      "##yyyyyyyy": 3938,
      "il": 3939,
      "ss": 3940,
      "262176": 3941,
      "##200": 3942,
      "##9999": 3943,
      "be": 3944,
      "##il": 3945,
      "608": 3946,
      "##גור": 3947,
      "למע": 3948,
      "246": 3949,
      "70": 3950,
      "##mu": 3951,
      "##f1b": 3952,
      "לצורך": 3953,
      "##7500": 3954,
      "וש": 3955,
      "##738": 3956,
      "tran": 3957,
      "transp": 3958,
      "ju": 3959,
      "##arency": 3960,
      "transparency": 3961,
      "##e2": 3962,
      "453": 3963,
      "##4300": 3964,
      "##3303": 3965,
      "##977": 3966,
      "##ריתריאה": 3967,
      "563": 3968,
      "מוס": 3969,
      "ללא": 3970,
      "cat": 3971,
      "##776": 3972,
      "נת": 3973,
      "##דיק": 3974,
      "##20a": 3975,
      "המס": 3976,
      "##alog": 3977,
      "es": 3978,
      "catalog": 3979,
      "##86d": 3980,
      "480": 3981,
      "##73f": 3982,
      "##ff6": 3983,
      "העובד": 3984,
      "תוך": 3985,
      "##733": 3986,
      "##6200": 3987,
      "##ודת": 3988,
      "##ישום": 3989,
      "303": 3990,
      "##ברים": 3991,
      "226": 3992,
      "##153f": 3993,
      "שינוי": 3994,
      "בפסק": 3995,
      "##5d3": 3996,
      "ימים": 3997,
      "אר": 3998,
      "487": 3999,
      "326": 4000,
      "##פע": 4001,
      "##זאת": 4002,
      "reg": 4003,
      "##si": 4004,
      "##58f": 4005,
      "354": 4006,
      "בגין": 4007,
      "ao": 4008,
      "rot": 4009,
      "##83c": 4010,
      "##a03": 4011,
      "203": 4012,
      "rotate": 4013,
      "##42b": 4014,
      "##ld": 4015,
      "הנני": 4016,
      "##דה": 4017,
      "##4595e16d00000000072d300d06092a864886f70d0101": 4018,
      "כס": 4019,
      "305": 4020,
      "##c1": 4021,
      "##535": 4022,
      "##010100": 4023,
      "2013": 4024,
      "לעיל": 4025,
      "110": 4026,
      "336": 4027,
      "##לבד": 4028,
      "##b93": 4029,
      "##256": 4030,
      "cs1": 4031,
      "cs3": 4032,
      "cs2": 4033,
      "##cmyk": 4034,
      "devicecmyk": 4035,
      "החזק": 4036,
      "314": 4037,
      "##ניינים": 4038,
      "##פורט": 4039,
      "##וני": 4040,
      "769": 4041,
      "שם": 4042,
      "רק": 4043,
      "##איות": 4044,
      "##586": 4045,
      "שיש": 4046,
      "חוד": 4047,
      "##027": 4048,
      "##bdb": 4049,
      "##ph": 4050,
      "##84d": 4051,
      "dct": 4052,
      "##c4a": 4053,
      "##463": 4054,
      "dctdecode": 4055,
      "##629": 4056,
      "##כס": 4057,
      "##101": 4058,
      "##ange": 4059,
      "יום": 4060,
      "כמו": 4061,
      "קמא": 4062,
      "נוכח": 4063,
      "##terange": 4064,
      "byterange": 4065,
      "##ומה": 4066,
      "##029": 4067,
      "##ci": 4068,
      "ממש": 4069,
      "##33f": 4070,
      "לתו": 4071,
      "##ניעת": 4072,
      "appli": 4073,
      "להס": 4074,
      "##צב": 4075,
      "##164": 4076,
      "אחד": 4077,
      "##ital": 4078,
      "dig": 4079,
      "##רים": 4080,
      "digital": 4081,
      "כמ": 4082,
      "##70a": 4083,
      "##newroman": 4084,
      "timesnewroman": 4085,
      "בשל": 4086,
      "##תב": 4087,
      "##0b05000382020100": 4088,
      "##4c3": 4089,
      "דינו": 4090,
      "##156": 4091,
      "##118": 4092,
      "##io": 4093,
      "xheight": 4094,
      "##yo": 4095,
      "##יפוט": 4096,
      "##e2e": 4097,
      "avg": 4098,
      "timesnewromanps": 4099,
      "maxwidth": 4100,
      "avgwidth": 4101,
      "##e33": 4102,
      "##7af": 4103,
      "##cb9": 4104,
      "267": 4105,
      "##63c": 4106,
      "##טען": 4107,
      "בהק": 4108,
      "##weight": 4109,
      "fontweight": 4110,
      "##b65": 4111,
      "just": 4112,
      "##1cf": 4113,
      "##ונש": 4114,
      "הקב": 4115,
      "##ליים": 4116,
      "##038": 4117,
      "הוראות": 4118,
      "##c13": 4119,
      "justice": 4120,
      "##331": 4121,
      "##e9e": 4122,
      "##161": 4123,
      "##02a": 4124,
      "##70d3": 4125,
      "##42a": 4126,
      "##78b": 4127,
      "##aba": 4128,
      "auth": 4129,
      "##יפול": 4130,
      "author": 4131,
      "יכ": 4132,
      "##801": 4133,
      "##06b": 4134,
      "טוע": 4135,
      "שוהה": 4136,
      "##96d": 4137,
      "##5ba": 4138,
      "דרכ": 4139,
      "##7f9": 4140,
      "##f95": 4141,
      "שר": 4142,
      "##ead": 4143,
      "##ck": 4144,
      "##28f": 4145,
      "78": 4146,
      "ari": 4147,
      "##קרקעין": 4148,
      "##035": 4149,
      "נש": 4150,
      "##זכ": 4151,
      "##cs": 4152,
      "פג": 4153,
      "##וקף": 4154,
      "71": 4155,
      "מדינת": 4156,
      "##c59": 4157,
      "פור": 4158,
      "##4cd": 4159,
      "##6d2": 4160,
      "##1bb": 4161,
      "##df6": 4162,
      "##044": 4163,
      "##55e": 4164,
      "##44c": 4165,
      "##531": 4166,
      "##305": 4167,
      "##539": 4168,
      "734": 4169,
      "##c9e": 4170,
      "##00e": 4171,
      "##תח": 4172,
      "##fad": 4173,
      "אמ": 4174,
      "##פות": 4175,
      "קבע": 4176,
      "שירות": 4177,
      "345": 4178,
      "חד": 4179,
      "##dc3": 4180,
      "##f7d": 4181,
      "##310": 4182,
      "##ye": 4183,
      "##843": 4184,
      "sh": 4185,
      "##ריג": 4186,
      "##d3ef": 4187,
      "##6974": 4188,
      "85": 4189,
      "321": 4190,
      "##042a": 4191,
      "##dd9f": 4192,
      "הרא": 4193,
      "##re1": 4194,
      "aspose": 4195,
      "335": 4196,
      "##8a0f": 4197,
      "##26b9": 4198,
      "##2e4d": 4199,
      "הרש": 4200,
      "564": 4201,
      "##fce": 4202,
      "##e848": 4203,
      "##5e6c": 4204,
      "##9a1a": 4205,
      "##886b": 4206,
      "347": 4207,
      "##99a03": 4208,
      "##5407c": 4209,
      "##254": 4210,
      "##143": 4211,
      "##פו": 4212,
      "##c7dd9f": 4213,
      "##83943b": 4214,
      "##020f003": 4215,
      "##082020a": 4216,
      "##2043412047323082022": 4217,
      "##0282020100": 4218,
      "##0105000382020f003": 4219,
      "##d4499a03": 4220,
      "##2300d06092a864886f70d01010105000382020f003": 4221,
      "##0b05003056310b300906035504061302494c311d301b060355040a1314476f7665726e6d656e74206f662049737261656c312830260603550403131f476f7665726e6d656e74206f662049737261656c20526f6f74": 4222,
      "##6974d4499a03": 4223,
      "##8a0f6974d4499a03": 4224,
      "##26b9c7dd9f": 4225,
      "##5407c26b9c7dd9f": 4226,
      "##83943b8a0f6974d4499a03": 4227,
      "##082020a0282020100": 4228,
      "##20434120473230820222300d06092a864886f70d01010105000382020f003": 4229,
      "##0b05003056310b300906035504061302494c311d301b060355040a1314476f7665726e6d656e74206f662049737261656c312830260603550403131f476f7665726e6d656e74206f662049737261656c20526f6f74204341204732301e170d3133303": 4230,
      "##5407c26b9c7dd9f83943b8a0f6974d4499a03": 4231,
      "##20434120473230820222300d06092a864886f70d01010105000382020f003082020a0282020100": 4232,
      "##€b": 4233,
      "327": 4234,
      "אג": 4235,
      "##ימוש": 4236,
      "jd": 4237,
      "##086": 4238,
      "##for": 4239,
      "##b3b": 4240,
      "##0109": 4241,
      "##02222": 4242,
      "##794": 4243,
      "בעל": 4244,
      "##הל": 4245,
      "##cn": 4246,
      "000s": 4247,
      "ההג": 4248,
      "##ותרת": 4249,
      "##824": 4250,
      "בקשת": 4251,
      "##7eb": 4252,
      "##e43": 4253,
      "503": 4254,
      "bui": 4255,
      "sap": 4256,
      "##27b": 4257,
      "##0704": 4258,
      "min": 4259,
      "##form": 4260,
      "##idg": 4261,
      "##0431": 4262,
      "##yq": 4263,
      "##795f": 4264,
      "##0a00": 4265,
      "##7ea": 4266,
      "##0c13": 4267,
      "ועל": 4268,
      "זכות": 4269,
      "##יף": 4270,
      "##6fa": 4271,
      "להב": 4272,
      "##5611": 4273,
      "##4d69": 4274,
      "##6e69": 4275,
      "##27a": 4276,
      "##eal": 4277,
      "##29d9": 4278,
      "##2e16": 4279,
      "##קה": 4280,
      "##956": 4281,
      "prop": 4282,
      "##665f": 4283,
      "##ba8f": 4284,
      "##22300d06092a864886f70d0101": 4285,
      "##ועל": 4286,
      "##77e5": 4287,
      "##7df5": 4288,
      "##300a": 4289,
      "##דו": 4290,
      "3082": 4291,
      "cal": 4292,
      "##ached": 4293,
      "##04163": 4294,
      "widg": 4295,
      "widget": 4296,
      "signature1": 4297,
      "ministry": 4298,
      "build": 4299,
      "##8300a": 4300,
      "ppk": 4301,
      "##0a041": 4302,
      "##0204b": 4303,
      "sapi": 4304,
      "##0109100": 4305,
      "detached": 4306,
      "##0a0282": 4307,
      "##02a082": 4308,
      "##03310b": 4309,
      "##72795f": 4310,
      "##filter": 4311,
      "##806092a864886f70d0109": 4312,
      "##010f003": 4313,
      "##0b2a864886f70d": 4314,
      "##2504163": 4315,
      "subfilter": 4316,
      "##4a757374696365": 4317,
      "##06035504030c13": 4318,
      "##0301d0603551d": 4319,
      "##2b0601040182371508": 4320,
      "##082010a0282": 4321,
      "##311c301a06035504030c13": 4322,
      "##300b06092a864886f70d0107": 4323,
      "##a3018300a": 4324,
      "##06092a864886f70d010701": 4325,
      "##06092a864886f70d010702a082": 4326,
      "##06092a864886f70d01090431": 4327,
      "##020101310f": 4328,
      "##300b0603551d0f0404030204b": 4329,
      "##737472795f": 4330,
      "##30820122300d06092a864886f70d0101": 4331,
      "##0105000382010f003": 4332,
      "##06092b060104018237150704": 4333,
      "##06092b060104018237150a041": 4334,
      "##01050004": 4335,
      "##02706092b060104018237150a041": 4336,
      "##4d696e69": 4337,
      "##665f4a757374696365": 4338,
      "ppkms": 4339,
      "##03310b06092a864886f70d010701": 4340,
      "##806092a864886f70d010903310b06092a864886f70d010701": 4341,
      "##0b2a864886f70d0109100": 4342,
      "##2504163014": 4343,
      "##0301d0603551d2504163014": 4344,
      "##311c301a06035504030c134d696e69": 4345,
      "##300b06092a864886f70d010701a": 4346,
      "##30820122300d06092a864886f70d01010105000382010f003": 4347,
      "##02706092b060104018237150a041a3018300a": 4348,
      "##311c301a06035504030c134d696e69737472795f": 4349,
      "##30820122300d06092a864886f70d01010105000382010f003082010a0282": 4350,
      "##73a": 4351,
      "##020101305": 4352,
      "##30820122300d06092a864886f70d01010105000382010f003082010a0282010100": 4353,
      "acro": 4354,
      "##lags": 4355,
      "acroform": 4356,
      "sigflags": 4357,
      "##08204": 4358,
      "##1bb8f": 4359,
      "##083006": 4360,
      "##140204": 4361,
      "##a003020102020a": 4362,
      "##20603551d": 4363,
      "##06092b060104018237": 4364,
      "##01906092b060104018237": 4365,
      "##020100301906092b060104018237": 4366,
      "##86301006092b06010401823715010403": 4367,
      "##53007500": 4368,
      "##300b0603551d0f040403020186301006092b06010401823715010403": 4369,
      "##130101ff04083006": 4370,
      "##0c1e0a00": 4371,
      "##430041": 4372,
      "##6200430041": 4373,
      "##300b06092a864886f70d010701a082": 4374,
      "##1402040c1e0a00": 4375,
      "##20603551d130101ff04083006": 4376,
      "##020100301906092b0601040182371402040c1e0a00": 4377,
      "##530075006200430041": 4378,
      "##300b0603551d0f040403020186301006092b06010401823715010403020100301906092b0601040182371402040c1e0a00": 4379,
      "##20603551d130101ff040830060101ff": 4380,
      "##300b0603551d0f040403020186301006092b06010401823715010403020100301906092b0601040182371402040c1e0a00530075006200430041": 4381,
      "הרשות": 4382,
      "312": 4383,
      "הם": 4384,
      "כלל": 4385,
      "##ורג": 4386,
      "101": 4387,
      "##78d": 4388,
      "ae": 4389,
      "מדובר": 4390,
      "##ibri": 4391,
      "##60b": 4392,
      "##yz": 4393,
      "calibri": 4394,
      "לקבוע": 4395,
      "##881": 4396,
      "##82c": 4397,
      "394": 4398,
      "600": 4399,
      "##0ac": 4400,
      "##ede": 4401,
      "##71c": 4402,
      "##9d": 4403,
      "##63e": 4404,
      "##2ee": 4405,
      "##413": 4406,
      "f15": 4407,
      "המערערת": 4408,
      "##yu": 4409,
      "##6bd": 4410,
      "##49a": 4411,
      "##483": 4412,
      "##5ec": 4413,
      "למניעת": 4414,
      "wh": 4415,
      "##rc": 4416,
      "המנ": 4417,
      "##e5a": 4418,
      "##7274": 4419,
      "##61c": 4420,
      "##בולות": 4421,
      "s3": 4422,
      "##00696": 4423,
      "##7ce": 4424,
      "##577": 4425,
      "06": 4426,
      "##מך": 4427,
      "המבקשת": 4428,
      "##ea6": 4429,
      "##69d": 4430,
      "faaaah": 4431,
      "open": 4432,
      "חל": 4433,
      "לבין": 4434,
      "רפוא": 4435,
      "##so": 4436,
      "##98ab": 4437,
      "254": 4438,
      "##כא": 4439,
      "##8d8f": 4440,
      "נכנס": 4441,
      "74": 4442,
      "##998d": 4443,
      "##חון": 4444,
      "השופטת": 4445,
      "##204f662049737261656c": 4446,
      "##76f7665726e6d656e74204f662049737261656c": 4447,
      "##0a42": 4448,
      "##7499": 4449,
      "##ילות": 4450,
      "ההס": 4451,
      "##lin": 4452,
      "##22d3": 4453,
      "##dff": 4454,
      "##166": 4455,
      "##ess": 4456,
      "##yi": 4457,
      "##eae": 4458,
      "##וצע": 4459,
      "וח": 4460,
      "##089": 4461,
      "83": 4462,
      "##300d06092a864886f70d0101050500": 4463,
      "##7a4": 4464,
      "##b0c": 4465,
      "##095": 4466,
      "##498": 4467,
      "faaacb": 4468,
      "222": 4469,
      "##¸y": 4470,
      "##4ab": 4471,
      "##lines": 4472,
      "מצרים": 4473,
      "##בודה": 4474,
      "##טרס": 4475,
      "2000": 4476,
      "##דות": 4477,
      "no": 4478,
      "##zed": 4479,
      "הקוד": 4480,
      "con": 4481,
      "##תן": 4482,
      "u5": 4483,
      "000i": 4484,
      "497": 4485,
      "##124": 4486,
      "##78f": 4487,
      "האם": 4488,
      "##deb": 4489,
      "דיון": 4490,
      "לגבי": 4491,
      "##נן": 4492,
      "##eari": 4493,
      "##62d": 4494,
      "oe": 4495,
      "2007": 4496,
      "בדר": 4497,
      "lineari": 4498,
      "linearized": 4499,
      "פרוטוקול": 4500,
      "##נט": 4501,
      "##סם": 4502,
      "המערערים": 4503,
      "ככל": 4504,
      "##ux": 4505,
      "a2": 4506,
      "האו": 4507,
      "##tf": 4508,
      "77": 4509,
      "##4f665f4a757374696365": 4510,
      "##311c301a06035504030c134d696e69737472795f4f665f4a757374696365": 4511,
      "##d33": 4512,
      "207": 4513,
      "##bed": 4514,
      "##aca": 4515,
      "##1df": 4516,
      "בכך": 4517,
      "##ויים": 4518,
      "may": 4519,
      "הטע": 4520,
      "##נאים": 4521,
      "אותו": 4522,
      "##cff": 4523,
      "##78af": 4524,
      "##2c3": 4525,
      "שק": 4526,
      "114": 4527,
      "##7852": 4528,
      "f14": 4529,
      "##596f": 4530,
      "בתוך": 4531,
      "תע": 4532,
      "##vk": 4533,
      "אח": 4534,
      "86": 4535,
      "560": 4536,
      "##300b0603551d0f0404030204b0301d0603551d2504163014": 4537,
      "##73e": 4538,
      "002": 4539,
      "בט": 4540,
      "אדם": 4541,
      "256": 4542,
      "##89f": 4543,
      "בבקשה": 4544,
      "##layout": 4545,
      "##e6f": 4546,
      "ii": 4547,
      "418": 4548,
      "בלא": 4549,
      "##all": 4550,
      "נפ": 4551,
      "להש": 4552,
      "##98779": 4553,
      "##ad3": 4554,
      "##021": 4555,
      "##d0a": 4556,
      "##29e": 4557,
      "##rk": 4558,
      "##ollo": 4559,
      "548": 4560,
      "##יקת": 4561,
      "##c41": 4562,
      "מל": 4563,
      "##עד": 4564,
      "##2be": 4565,
      "im9": 4566,
      "##682": 4567,
      "##6ad": 4568,
      "640": 4569,
      "בשב": 4570,
      "המב": 4571,
      "288": 4572,
      "##4c5": 4573,
      "000o": 4574,
      "##ff9": 4575,
      "##b9b": 4576,
      "459": 4577,
      "##4e3": 4578,
      "person": 4579,
      "hh": 4580,
      "##ca1": 4581,
      "##ions": 4582,
      "חוז": 4583,
      "##45c": 4584,
      "##tions": 4585,
      "##f0f": 4586,
      "395": 4587,
      "עניין": 4588,
      "##כו": 4589,
      "אלו": 4590,
      "השלום": 4591,
      "##a5a": 4592,
      "##wj": 4593,
      "מנת": 4594,
      "por": 4595,
      "##c16": 4596,
      "##811": 4597,
      "ובה": 4598,
      "העותרים": 4599,
      "permitted": 4600,
      "##tri": 4601,
      "יח": 4602,
      "portions": 4603,
      "shall": 4604,
      "עובד": 4605,
      "##cq": 4606,
      "##ility": 4607,
      "##202": 4608,
      "war": 4609,
      "lim": 4610,
      "mer": 4611,
      "##f8d": 4612,
      "##ission": 4613,
      "05": 4614,
      "להור": 4615,
      "##trict": 4616,
      "שנים": 4617,
      "##d76": 4618,
      "##f5b": 4619,
      "restrict": 4620,
      "##834": 4621,
      "embed": 4622,
      "##0d3": 4623,
      "##ohn": 4624,
      "registry": 4625,
      "han": 4626,
      "dd": 4627,
      "##ped": 4628,
      "gs": 4629,
      "##4100": 4630,
      "##wing": 4631,
      "##3301": 4632,
      "##004": 4633,
      "liab": 4634,
      "##כנית": 4635,
      "##ייה": 4636,
      "ביצוע": 4637,
      "john": 4638,
      "follo": 4639,
      "##fq": 4640,
      "including": 4641,
      "notice": 4642,
      "##rant": 4643,
      "hud": 4644,
      "wiki": 4645,
      "deal": 4646,
      "following": 4647,
      "שני": 4648,
      "ral": 4649,
      "permission": 4650,
      "warrant": 4651,
      "##cock": 4652,
      "copies": 4653,
      "hudson": 4654,
      "hancock": 4655,
      "ralph": 4656,
      "##cae": 4657,
      "השתכנ": 4658,
      "2010": 4659,
      "יצא": 4660,
      "##ea3": 4661,
      "##ance": 4662,
      "ראש": 4663,
      "וזאת": 4664,
      "הכל": 4665,
      "##ring": 4666,
      "הגבולות": 4667,
      "212": 4668,
      "65402222": 4669,
      "323": 4670,
      "uo": 4671,
      "supp": 4672,
      "##ddf": 4673,
      "הל": 4674,
      "##d36": 4675,
      "a6": 4676,
      "structp": 4677,
      "structparent": 4678,
      "##lement": 4679,
      "##ילו": 4680,
      "##0f31": 4681,
      "ltd": 4682,
      "##041d": 4683,
      "01": 4684,
      "##07d": 4685,
      "supplement": 4686,
      "##dering": 4687,
      "ordering": 4688,
      "##239": 4689,
      "2011": 4690,
      "##72b": 4691,
      "##7cc": 4692,
      "באשר": 4693,
      "בעניינו": 4694,
      "היתר": 4695,
      "af": 4696,
      "##951": 4697,
      "בטע": 4698,
      "##701": 4699,
      "##os": 4700,
      "נא": 4701,
      "##ccf": 4702,
      "ונ": 4703,
      "##za": 4704,
      "##70b": 4705,
      "##גיש": 4706,
      "iu": 4707,
      "ולה": 4708,
      "הממונה": 4709,
      "##253": 4710,
      "##ta": 4711,
      "##054": 4712,
      "352": 4713,
      "##182": 4714,
      "docusign": 4715,
      "##5453": 4716,
      "##169": 4717,
      "החלטת": 4718,
      "##dd9": 4719,
      "##4ef": 4720,
      "97": 4721,
      "גבול": 4722,
      "##0977": 4723,
      "אותה": 4724,
      "##565f": 4725,
      "##5a78": 4726,
      "##22b": 4727,
      "##623": 4728,
      "##צע": 4729,
      "##2f3": 4730,
      "##0113": 4731,
      "##שרה": 4732,
      "##74e": 4733,
      "##83b": 4734,
      "בנ": 4735,
      "##ecf": 4736,
      "##a170d3": 4737,
      "##428": 4738,
      "##d3b": 4739,
      "##ll": 4740,
      "רשאי": 4741,
      "641": 4742,
      "##0304": 4743,
      "344": 4744,
      "##c74": 4745,
      "דעת": 4746,
      "##0c9": 4747,
      "##0cd": 4748,
      "##4db": 4749,
      "##ומים": 4750,
      "##78a": 4751,
      "##8a3": 4752,
      "##c2a": 4753,
      "##60f": 4754,
      "##0165": 4755,
      "##ידע": 4756,
      "##601": 4757,
      "##71e": 4758,
      "29998779": 4759,
      "##0da": 4760,
      "##c4f": 4761,
      "##63d": 4762,
      "##0ad": 4763,
      "##25d": 4764,
      "##ebd": 4765,
      "##56b": 4766,
      "##8f9": 4767,
      "##6a3": 4768,
      "##0701": 4769,
      "##31e": 4770,
      "##62a": 4771,
      "##8d9": 4772,
      "##669": 4773,
      "##7698": 4774,
      "##0d4": 4775,
      "יע": 4776,
      "הוג": 4777,
      "##d0609": 4778,
      "ית": 4779,
      "##608648": 4780,
      "##03040201": 4781,
      "##016503040201": 4782,
      "##d0609608648": 4783,
      "##0165030402010500": 4784,
      "##d06096086480165030402010500": 4785,
      "ההליך": 4786,
      "##b3d": 4787,
      "##8da": 4788,
      "##494": 4789,
      "##6cc": 4790,
      "##291": 4791,
      "##c8b": 4792,
      "##941": 4793,
      "##9q": 4794,
      "הי": 4795,
      "##c48": 4796,
      "##10f": 4797,
      "##23c": 4798,
      "##6b3": 4799,
      "76": 4800,
      "לקבל": 4801,
      "##888": 4802,
      "##107": 4803,
      "##41c": 4804,
      "וכ": 4805,
      "##uce": 4806,
      "##bda": 4807,
      "גירוש": 4808,
      "##40c": 4809,
      "##aac": 4810,
      "##1a5": 4811,
      "##64e": 4812,
      "##0e8": 4813,
      "##cea": 4814,
      "בהחלט": 4815,
      "##5b3": 4816,
      "הן": 4817,
      "שכן": 4818,
      "##bd3": 4819,
      "##60c": 4820,
      "264": 4821,
      "##376": 4822,
      "בתיק": 4823,
      "##8801": 4824,
      "##6d9": 4825,
      "תיק": 4826,
      "##2800": 4827,
      "ps": 4828,
      "##58a": 4829,
      "##da9": 4830,
      "קט": 4831,
      "##ומי": 4832,
      "##a8b": 4833,
      "##d74": 4834,
      "##ליכים": 4835,
      "האחר": 4836,
      "n2": 4837,
      "התשע": 4838,
      "מג": 4839,
      "##67c": 4840,
      "go": 4841,
      "579": 4842,
      "##1a9": 4843,
      "לט": 4844,
      "2014": 4845,
      "link": 4846,
      "mmm": 4847,
      "##aaf2": 4848,
      "##e35": 4849,
      "##8b8": 4850,
      "##nu": 4851,
      "##בת": 4852,
      "105": 4853,
      "##0993": 4854,
      "עני": 4855,
      "##ונות": 4856,
      "מועד": 4857,
      "produce": 4858,
      "##טרה": 4859,
      "##e64": 4860,
      "##d5b": 4861,
      "producer": 4862,
      "בעמ": 4863,
      "##133": 4864,
      "יהיה": 4865,
      "##ac5": 4866,
      "##ros": 4867,
      "##1902": 4868,
      "##8e8": 4869,
      "נעצר": 4870,
      "##382": 4871,
      "באמצ": 4872,
      "82": 4873,
      "79": 4874,
      "עולה": 4875,
      "125": 4876,
      "463": 4877,
      "##fdc": 4878,
      "##70f": 4879,
      "oy": 4880,
      "n0": 4881,
      "##d5c": 4882,
      "##0b68": 4883,
      "לפיה": 4884,
      "##664": 4885,
      "##ציג": 4886,
      "השתכנעתי": 4887,
      "##700": 4888,
      "##789": 4889,
      "במק": 4890,
      "##b28": 4891,
      "##eb7": 4892,
      "##icros": 4893,
      "##icrosoft": 4894,
      "##ecd": 4895,
      "65400696": 4896,
      "211": 4897,
      "##5598": 4898,
      "##עתו": 4899,
      "943": 4900,
      "##b97": 4901,
      "yyyy": 4902,
      "##mk": 4903,
      "##8aa": 4904,
      "##593": 4905,
      "bs": 4906,
      "##0625": 4907,
      "##33375a3": 4908,
      "הדברים": 4909,
      "##dw": 4910,
      "##74b": 4911,
      "##1607": 4912,
      "##a2e": 4913,
      "##49f": 4914,
      "##4900": 4915,
      "##3182": 4916,
      "##wl": 4917,
      "##0469": 4918,
      "oo": 4919,
      "##caeb": 4920,
      "התובע": 4921,
      "##cadf": 4922,
      "##ask": 4923,
      "##1565": 4924,
      "##ca55": 4925,
      "##76ff": 4926,
      "##7459": 4927,
      "##2406": 4928,
      "##04ca": 4929,
      "##4806": 4930,
      "##de65": 4931,
      "##0473": 4932,
      "##aa15": 4933,
      "##7f0f": 4934,
      "##03aa": 4935,
      "##cebb": 4936,
      "##ee4a": 4937,
      "##266f": 4938,
      "##79ca": 4939,
      "##ce1d": 4940,
      "##6383": 4941,
      "##79ff": 4942,
      "##6531": 4943,
      "##766c": 4944,
      "##772b": 4945,
      "##2f06": 4946,
      "##43f": 4947,
      "##de6a": 4948,
      "היית": 4949,
      "##41dd": 4950,
      "##6409": 4951,
      "##0c33": 4952,
      "##88cf": 4953,
      "##240a": 4954,
      "##0b19": 4955,
      "##6304": 4956,
      "##0acf": 4957,
      "##532f": 4958,
      "##8805": 4959,
      "##08b9": 4960,
      "##ddfb": 4961,
      "##4179": 4962,
      "##cafe": 4963,
      "##7a2d": 4964,
      "##723": 4965,
      "##0d1d": 4966,
      "##0a55": 4967,
      "##bd74": 4968,
      "##6e7a": 4969,
      "##ef56": 4970,
      "##65ea": 4971,
      "##297f": 4972,
      "##ff9f": 4973,
      "##984a": 4974,
      "##a37f": 4975,
      "##6929": 4976,
      "##99bd": 4977,
      "##276": 4978,
      "##2b7d": 4979,
      "##166d": 4980,
      "##ce11": 4981,
      "##24ea": 4982,
      "##7c6a": 4983,
      "##262e": 4984,
      "##84ca": 4985,
      "##9885": 4986,
      "##0685": 4987,
      "##420b": 4988,
      "##8f79": 4989,
      "##0e6e": 4990,
      "##221d": 4991,
      "##2483": 4992,
      "##2c82": 4993,
      "##7d98": 4994,
      "##7d19": 4995,
      "##112b": 4996,
      "##c4dd": 4997,
      "##246a": 4998,
      "##ec8f": 4999,
      "##7f14": 5000,
      "##ea6b": 5001,
      "##2dc3": 5002,
      "##4b2b": 5003,
      "##2971": 5004,
      "##c431": 5005,
      "##86ee": 5006,
      "##53ce": 5007,
      "##ee4d": 5008,
      "##78a9": 5009,
      "##4622": 5010,
      "##2f8d": 5011,
      "##56c3": 5012,
      "##eb02": 5013,
      "##2c81": 5014,
      "##2e86": 5015,
      "##d356": 5016,
      "##11c9": 5017,
      "##474": 5018,
      "##eb8a": 5019,
      "##e9ef": 5020,
      "##4b8a": 5021,
      "##a32b": 5022,
      "##83da": 5023,
      "##4c5a": 5024,
      "##293b": 5025,
      "##09ee": 5026,
      "##4729": 5027,
      "##2b4d": 5028,
      "##8584": 5029,
      "##2624": 5030,
      "##5919": 5031,
      "##86e3": 5032,
      "##4242": 5033,
      "##c4d3": 5034,
      "##5d0f": 5035,
      "##560d": 5036,
      "##167e": 5037,
      "##b50b": 5038,
      "##1807": 5039,
      "##00081": 5040,
      "##1d8a": 5041,
      "##869a": 5042,
      "##63a9": 5043,
      "##3422": 5044,
      "##1275": 5045,
      "##7e5c": 5046,
      "##e943": 5047,
      "dsz": 5048,
      "##6d00": 5049,
      "בתי": 5050,
      "##ec91": 5051,
      "##5b06": 5052,
      "##d9dd": 5053,
      "##630e": 5054,
      "##7c1e": 5055,
      "##5b13": 5056,
      "##293e": 5057,
      "##18bd": 5058,
      "##5a98": 5059,
      "##52cb": 5060,
      "##5e59": 5061,
      "##238303": 5062,
      "##89bc": 5063,
      "##db44": 5064,
      "##25b5": 5065,
      "##ee88": 5066,
      "##2d24": 5067,
      "pk": 5068,
      "##dee5": 5069,
      "##f213": 5070,
      "##5e45": 5071,
      "עמ": 5072,
      "##2ed": 5073,
      "##7af8": 5074,
      "##d58f": 5075,
      "##3338": 5076,
      "##e6de": 5077,
      "##e50e": 5078,
      "##a5a3": 5079,
      "##2dc8": 5080,
      "##a886": 5081,
      "##85f1": 5082,
      "##7b34": 5083,
      "##465b": 5084,
      "##1457": 5085,
      "##253b": 5086,
      "##6667": 5087,
      "##7bb": 5088,
      "##di": 5089,
      "##655": 5090,
      "##0ce5": 5091,
      "##c98b": 5092,
      "##9c6e": 5093,
      "##3907": 5094,
      "##f083": 5095,
      "##0d38": 5096,
      "##f46e": 5097,
      "##3e55": 5098,
      "##7335": 5099,
      "##470b": 5100,
      "##4abd": 5101,
      "##77b": 5102,
      "##2b92": 5103,
      "##68b4": 5104,
      "מתן": 5105,
      "##141a": 5106,
      "##6fd8": 5107,
      "##2020a": 5108,
      "##fad93": 5109,
      "##afb1": 5110,
      "##a301e": 5111,
      "יא": 5112,
      "##ee97": 5113,
      "##eu": 5114,
      "##020164": 5115,
      "##881f59": 5116,
      "##2f302d": 5117,
      "##828081": 5118,
      "##6f15382": 5119,
      "##a06082b06010505073002": 5120,
      "##306e0603551d1f046730653063a061a05f862d687474703a2f2f63726c2e": 5121,
      "##c06092b060104018237150704": 5122,
      "##543d00ec460f968f3803ed8f450967d6c99d969": 5123,
      "##cf308201": 5124,
      "##cb300b0603551d0f0404030204b0301d0603551d2504163014": 5125,
      "##74616d757a2e676f762e696c2f7075626c69632f54616d757a44657647322e63726c862e687474703a2f2f63726c322e": 5126,
      "##74616d757a2e676f762e696c2f7075626c69632f54616d757a44657647322e63726c30818506082b06010505070101047930773039": 5127,
      "##862d687474703a2f2f63726c2e74616d757a2e676f762e696c2f7075626c69632f54616d757a44657647322e636572303": 5128,
      "##862e687474703a2f2f63726c322e74616d757a2e676f762e696c2f7075626c69632f54616d757a44657647322e636572303": 5129,
      "##04a310b300906035504061302494c311d301b060355040a1314476f7665726e6d656e74206f662049737261656c311c301a0603550403131354414d555a2d4465766963657320434120473": 5130,
      "##06082b06010505073002862d687474703a2f2f63726c2e74616d757a2e676f762e696c2f7075626c69632f54616d757a44657647322e636572303": 5131,
      "##06082b06010505070301300d06092a864886f70d0101": 5132,
      "##06082b0601050507030206082b06010505070301": 5133,
      "##06082b06010505070302300a": 5134,
      "##0203010001a38201cf308201": 5135,
      "##0b0500304a310b300906035504061302494c311d301b060355040a1314476f7665726e6d656e74206f662049737261656c311c301a0603550403131354414d555a2d44657669636573": 5136,
      "##2b0601040182371508828081": 5137,
      "##010500048201": 5138,
      "##02706092b060104018237150a041a3018300a06082b06010505070302300a": 5139,
      "##acad0a": 5140,
      "##06252b0601040182371508828081": 5141,
      "##532f6f15382": 5142,
      "##2c82fad93": 5143,
      "##0201640201": 5144,
      "##881f59532f6f15382": 5145,
      "##2f302d06252b0601040182371508828081": 5146,
      "##a06082b06010505073002862e687474703a2f2f63726c322e74616d757a2e676f762e696c2f7075626c69632f54616d757a44657647322e636572303": 5147,
      "##306e0603551d1f046730653063a061a05f862d687474703a2f2f63726c2e74616d757a2e676f762e696c2f7075626c69632f54616d757a44657647322e63726c862e687474703a2f2f63726c322e": 5148,
      "##c06092b0601040182371507042f302d06252b0601040182371508828081": 5149,
      "##543d00ec460f968f3803ed8f450967d6c99d969306e0603551d1f046730653063a061a05f862d687474703a2f2f63726c2e74616d757a2e676f762e696c2f7075626c69632f54616d757a44657647322e63726c862e687474703a2f2f63726c322e": 5150,
      "##cb300b0603551d0f0404030204b0301d0603551d250416301406082b0601050507030206082b06010505070301": 5151,
      "##74616d757a2e676f762e696c2f7075626c69632f54616d757a44657647322e63726c30818506082b0601050507010104793077303906082b06010505073002862d687474703a2f2f63726c2e74616d757a2e676f762e696c2f7075626c69632f54616d757a44657647322e636572303": 5152,
      "##0203010001a38201cf308201cb300b0603551d0f0404030204b0301d0603551d250416301406082b0601050507030206082b06010505070301": 5153,
      "##02706092b060104018237150a041a3018300a06082b06010505070302300a06082b06010505070301300d06092a864886f70d0101": 5154,
      "##2c82fad93881f59532f6f15382": 5155,
      "##a06082b06010505073002862e687474703a2f2f63726c322e74616d757a2e676f762e696c2f7075626c69632f54616d757a44657647322e636572303c06092b0601040182371507042f302d06252b0601040182371508828081": 5156,
      "##543d00ec460f968f3803ed8f450967d6c99d969306e0603551d1f046730653063a061a05f862d687474703a2f2f63726c2e74616d757a2e676f762e696c2f7075626c69632f54616d757a44657647322e63726c862e687474703a2f2f63726c322e74616d757a2e676f762e696c2f7075626c69632f54616d757a44657647322e63726c30818506082b0601050507010104793077303906082b06010505073002862d687474703a2f2f63726c2e74616d757a2e676f762e696c2f7075626c69632f54616d757a44657647322e636572303": 5157,
      "##2c82fad93881f59532f6f15382acad0a": 5158,
      "##a06082b06010505073002862e687474703a2f2f63726c322e74616d757a2e676f762e696c2f7075626c69632f54616d757a44657647322e636572303c06092b0601040182371507042f302d06252b06010401823715088280812c82fad93881f59532f6f15382acad0a": 5159,
      "##543d00ec460f968f3803ed8f450967d6c99d969306e0603551d1f046730653063a061a05f862d687474703a2f2f63726c2e74616d757a2e676f762e696c2f7075626c69632f54616d757a44657647322e63726c862e687474703a2f2f63726c322e74616d757a2e676f762e696c2f7075626c69632f54616d757a44657647322e63726c30818506082b0601050507010104793077303906082b06010505073002862d687474703a2f2f63726c2e74616d757a2e676f762e696c2f7075626c69632f54616d757a44657647322e636572303a06082b06010505073002862e687474703a2f2f63726c322e74616d757a2e676f762e696c2f7075626c69632f54616d757a44657647322e636572303c06092b0601040182371507042f302d06252b06010401823715088280812c82fad93881f59532f6f15382acad0a": 5160,
      "##8304a310b300906035504061302494c311d301b060355040a1314476f7665726e6d656e74206f662049737261656c311c301a0603550403131354414d555a2d4465766963657320434120473": 5161,
      "##08203a5a": 5162,
      "##08205bd3": 5163,
      "##0201013058304a310b300906035504061302494c311d301b060355040a1314476f7665726e6d656e74206f662049737261656c311c301a0603550403131354414d555a2d4465766963657320434120473": 5164,
      "##08203a5a003020102020a": 5165,
      "##08205bd308203a5a003020102020a": 5166,
      "##0201013058304a310b300906035504061302494c311d301b060355040a1314476f7665726e6d656e74206f662049737261656c311c301a0603550403131354414d555a2d44657669636573204341204732020a": 5167,
      "##e835": 5168,
      "##819a3": 5169,
      "##20722": 5170,
      "##82b19": 5171,
      "##86274": 5172,
      "##81202": 5173,
      "##a3682": 5174,
      "##08483": 5175,
      "##1f42b": 5176,
      "##49aeb": 5177,
      "##70a2f": 5178,
      "##7db89": 5179,
      "##05a0": 5180,
      "##0d169": 5181,
      "##7e565": 5182,
      "##07c7f": 5183,
      "##03f9c": 5184,
      "##11206": 5185,
      "##0e3ab": 5186,
      "##08a4f": 5187,
      "##65929": 5188,
      "##dd60f": 5189,
      "##cccde": 5190,
      "##85859": 5191,
      "##ccf53": 5192,
      "##0205": 5193,
      "##d396a": 5194,
      "##7e855": 5195,
      "##7ea99": 5196,
      "##098f3": 5197,
      "##82b55": 5198,
      "##428ca": 5199,
      "##7f50b": 5200,
      "##82833": 5201,
      "##83c7b": 5202,
      "##b3dad": 5203,
      "##54c4a": 5204,
      "##7e3e1": 5205,
      "##c3b66": 5206,
      "##5391d": 5207,
      "##56b2a": 5208,
      "##85a06": 5209,
      "##4b244": 5210,
      "##6c4b9": 5211,
      "##4cfcb": 5212,
      "##0c944": 5213,
      "##25d13": 5214,
      "##43935": 5215,
      "##4484d": 5216,
      "##d3d6a": 5217,
      "##8972b": 5218,
      "##a3dc3": 5219,
      "##8d40c": 5220,
      "##7e300": 5221,
      "##dd124": 5222,
      "##25cb9": 5223,
      "##ad406": 5224,
      "##5e406": 5225,
      "##1187f": 5226,
      "##44cce": 5227,
      "##7ceb9": 5228,
      "##59c5d": 5229,
      "##7bc16": 5230,
      "##b37c5": 5231,
      "##4f8ad": 5232,
      "##7b47a": 5233,
      "##44e2e": 5234,
      "##eccff": 5235,
      "##aa28d": 5236,
      "##73f5a": 5237,
      "##ff6bb": 5238,
      "##33f2d": 5239,
      "##ea3df": 5240,
      "##c74ed": 5241,
      "##זרח": 5242,
      "##2eadf": 5243,
      "##8d629": 5244,
      "##8ad5b": 5245,
      "##7559c": 5246,
      "##5352a": 5247,
      "##06e9e": 5248,
      "##69e33": 5249,
      "##06b03": 5250,
      "##5b3b9": 5251,
      "##7e60c": 5252,
      "##639a9": 5253,
      "##d3621": 5254,
      "##d6c55": 5255,
      "##8d94c": 5256,
      "##4a96d": 5257,
      "##c87cc": 5258,
      "##6b1e1": 5259,
      "##6b23d": 5260,
      "##70a66": 5261,
      "##42413": 5262,
      "##69dc8": 5263,
      "##73ecf": 5264,
      "##85f95": 5265,
      "##fe42a": 5266,
      "##63306": 5267,
      "##c4ce3": 5268,
      "##fb103": 5269,
      "##f12fd": 5270,
      "##a040c": 5271,
      "##d837b": 5272,
      "##7b94e": 5273,
      "בלבד": 5274,
      "##da100": 5275,
      "##565ae": 5276,
      "##c61f4": 5277,
      "##54054": 5278,
      "##ad83b": 5279,
      "##f401b": 5280,
      "##7d1c8": 5281,
      "##c6fba": 5282,
      "##5ba07": 5283,
      "##9411f": 5284,
      "##77ea6": 5285,
      "##4c34a": 5286,
      "##c8bab": 5287,
      "##206c4": 5288,
      "##58a69": 5289,
      "##18dfe": 5290,
      "##b9b4e": 5291,
      "##f8d4f": 5292,
      "##86e3c4": 5293,
      "##297d1": 5294,
      "##db11e": 5295,
      "##756d74": 5296,
      "##d5cb3": 5297,
      "##084729": 5298,
      "##2f065f": 5299,
      "##b39a1a": 5300,
      "##999ad3": 5301,
      "##e87f0f": 5302,
      "##a1858": 5303,
      "##a6312": 5304,
      "##78a726": 5305,
      "##a8ba8": 5306,
      "##581607": 5307,
      "##86d291": 5308,
      "##42b422": 5309,
      "##dffc83": 5310,
      "##055598": 5311,
      "##190f31": 5312,
      "##4d2406": 5313,
      "##003f1b": 5314,
      "##c8e848": 5315,
      "##170473": 5316,
      "##ed3a04": 5317,
      "##776c48": 5318,
      "##029ac5": 5319,
      "##89f86b": 5320,
      "##18267": 5321,
      "##67c31e": 5322,
      "##03aa3d": 5323,
      "##266f59": 5324,
      "##7d19b0c": 5325,
      "##44e2ef3": 5326,
      "##ec6f116": 5327,
      "##4188cf": 5328,
      "##2aee4a": 5329,
      "##6076ff": 5330,
      "##ae8801": 5331,
      "##7796409": 5332,
      "##d44200": 5333,
      "##7cd462": 5334,
      "##0e36a3": 5335,
      "##ee9e64": 5336,
      "##65a1e35": 5337,
      "##c3b4e3": 5338,
      "##7e3ca1": 5339,
      "##99245e": 5340,
      "##0eb801": 5341,
      "##9845453": 5342,
      "##586c41": 5343,
      "##161c9e": 5344,
      "##310764": 5345,
      "##565fc7": 5346,
      "##0da81e": 5347,
      "##63d7f14": 5348,
      "##0ad09ee": 5349,
      "##6b3ec8f": 5350,
      "##d5bf59": 5351,
      "##eb721b": 5352,
      "##79cafb": 5353,
      "##65ea3b": 5354,
      "##83dadeb": 5355,
      "##2b4d66": 5356,
      "##262423c": 5357,
      "##4242da": 5358,
      "##7b34ea": 5359,
      "##253b279": 5360,
      "##e5407c26b9c7dd9f83943b8a0f6974d4499a03": 5361,
      "##a06082b06010505073001": 5362,
      "##98a003020102020a": 5363,
      "##08206b03": 5364,
      "##a306e0603551d1f046730653063a061a05f862d687474703a2f2f63726c2e": 5365,
      "##0e5352a": 5366,
      "##0601f083": 5367,
      "##e10c944": 5368,
      "##131a886": 5369,
      "##6086ee": 5370,
      "##ae428ca": 5371,
      "##6b7ea99": 5372,
      "##e800000000": 5373,
      "##494ccae": 5374,
      "##130277e5": 5375,
      "##b543d00ec460f968f3803ed8f450967d6c99d969": 5376,
      "##300d06092a864886f70d01010b05003056310b300906035504061302494c311d301b060355040a1314476f7665726e6d656e74206f662049737261656c312830260603550403131f476f7665726e6d656e74206f662049737261656c20526f6f74204341204732301e170d3133303": 5377,
      "##fe69dc8": 5378,
      "##f833f2d": 5379,
      "##0820186301": 5380,
      "##8f32f065f": 5381,
      "##f2869a": 5382,
      "##26faa15": 5383,
      "##636572300d06092a864886f70d0101": 5384,
      "##862d687474703a2f2f63726c2e74616d757a2e676f762e696c2f7075626c69632f54616d757a52636147322e": 5385,
      "##862e687474703a2f2f63726c322e74616d757a2e676f762e696c2f7075626c69632f54616d757a52636147322e": 5386,
      "##74616d757a2e676f762e696c2f7075626c69632f54616d757a52636147322e63726c862e687474703a2f2f63726c322e": 5387,
      "##74616d757a2e676f762e696c2f7075626c69632f54616d757a52636147322e63726c30818506082b06010505070101047930773039": 5388,
      "##7ad443": 5389,
      "##00a79ff": 5390,
      "##020101301d0603551d0e04160414": 5391,
      "##0393338": 5392,
      "##764167e": 5393,
      "##8ad7559c": 5394,
      "##0ce22d3": 5395,
      "##23833375": 5396,
      "##fdd709": 5397,
      "##adf44e2ef3": 5398,
      "##636572303a06082b06010505073001": 5399,
      "##04a310b300906035504061302494c311d301b060355040a1314476f7665726e6d656e74206f662049737261656c311c301a0603550403131354414d555a2d4465766963657320434120473230820222300d06092a864886f70d01010105000382020f003082020a0282020100": 5400,
      "##b89d5cb3": 5401,
      "##2ba4100": 5402,
      "##819ad406": 5403,
      "##c14b28": 5404,
      "##709f213": 5405,
      "##19f2c81": 5406,
      "##19f7e855": 5407,
      "##0147f9": 5408,
      "##0203010001a382018a3": 5409,
      "##a07459": 5410,
      "##11e83dadeb": 5411,
      "##1e10a55": 5412,
      "##0790977": 5413,
      "##079c4ce3": 5414,
      "##929cafe": 5415,
      "##27418bd": 5416,
      "##97dbd74": 5417,
      "##97d8d629": 5418,
      "##455465b": 5419,
      "##4558d94c": 5420,
      "##41a137b": 5421,
      "##29578af": 5422,
      "##aa241a137b": 5423,
      "##d8365929": 5424,
      "##4f522b": 5425,
      "##4f5cadf": 5426,
      "##9e186274": 5427,
      "##9e169e33": 5428,
      "##99b776c48": 5429,
      "##b06596f": 5430,
      "##2323030393": 5431,
      "##2323030393338": 5432,
      "##591297f": 5433,
      "##45f99245e": 5434,
      "##15a0c33": 5435,
      "##6252d24": 5436,
      "##acff3e55": 5437,
      "##acff7e3ca1": 5438,
      "##06082b06010505073001862d687474703a2f2f63726c2e74616d757a2e676f762e696c2f7075626c69632f54616d757a52636147322e": 5439,
      "##cf5e20722": 5440,
      "##664d15a0c33": 5441,
      "##f8ca89bc": 5442,
      "##301f0603551d23041830168014be5407c26b9c7dd9f83943b8a0f6974d4499a03": 5443,
      "##02e25b5": 5444,
      "##122ccf53": 5445,
      "##0003300d06092a864886f70d01010b05003056310b300906035504061302494c311d301b060355040a1314476f7665726e6d656e74206f662049737261656c312830260603550403131f476f7665726e6d656e74206f662049737261656c20526f6f74204341204732301e170d3133303": 5446,
      "##7194f5cadf": 5447,
      "##64c7af8": 5448,
      "##513581607": 5449,
      "##7380147f9": 5450,
      "##e21902": 5451,
      "##5d3f8ca89bc": 5452,
      "##bdb5919": 5453,
      "##1014c5a": 5454,
      "##164ec91": 5455,
      "##0b0500038202010058a69": 5456,
      "##7af82833": 5457,
      "##63c1275": 5458,
      "##1cfd5bf59": 5459,
      "##331811": 5460,
      "##78b098f3": 5461,
      "##28f19f7e855": 5462,
      "##c595d3f8ca89bc": 5463,
      "##4cd67c31e": 5464,
      "##6d23301": 5465,
      "##55e41dd": 5466,
      "##d3ef170473": 5467,
      "##042a99b776c48": 5468,
      "##2e4d63306": 5469,
      "##fce4c5": 5470,
      "##5e6c04ca": 5471,
      "##886b43935": 5472,
      "##086664d15a0c33": 5473,
      "##56111d8a": 5474,
      "##29d9f8d4f": 5475,
      "##2e16c87cc": 5476,
      "##ba8f85f95": 5477,
      "##7df57b34ea": 5478,
      "##0820498a003020102020a": 5479,
      "##1bb8f084729": 5480,
      "##20603551d130101ff040830060101ff020101301d0603551d0e04160414": 5481,
      "##300b0603551d0f040403020186301006092b06010401823715010403020100301906092b0601040182371402040c1e0a00530075006200430041301f0603551d23041830168014be5407c26b9c7dd9f83943b8a0f6974d4499a03": 5482,
      "##78d5a98": 5483,
      "##74994484d": 5484,
      "##089dd124": 5485,
      "##78f630e": 5486,
      "##7852709f213": 5487,
      "##ff92e16c87cc": 5488,
      "##ddf54c4a": 5489,
      "##041d2b4d66": 5490,
      "##4efc8bab": 5491,
      "##5a784a96d": 5492,
      "##a170d3238303": 5493,
      "##d3bee9e64": 5494,
      "##0cdc4dd": 5495,
      "##4db85859": 5496,
      "##8f9639a9": 5497,
      "##6697d1c8": 5498,
      "##769806e9e": 5499,
      "##8da73ecf": 5500,
      "##49482b19": 5501,
      "##6cc240a": 5502,
      "##10f4b244": 5503,
      "##107a6312": 5504,
      "##41c331811": 5505,
      "##bda494ccae": 5506,
      "##64e5b06": 5507,
      "##6d97e60c": 5508,
      "##da9bdb5919": 5509,
      "##1a919f2c81": 5510,
      "##aaf27f50b": 5511,
      "##8b889f86b": 5512,
      "##09936383": 5513,
      "##8e84242da": 5514,
      "##fdc08a4f": 5515,
      "##b970203010001a382018a3": 5516,
      "##33375a304a310b300906035504061302494c311d301b060355040a1314476f7665726e6d656e74206f662049737261656c311c301a0603550403131354414d555a2d4465766963657320434120473230820222300d06092a864886f70d01010105000382020f003082020a0282020100": 5517,
      "##0469a5a3": 5518,
      "##caebc61f4": 5519,
      "##156542b422": 5520,
      "##ca55055598": 5521,
      "##480681202": 5522,
      "##cebb56111d8a": 5523,
      "##ce1d6d23301": 5524,
      "##653165a1e35": 5525,
      "##766c079c4ce3": 5526,
      "##772b85a06": 5527,
      "##de6a9885": 5528,
      "##0b196667": 5529,
      "##6304aaf27f50b": 5530,
      "##0acf6c4b9": 5531,
      "##8805565fc7": 5532,
      "##08b9653165a1e35": 5533,
      "##ddfb7bc16": 5534,
      "##4179acff3e55": 5535,
      "##7a2d1e10a55": 5536,
      "##0d1d4abd": 5537,
      "##6e7a6304aaf27f50b": 5538,
      "##ef562b92": 5539,
      "##ff9fa37f": 5540,
      "##984a8972b": 5541,
      "##69296d00": 5542,
      "##99bd310764": 5543,
      "##2b7d5b13": 5544,
      "##166d6076ff": 5545,
      "##ce1163d7f14": 5546,
      "##24eaf46e": 5547,
      "##7c6af401b": 5548,
      "##262e53ce": 5549,
      "##84ca5e6c04ca": 5550,
      "##0685a040c": 5551,
      "##420b029ac5": 5552,
      "##8f796b7ea99": 5553,
      "##0e6e4b8a": 5554,
      "##221d00081": 5555,
      "##248378a726": 5556,
      "##7d98565ae": 5557,
      "##112b3422": 5558,
      "##246a6cc240a": 5559,
      "##ea6b041d2b4d66": 5560,
      "##2dc3560d": 5561,
      "##4b2bda100": 5562,
      "##297128f19f7e855": 5563,
      "##c431d58f": 5564,
      "##ee4d8f32f065f": 5565,
      "##78a9089dd124": 5566,
      "##462200a79ff": 5567,
      "##2f8d819ad406": 5568,
      "##56c368b4": 5569,
      "##eb02455465b": 5570,
      "##2e860eb801": 5571,
      "##d3564558d94c": 5572,
      "##11c92ba4100": 5573,
      "##eb8a7c6af401b": 5574,
      "##e9ef5ba07": 5575,
      "##a32b7380147f9": 5576,
      "##293b7ceb9": 5577,
      "##858408483": 5578,
      "##c4d3766c079c4ce3": 5579,
      "##5d0f0d38": 5580,
      "##b50baa241a137b": 5581,
      "##18071bb8f084729": 5582,
      "##63a92dc8": 5583,
      "##7e5c27418bd": 5584,
      "##e9437a2d1e10a55": 5585,
      "##d9ddacff7e3ca1": 5586,
      "##7c1e262e53ce": 5587,
      "##293e03aa3d": 5588,
      "##52cb0ad09ee": 5589,
      "##5e59420b029ac5": 5590,
      "##db44d837b": 5591,
      "##ee887e5c27418bd": 5592,
      "##dee570a66": 5593,
      "##5e45c431d58f": 5594,
      "##e6de4db85859": 5595,
      "##e50e55e41dd": 5596,
      "##85f1858408483": 5597,
      "##1457cccde": 5598,
      "##0ce578f630e": 5599,
      "##c98b2e4d63306": 5600,
      "##9c6e25d13": 5601,
      "##3907586c41": 5602,
      "##7335ff6bb": 5603,
      "##470ba3682": 5604,
      "##141a253b279": 5605,
      "##6fd8999ad3": 5606,
      "##afb1caebc61f4": 5607,
      "##ee9711e83dadeb": 5608,
      "##e835293b7ceb9": 5609,
      "##819a3591297f": 5610,
      "##1f42b1cfd5bf59": 5611,
      "##49aeb8ad7559c": 5612,
      "##70a2f130277e5": 5613,
      "##7db89248378a726": 5614,
      "##05a0ddf54c4a": 5615,
      "##0d16918dfe": 5616,
      "##7e565d3bee9e64": 5617,
      "##07c7fda9bdb5919": 5618,
      "##03f9c1457cccde": 5619,
      "##1120642413": 5620,
      "##0e3aba32b7380147f9": 5621,
      "##dd60ffce4c5": 5622,
      "##d396a1014c5a": 5623,
      "##82b5597dbd74": 5624,
      "##83c7b7df57b34ea": 5625,
      "##b3dad122ccf53": 5626,
      "##7e3e1eb721b": 5627,
      "##c3b664cd67c31e": 5628,
      "##5391d44cce": 5629,
      "##56b2a7194f5cadf": 5630,
      "##4cfcb262423c": 5631,
      "##d3d6a4efc8bab": 5632,
      "##a3dc3470ba3682": 5633,
      "##8d40c52cb0ad09ee": 5634,
      "##7e3006b3ec8f": 5635,
      "##25cb96086ee": 5636,
      "##5e406d396a1014c5a": 5637,
      "##1187f161c9e": 5638,
      "##59c5d131a886": 5639,
      "##b37c599bd310764": 5640,
      "##4f8ad107a6312": 5641,
      "##7b47a8805565fc7": 5642,
      "##eccff05a0ddf54c4a": 5643,
      "##aa28d74994484d": 5644,
      "##73f5a5b3b9": 5645,
      "##ea3df003f1b": 5646,
      "##c74ed462200a79ff": 5647,
      "##2eadf0e36a3": 5648,
      "##8ad5b2dc3560d": 5649,
      "##d3621156542b422": 5650,
      "##d6c5541c331811": 5651,
      "##6b1e17c1e262e53ce": 5652,
      "##6b23d042a99b776c48": 5653,
      "##fe42a4f8ad107a6312": 5654,
      "##fb1032b7d5b13": 5655,
      "##f12fd7852709f213": 5656,
      "##7b94eeb8a7c6af401b": 5657,
      "##540542f8d819ad406": 5658,
      "##ad83bf2869a": 5659,
      "##c6fbade6a9885": 5660,
      "##9411f49482b19": 5661,
      "##77ea626faa15": 5662,
      "##4c34a2e860eb801": 5663,
      "##206c469296d00": 5664,
      "##b9b4ece1163d7f14": 5665,
      "##86e3c4de65": 5666,
      "##297d10d16918dfe": 5667,
      "##db11e7e3e1eb721b": 5668,
      "##756d743907586c41": 5669,
      "##b39a1aee887e5c27418bd": 5670,
      "##e87f0f73f5a5b3b9": 5671,
      "##a185802e25b5": 5672,
      "##a8ba807c7fda9bdb5919": 5673,
      "##86d291dd60ffce4c5": 5674,
      "##dffc83ddfb7bc16": 5675,
      "##190f31e800000000": 5676,
      "##4d2406769806e9e": 5677,
      "##c8e848a8ba807c7fda9bdb5919": 5678,
      "##ed3a04b9b4ece1163d7f14": 5679,
      "##1826724eaf46e": 5680,
      "##266f59b50baa241a137b": 5681,
      "##7d19b0c141a253b279": 5682,
      "##ec6f1164188cf": 5683,
      "##2aee4a5e45c431d58f": 5684,
      "##ae88017796409": 5685,
      "##d44200ea3df003f1b": 5686,
      "##7cd46245f99245e": 5687,
      "##c3b4e3221d00081": 5688,
      "##9845453e835293b7ceb9": 5689,
      "##0da81e5e406d396a1014c5a": 5690,
      "##79cafb0acf6c4b9": 5691,
      "##65ea3b59c5d131a886": 5692,
      "##08206b030820498a003020102020a": 5693,
      "##a306e0603551d1f046730653063a061a05f862d687474703a2f2f63726c2e74616d757a2e676f762e696c2f7075626c69632f54616d757a52636147322e63726c862e687474703a2f2f63726c322e": 5694,
      "##0e5352a18071bb8f084729": 5695,
      "##0601f08364c7af8": 5696,
      "##e10c94429d9f8d4f": 5697,
      "##ae428ca8ad5b2dc3560d": 5698,
      "##b543d00ec460f968f3803ed8f450967d6c99d969300b0603551d0f040403020186301006092b06010401823715010403020100301906092b0601040182371402040c1e0a00530075006200430041301f0603551d23041830168014be5407c26b9c7dd9f83943b8a0f6974d4499a03": 5699,
      "##fe69dc85391d44cce": 5700,
      "##f833f2d09936383": 5701,
      "##082018630120603551d130101ff040830060101ff020101301d0603551d0e04160414": 5702,
      "##636572300d06092a864886f70d01010b0500038202010058a69": 5703,
      "##862e687474703a2f2f63726c322e74616d757a2e676f762e696c2f7075626c69632f54616d757a52636147322e636572300d06092a864886f70d01010b0500038202010058a69": 5704,
      "##74616d757a2e676f762e696c2f7075626c69632f54616d757a52636147322e63726c30818506082b0601050507010104793077303906082b06010505073001862d687474703a2f2f63726c2e74616d757a2e676f762e696c2f7075626c69632f54616d757a52636147322e": 5705,
      "##7ad4438d40c52cb0ad09ee": 5706,
      "##764167e83c7b7df57b34ea": 5707,
      "##0ce22d34b2bda100": 5708,
      "##23833375a170d3238303": 5709,
      "##fdd70984ca5e6c04ca": 5710,
      "##adf44e2ef3886b43935": 5711,
      "##636572303a06082b06010505073001862e687474703a2f2f63726c322e74616d757a2e676f762e696c2f7075626c69632f54616d757a52636147322e636572300d06092a864886f70d01010b0500038202010058a69": 5712,
      "##b89d5cb3e50e55e41dd": 5713,
      "##c14b28e9437a2d1e10a55": 5714,
      "##a07459afb1caebc61f4": 5715,
      "##0790977d9ddacff7e3ca1": 5716,
      "##929cafe86d291dd60ffce4c5": 5717,
      "##97d8d629a3dc3470ba3682": 5718,
      "##29578afee9711e83dadeb": 5719,
      "##d8365929ec6f1164188cf": 5720,
      "##4f522baa28d74994484d": 5721,
      "##9e186274e87f0f73f5a5b3b9": 5722,
      "##9e169e336fd8999ad3": 5723,
      "##b06596fa07459afb1caebc61f4": 5724,
      "##232303039323833375a170d3238303": 5725,
      "##232303039333833375a304a310b300906035504061302494c311d301b060355040a1314476f7665726e6d656e74206f662049737261656c311c301a0603550403131354414d555a2d4465766963657320434120473230820222300d06092a864886f70d01010105000382020f003082020a0282020100": 5726,
      "##6252d24a185802e25b5": 5727,
      "##cf5e207227335ff6bb": 5728,
      "##0003300d06092a864886f70d01010b05003056310b300906035504061302494c311d301b060355040a1314476f7665726e6d656e74206f662049737261656c312830260603550403131f476f7665726e6d656e74206f662049737261656c20526f6f74204341204732301e170d3133303232303039323833375a170d3238303": 5729,
      "##5135816070790977d9ddacff7e3ca1": 5730,
      "##e21902db44d837b": 5731,
      "##164ec917e3006b3ec8f": 5732,
      "##7af8283363c1275": 5733,
      "##78b098f3540542f8d819ad406": 5734,
      "##c595d3f8ca89bc0ce22d34b2bda100": 5735,
      "##d3ef170473d3d6a4efc8bab": 5736,
      "##086664d15a0c332eadf0e36a3": 5737,
      "##ba8f85f95e6de4db85859": 5738,
      "##78d5a989c6e25d13": 5739,
      "##ff92e16c87cc4179acff3e55": 5740,
      "##5a784a96d929cafe86d291dd60ffce4c5": 5741,
      "##0cdc4dd49aeb8ad7559c": 5742,
      "##8f9639a9b3dad122ccf53": 5743,
      "##6697d1c84cfcb262423c": 5744,
      "##8da73ecf6e7a6304aaf27f50b": 5745,
      "##10f4b244b39a1aee887e5c27418bd": 5746,
      "##bda494ccaecebb56111d8a": 5747,
      "##64e5b060cdc4dd49aeb8ad7559c": 5748,
      "##6d97e60c11c92ba4100": 5749,
      "##1a919f2c81086664d15a0c332eadf0e36a3": 5750,
      "##8b889f86b25cb96086ee": 5751,
      "##8e84242da166d6076ff": 5752,
      "##fdc08a4f64e5b060cdc4dd49aeb8ad7559c": 5753,
      "##b970203010001a382018a3082018630120603551d130101ff040830060101ff020101301d0603551d0e04160414": 5754,
      "##0469a5a3ba8f85f95e6de4db85859": 5755,
      "##ca55055598ae88017796409": 5756,
      "##4806812027e565d3bee9e64": 5757,
      "##ce1d6d23301ae428ca8ad5b2dc3560d": 5758,
      "##772b85a06b89d5cb3e50e55e41dd": 5759,
      "##0b19666729578afee9711e83dadeb": 5760,
      "##08b9653165a1e35eb02455465b": 5761,
      "##0d1d4abd164ec917e3006b3ec8f": 5762,
      "##ef562b9278a9089dd124": 5763,
      "##ff9fa37fbda494ccaecebb56111d8a": 5764,
      "##984a8972b8b889f86b25cb96086ee": 5765,
      "##0685a040cca55055598ae88017796409": 5766,
      "##8f796b7ea997ad4438d40c52cb0ad09ee": 5767,
      "##0e6e4b8a10f4b244b39a1aee887e5c27418bd": 5768,
      "##7d98565ae1187f161c9e": 5769,
      "##112b3422fdd70984ca5e6c04ca": 5770,
      "##246a6cc240a0e5352a18071bb8f084729": 5771,
      "##ea6b041d2b4d66819a3591297f": 5772,
      "##297128f19f7e855c14b28e9437a2d1e10a55": 5773,
      "##ee4d8f32f065fc74ed462200a79ff": 5774,
      "##56c368b4e9ef5ba07": 5775,
      "##d3564558d94cce1d6d23301ae428ca8ad5b2dc3560d": 5776,
      "##c4d3766c079c4ce37b47a8805565fc7": 5777,
      "##5d0f0d389845453e835293b7ceb9": 5778,
      "##63a92dc8d3564558d94cce1d6d23301ae428ca8ad5b2dc3560d": 5779,
      "##293e03aa3dd3ef170473d3d6a4efc8bab": 5780,
      "##5e59420b029ac51f42b1cfd5bf59": 5781,
      "##dee570a661a919f2c81086664d15a0c332eadf0e36a3": 5782,
      "##85f18584084837db89248378a726": 5783,
      "##0ce578f630e5135816070790977d9ddacff7e3ca1": 5784,
      "##c98b2e4d63306b970203010001a382018a3082018630120603551d130101ff040830060101ff020101301d0603551d0e04160414": 5785,
      "##70a2f130277e58da73ecf6e7a6304aaf27f50b": 5786,
      "##03f9c1457cccde756d743907586c41": 5787,
      "##1120642413c3b4e3221d00081": 5788,
      "##0e3aba32b7380147f903f9c1457cccde756d743907586c41": 5789,
      "##82b5597dbd74db11e7e3e1eb721b": 5790,
      "##c3b664cd67c31e79cafb0acf6c4b9": 5791,
      "##56b2a7194f5cadf2aee4a5e45c431d58f": 5792,
      "##b37c599bd31076408b9653165a1e35eb02455465b": 5793,
      "##eccff05a0ddf54c4a0685a040cca55055598ae88017796409": 5794,
      "##d3621156542b422cf5e207227335ff6bb": 5795,
      "##d6c5541c3318117b94eeb8a7c6af401b": 5796,
      "##6b1e17c1e262e53ce5e59420b029ac51f42b1cfd5bf59": 5797,
      "##6b23d042a99b776c487d19b0c141a253b279": 5798,
      "##fe42a4f8ad107a63127cd46245f99245e": 5799,
      "##fb1032b7d5b13c4d3766c079c4ce37b47a8805565fc7": 5800,
      "##f12fd7852709f213e21902db44d837b": 5801,
      "##ad83bf2869a7af8283363c1275": 5802,
      "##c6fbade6a9885fb1032b7d5b13c4d3766c079c4ce37b47a8805565fc7": 5803,
      "##9411f49482b19ff9fa37fbda494ccaecebb56111d8a": 5804,
      "##77ea626faa15fe42a4f8ad107a63127cd46245f99245e": 5805,
      "##4c34a2e860eb8010601f08364c7af8": 5806,
      "##206c469296d00f833f2d09936383": 5807,
      "##297d10d16918dfe0e3aba32b7380147f903f9c1457cccde756d743907586c41": 5808,
      "##dffc83ddfb7bc16ad83bf2869a7af8283363c1275": 5809,
      "##190f31e8000000000003300d06092a864886f70d01010b05003056310b300906035504061302494c311d301b060355040a1314476f7665726e6d656e74206f662049737261656c312830260603550403131f476f7665726e6d656e74206f662049737261656c20526f6f74204341204732301e170d3133303232303039323833375a170d3238303": 5810,
      "##4d2406769806e9e4806812027e565d3bee9e64": 5811,
      "##c8e848a8ba807c7fda9bdb591982b5597dbd74db11e7e3e1eb721b": 5812,
      "##ed3a04b9b4ece1163d7f14e10c94429d9f8d4f": 5813,
      "##1826724eaf46e9411f49482b19ff9fa37fbda494ccaecebb56111d8a": 5814,
      "##266f59b50baa241a137bea6b041d2b4d66819a3591297f": 5815,
      "##d44200ea3df003f1b8e84242da166d6076ff": 5816,
      "##0da81e5e406d396a1014c5ac3b664cd67c31e79cafb0acf6c4b9": 5817,
      "##65ea3b59c5d131a88697d8d629a3dc3470ba3682": 5818,
      "##08206b030820498a003020102020a190f31e8000000000003300d06092a864886f70d01010b05003056310b300906035504061302494c311d301b060355040a1314476f7665726e6d656e74206f662049737261656c312830260603550403131f476f7665726e6d656e74206f662049737261656c20526f6f74204341204732301e170d3133303232303039323833375a170d3238303": 5819,
      "##a306e0603551d1f046730653063a061a05f862d687474703a2f2f63726c2e74616d757a2e676f762e696c2f7075626c69632f54616d757a52636147322e63726c862e687474703a2f2f63726c322e74616d757a2e676f762e696c2f7075626c69632f54616d757a52636147322e63726c30818506082b0601050507010104793077303906082b06010505073001862d687474703a2f2f63726c2e74616d757a2e676f762e696c2f7075626c69632f54616d757a52636147322e": 5820,
      "##b543d00ec460f968f3803ed8f450967d6c99d969300b0603551d0f040403020186301006092b06010401823715010403020100301906092b0601040182371402040c1e0a00530075006200430041301f0603551d23041830168014be5407c26b9c7dd9f83943b8a0f6974d4499a03a306e0603551d1f046730653063a061a05f862d687474703a2f2f63726c2e74616d757a2e676f762e696c2f7075626c69632f54616d757a52636147322e63726c862e687474703a2f2f63726c322e74616d757a2e676f762e696c2f7075626c69632f54616d757a52636147322e63726c30818506082b0601050507010104793077303906082b06010505073001862d687474703a2f2f63726c2e74616d757a2e676f762e696c2f7075626c69632f54616d757a52636147322e": 5821,
      "##fe69dc85391d44cce8f9639a9b3dad122ccf53": 5822,
      "##764167e83c7b7df57b34ea112b3422fdd70984ca5e6c04ca": 5823,
      "##adf44e2ef3886b4393577ea626faa15fe42a4f8ad107a63127cd46245f99245e": 5824,
      "##636572303a06082b06010505073001862e687474703a2f2f63726c322e74616d757a2e676f762e696c2f7075626c69632f54616d757a52636147322e636572300d06092a864886f70d01010b0500038202010058a690d1d4abd164ec917e3006b3ec8f": 5825,
      "##d8365929ec6f1164188cf6697d1c84cfcb262423c": 5826,
      "##4f522baa28d74994484dc595d3f8ca89bc0ce22d34b2bda100": 5827,
      "##9e186274e87f0f73f5a5b3b9266f59b50baa241a137bea6b041d2b4d66819a3591297f": 5828,
      "##9e169e336fd8999ad3d6c5541c3318117b94eeb8a7c6af401b": 5829,
      "##b06596fa07459afb1caebc61f478b098f3540542f8d819ad406": 5830,
      "##232303039333833375a304a310b300906035504061302494c311d301b060355040a1314476f7665726e6d656e74206f662049737261656c311c301a0603550403131354414d555a2d4465766963657320434120473230820222300d06092a864886f70d01010105000382020f003082020a0282020100c8e848a8ba807c7fda9bdb591982b5597dbd74db11e7e3e1eb721b": 5831,
      "##6252d24a185802e25b5c6fbade6a9885fb1032b7d5b13c4d3766c079c4ce37b47a8805565fc7": 5832,
      "##78d5a989c6e25d13b06596fa07459afb1caebc61f478b098f3540542f8d819ad406": 5833,
      "##ff92e16c87cc4179acff3e550b19666729578afee9711e83dadeb": 5834,
      "##5a784a96d929cafe86d291dd60ffce4c57d98565ae1187f161c9e": 5835,
      "##6d97e60c11c92ba4100f12fd7852709f213e21902db44d837b": 5836,
      "##fdc08a4f64e5b060cdc4dd49aeb8ad7559c63a92dc8d3564558d94cce1d6d23301ae428ca8ad5b2dc3560d": 5837,
      "##0469a5a3ba8f85f95e6de4db858594c34a2e860eb8010601f08364c7af8": 5838,
      "##772b85a06b89d5cb3e50e55e41dd293e03aa3dd3ef170473d3d6a4efc8bab": 5839,
      "##ef562b9278a9089dd124eccff05a0ddf54c4a0685a040cca55055598ae88017796409": 5840,
      "##984a8972b8b889f86b25cb96086ee65ea3b59c5d131a88697d8d629a3dc3470ba3682": 5841,
      "##8f796b7ea997ad4438d40c52cb0ad09eed3621156542b422cf5e207227335ff6bb": 5842,
      "##0e6e4b8a10f4b244b39a1aee887e5c27418bdc98b2e4d63306b970203010001a382018a3082018630120603551d130101ff040830060101ff020101301d0603551d0e04160414": 5843,
      "##246a6cc240a0e5352a18071bb8f084729fe69dc85391d44cce8f9639a9b3dad122ccf53": 5844,
      "##297128f19f7e855c14b28e9437a2d1e10a55d44200ea3df003f1b8e84242da166d6076ff": 5845,
      "##ee4d8f32f065fc74ed462200a79ff56b2a7194f5cadf2aee4a5e45c431d58f": 5846,
      "##56c368b4e9ef5ba07dee570a661a919f2c81086664d15a0c332eadf0e36a3": 5847,
      "##5d0f0d389845453e835293b7ceb978d5a989c6e25d13b06596fa07459afb1caebc61f478b098f3540542f8d819ad406": 5848,
      "##85f18584084837db89248378a726ff92e16c87cc4179acff3e550b19666729578afee9711e83dadeb": 5849,
      "##0ce578f630e5135816070790977d9ddacff7e3ca186e3c4de65": 5850,
      "##70a2f130277e58da73ecf6e7a6304aaf27f50bd8365929ec6f1164188cf6697d1c84cfcb262423c": 5851,
      "##1120642413c3b4e3221d000814d2406769806e9e4806812027e565d3bee9e64": 5852,
      "##b37c599bd31076408b9653165a1e35eb02455465b297d10d16918dfe0e3aba32b7380147f903f9c1457cccde756d743907586c41": 5853,
      "##6b1e17c1e262e53ce5e59420b029ac51f42b1cfd5bf59ee4d8f32f065fc74ed462200a79ff56b2a7194f5cadf2aee4a5e45c431d58f": 5854,
      "##6b23d042a99b776c487d19b0c141a253b2795d0f0d389845453e835293b7ceb978d5a989c6e25d13b06596fa07459afb1caebc61f478b098f3540542f8d819ad406": 5855,
      "##206c469296d00f833f2d099363830da81e5e406d396a1014c5ac3b664cd67c31e79cafb0acf6c4b9": 5856,
      "##dffc83ddfb7bc16ad83bf2869a7af8283363c12759e169e336fd8999ad3d6c5541c3318117b94eeb8a7c6af401b": 5857,
      "##ed3a04b9b4ece1163d7f14e10c94429d9f8d4f984a8972b8b889f86b25cb96086ee65ea3b59c5d131a88697d8d629a3dc3470ba3682": 5858,
      "##1826724eaf46e9411f49482b19ff9fa37fbda494ccaecebb56111d8a6b23d042a99b776c487d19b0c141a253b2795d0f0d389845453e835293b7ceb978d5a989c6e25d13b06596fa07459afb1caebc61f478b098f3540542f8d819ad406": 5859,
      "##08206b030820498a003020102020a190f31e8000000000003300d06092a864886f70d01010b05003056310b300906035504061302494c311d301b060355040a1314476f7665726e6d656e74206f662049737261656c312830260603550403131f476f7665726e6d656e74206f662049737261656c20526f6f74204341204732301e170d3133303232303039323833375a170d3238303232303039333833375a304a310b300906035504061302494c311d301b060355040a1314476f7665726e6d656e74206f662049737261656c311c301a0603550403131354414d555a2d4465766963657320434120473230820222300d06092a864886f70d01010105000382020f003082020a0282020100c8e848a8ba807c7fda9bdb591982b5597dbd74db11e7e3e1eb721b": 5860,
      "##b543d00ec460f968f3803ed8f450967d6c99d969300b0603551d0f040403020186301006092b06010401823715010403020100301906092b0601040182371402040c1e0a00530075006200430041301f0603551d23041830168014be5407c26b9c7dd9f83943b8a0f6974d4499a03a306e0603551d1f046730653063a061a05f862d687474703a2f2f63726c2e74616d757a2e676f762e696c2f7075626c69632f54616d757a52636147322e63726c862e687474703a2f2f63726c322e74616d757a2e676f762e696c2f7075626c69632f54616d757a52636147322e63726c30818506082b0601050507010104793077303906082b06010505073001862d687474703a2f2f63726c2e74616d757a2e676f762e696c2f7075626c69632f54616d757a52636147322e636572303a06082b06010505073001862e687474703a2f2f63726c322e74616d757a2e676f762e696c2f7075626c69632f54616d757a52636147322e636572300d06092a864886f70d01010b0500038202010058a690d1d4abd164ec917e3006b3ec8f": 5861,
      "##764167e83c7b7df57b34ea112b3422fdd70984ca5e6c04ca9e186274e87f0f73f5a5b3b9266f59b50baa241a137bea6b041d2b4d66819a3591297f": 5862,
      "##adf44e2ef3886b4393577ea626faa15fe42a4f8ad107a63127cd46245f99245e1120642413c3b4e3221d000814d2406769806e9e4806812027e565d3bee9e64": 5863,
      "##4f522baa28d74994484dc595d3f8ca89bc0ce22d34b2bda10056c368b4e9ef5ba07dee570a661a919f2c81086664d15a0c332eadf0e36a3": 5864,
      "##6252d24a185802e25b5c6fbade6a9885fb1032b7d5b13c4d3766c079c4ce37b47a8805565fc7ef562b9278a9089dd124eccff05a0ddf54c4a0685a040cca55055598ae88017796409": 5865,
      "##5a784a96d929cafe86d291dd60ffce4c57d98565ae1187f161c9e206c469296d00f833f2d099363830da81e5e406d396a1014c5ac3b664cd67c31e79cafb0acf6c4b9": 5866,
      "##6d97e60c11c92ba4100f12fd7852709f213e21902db44d837b5a784a96d929cafe86d291dd60ffce4c57d98565ae1187f161c9e206c469296d00f833f2d099363830da81e5e406d396a1014c5ac3b664cd67c31e79cafb0acf6c4b9": 5867,
      "##fdc08a4f64e5b060cdc4dd49aeb8ad7559c63a92dc8d3564558d94cce1d6d23301ae428ca8ad5b2dc3560dadf44e2ef3886b4393577ea626faa15fe42a4f8ad107a63127cd46245f99245e1120642413c3b4e3221d000814d2406769806e9e4806812027e565d3bee9e64": 5868,
      "##0469a5a3ba8f85f95e6de4db858594c34a2e860eb8010601f08364c7af8b37c599bd31076408b9653165a1e35eb02455465b297d10d16918dfe0e3aba32b7380147f903f9c1457cccde756d743907586c41": 5869,
      "##772b85a06b89d5cb3e50e55e41dd293e03aa3dd3ef170473d3d6a4efc8bab8f796b7ea997ad4438d40c52cb0ad09eed3621156542b422cf5e207227335ff6bb": 5870,
      "##0e6e4b8a10f4b244b39a1aee887e5c27418bdc98b2e4d63306b970203010001a382018a3082018630120603551d130101ff040830060101ff020101301d0603551d0e04160414b543d00ec460f968f3803ed8f450967d6c99d969300b0603551d0f040403020186301006092b06010401823715010403020100301906092b0601040182371402040c1e0a00530075006200430041301f0603551d23041830168014be5407c26b9c7dd9f83943b8a0f6974d4499a03a306e0603551d1f046730653063a061a05f862d687474703a2f2f63726c2e74616d757a2e676f762e696c2f7075626c69632f54616d757a52636147322e63726c862e687474703a2f2f63726c322e74616d757a2e676f762e696c2f7075626c69632f54616d757a52636147322e63726c30818506082b0601050507010104793077303906082b06010505073001862d687474703a2f2f63726c2e74616d757a2e676f762e696c2f7075626c69632f54616d757a52636147322e636572303a06082b06010505073001862e687474703a2f2f63726c322e74616d757a2e676f762e696c2f7075626c69632f54616d757a52636147322e636572300d06092a864886f70d01010b0500038202010058a690d1d4abd164ec917e3006b3ec8f": 5871,
      "##246a6cc240a0e5352a18071bb8f084729fe69dc85391d44cce8f9639a9b3dad122ccf530e6e4b8a10f4b244b39a1aee887e5c27418bdc98b2e4d63306b970203010001a382018a3082018630120603551d130101ff040830060101ff020101301d0603551d0e04160414b543d00ec460f968f3803ed8f450967d6c99d969300b0603551d0f040403020186301006092b06010401823715010403020100301906092b0601040182371402040c1e0a00530075006200430041301f0603551d23041830168014be5407c26b9c7dd9f83943b8a0f6974d4499a03a306e0603551d1f046730653063a061a05f862d687474703a2f2f63726c2e74616d757a2e676f762e696c2f7075626c69632f54616d757a52636147322e63726c862e687474703a2f2f63726c322e74616d757a2e676f762e696c2f7075626c69632f54616d757a52636147322e63726c30818506082b0601050507010104793077303906082b06010505073001862d687474703a2f2f63726c2e74616d757a2e676f762e696c2f7075626c69632f54616d757a52636147322e636572303a06082b06010505073001862e687474703a2f2f63726c322e74616d757a2e676f762e696c2f7075626c69632f54616d757a52636147322e636572300d06092a864886f70d01010b0500038202010058a690d1d4abd164ec917e3006b3ec8f": 5872,
      "##297128f19f7e855c14b28e9437a2d1e10a55d44200ea3df003f1b8e84242da166d6076ff1826724eaf46e9411f49482b19ff9fa37fbda494ccaecebb56111d8a6b23d042a99b776c487d19b0c141a253b2795d0f0d389845453e835293b7ceb978d5a989c6e25d13b06596fa07459afb1caebc61f478b098f3540542f8d819ad406": 5873,
      "##85f18584084837db89248378a726ff92e16c87cc4179acff3e550b19666729578afee9711e83dadeb246a6cc240a0e5352a18071bb8f084729fe69dc85391d44cce8f9639a9b3dad122ccf530e6e4b8a10f4b244b39a1aee887e5c27418bdc98b2e4d63306b970203010001a382018a3082018630120603551d130101ff040830060101ff020101301d0603551d0e04160414b543d00ec460f968f3803ed8f450967d6c99d969300b0603551d0f040403020186301006092b06010401823715010403020100301906092b0601040182371402040c1e0a00530075006200430041301f0603551d23041830168014be5407c26b9c7dd9f83943b8a0f6974d4499a03a306e0603551d1f046730653063a061a05f862d687474703a2f2f63726c2e74616d757a2e676f762e696c2f7075626c69632f54616d757a52636147322e63726c862e687474703a2f2f63726c322e74616d757a2e676f762e696c2f7075626c69632f54616d757a52636147322e63726c30818506082b0601050507010104793077303906082b06010505073001862d687474703a2f2f63726c2e74616d757a2e676f762e696c2f7075626c69632f54616d757a52636147322e636572303a06082b06010505073001862e687474703a2f2f63726c322e74616d757a2e676f762e696c2f7075626c69632f54616d757a52636147322e636572300d06092a864886f70d01010b0500038202010058a690d1d4abd164ec917e3006b3ec8f": 5874,
      "##70a2f130277e58da73ecf6e7a6304aaf27f50bd8365929ec6f1164188cf6697d1c84cfcb262423c0ce578f630e5135816070790977d9ddacff7e3ca186e3c4de65": 5875,
      "##6b1e17c1e262e53ce5e59420b029ac51f42b1cfd5bf59ee4d8f32f065fc74ed462200a79ff56b2a7194f5cadf2aee4a5e45c431d58f0469a5a3ba8f85f95e6de4db858594c34a2e860eb8010601f08364c7af8b37c599bd31076408b9653165a1e35eb02455465b297d10d16918dfe0e3aba32b7380147f903f9c1457cccde756d743907586c41": 5876,
      "##dffc83ddfb7bc16ad83bf2869a7af8283363c12759e169e336fd8999ad3d6c5541c3318117b94eeb8a7c6af401b85f18584084837db89248378a726ff92e16c87cc4179acff3e550b19666729578afee9711e83dadeb246a6cc240a0e5352a18071bb8f084729fe69dc85391d44cce8f9639a9b3dad122ccf530e6e4b8a10f4b244b39a1aee887e5c27418bdc98b2e4d63306b970203010001a382018a3082018630120603551d130101ff040830060101ff020101301d0603551d0e04160414b543d00ec460f968f3803ed8f450967d6c99d969300b0603551d0f040403020186301006092b06010401823715010403020100301906092b0601040182371402040c1e0a00530075006200430041301f0603551d23041830168014be5407c26b9c7dd9f83943b8a0f6974d4499a03a306e0603551d1f046730653063a061a05f862d687474703a2f2f63726c2e74616d757a2e676f762e696c2f7075626c69632f54616d757a52636147322e63726c862e687474703a2f2f63726c322e74616d757a2e676f762e696c2f7075626c69632f54616d757a52636147322e63726c30818506082b0601050507010104793077303906082b06010505073001862d687474703a2f2f63726c2e74616d757a2e676f762e696c2f7075626c69632f54616d757a52636147322e636572303a06082b06010505073001862e687474703a2f2f63726c322e74616d757a2e676f762e696c2f7075626c69632f54616d757a52636147322e636572300d06092a864886f70d01010b0500038202010058a690d1d4abd164ec917e3006b3ec8f": 5877,
      "##ed3a04b9b4ece1163d7f14e10c94429d9f8d4f984a8972b8b889f86b25cb96086ee65ea3b59c5d131a88697d8d629a3dc3470ba3682772b85a06b89d5cb3e50e55e41dd293e03aa3dd3ef170473d3d6a4efc8bab8f796b7ea997ad4438d40c52cb0ad09eed3621156542b422cf5e207227335ff6bb": 5878,
      "##08206b030820498a003020102020a190f31e8000000000003300d06092a864886f70d01010b05003056310b300906035504061302494c311d301b060355040a1314476f7665726e6d656e74206f662049737261656c312830260603550403131f476f7665726e6d656e74206f662049737261656c20526f6f74204341204732301e170d3133303232303039323833375a170d3238303232303039333833375a304a310b300906035504061302494c311d301b060355040a1314476f7665726e6d656e74206f662049737261656c311c301a0603550403131354414d555a2d4465766963657320434120473230820222300d06092a864886f70d01010105000382020f003082020a0282020100c8e848a8ba807c7fda9bdb591982b5597dbd74db11e7e3e1eb721b297128f19f7e855c14b28e9437a2d1e10a55d44200ea3df003f1b8e84242da166d6076ff1826724eaf46e9411f49482b19ff9fa37fbda494ccaecebb56111d8a6b23d042a99b776c487d19b0c141a253b2795d0f0d389845453e835293b7ceb978d5a989c6e25d13b06596fa07459afb1caebc61f478b098f3540542f8d819ad406": 5879,
      "##764167e83c7b7df57b34ea112b3422fdd70984ca5e6c04ca9e186274e87f0f73f5a5b3b9266f59b50baa241a137bea6b041d2b4d66819a3591297f4f522baa28d74994484dc595d3f8ca89bc0ce22d34b2bda10056c368b4e9ef5ba07dee570a661a919f2c81086664d15a0c332eadf0e36a3": 5880,
      "##6252d24a185802e25b5c6fbade6a9885fb1032b7d5b13c4d3766c079c4ce37b47a8805565fc7ef562b9278a9089dd124eccff05a0ddf54c4a0685a040cca55055598ae880177964096b1e17c1e262e53ce5e59420b029ac51f42b1cfd5bf59ee4d8f32f065fc74ed462200a79ff56b2a7194f5cadf2aee4a5e45c431d58f0469a5a3ba8f85f95e6de4db858594c34a2e860eb8010601f08364c7af8b37c599bd31076408b9653165a1e35eb02455465b297d10d16918dfe0e3aba32b7380147f903f9c1457cccde756d743907586c41": 5881,
      "##6d97e60c11c92ba4100f12fd7852709f213e21902db44d837b5a784a96d929cafe86d291dd60ffce4c57d98565ae1187f161c9e206c469296d00f833f2d099363830da81e5e406d396a1014c5ac3b664cd67c31e79cafb0acf6c4b9fdc08a4f64e5b060cdc4dd49aeb8ad7559c63a92dc8d3564558d94cce1d6d23301ae428ca8ad5b2dc3560dadf44e2ef3886b4393577ea626faa15fe42a4f8ad107a63127cd46245f99245e1120642413c3b4e3221d000814d2406769806e9e4806812027e565d3bee9e64": 5882,
      "##dffc83ddfb7bc16ad83bf2869a7af8283363c12759e169e336fd8999ad3d6c5541c3318117b94eeb8a7c6af401b85f18584084837db89248378a726ff92e16c87cc4179acff3e550b19666729578afee9711e83dadeb246a6cc240a0e5352a18071bb8f084729fe69dc85391d44cce8f9639a9b3dad122ccf530e6e4b8a10f4b244b39a1aee887e5c27418bdc98b2e4d63306b970203010001a382018a3082018630120603551d130101ff040830060101ff020101301d0603551d0e04160414b543d00ec460f968f3803ed8f450967d6c99d969300b0603551d0f040403020186301006092b06010401823715010403020100301906092b0601040182371402040c1e0a00530075006200430041301f0603551d23041830168014be5407c26b9c7dd9f83943b8a0f6974d4499a03a306e0603551d1f046730653063a061a05f862d687474703a2f2f63726c2e74616d757a2e676f762e696c2f7075626c69632f54616d757a52636147322e63726c862e687474703a2f2f63726c322e74616d757a2e676f762e696c2f7075626c69632f54616d757a52636147322e63726c30818506082b0601050507010104793077303906082b06010505073001862d687474703a2f2f63726c2e74616d757a2e676f762e696c2f7075626c69632f54616d757a52636147322e636572303a06082b06010505073001862e687474703a2f2f63726c322e74616d757a2e676f762e696c2f7075626c69632f54616d757a52636147322e636572300d06092a864886f70d01010b0500038202010058a690d1d4abd164ec917e3006b3ec8fed3a04b9b4ece1163d7f14e10c94429d9f8d4f984a8972b8b889f86b25cb96086ee65ea3b59c5d131a88697d8d629a3dc3470ba3682772b85a06b89d5cb3e50e55e41dd293e03aa3dd3ef170473d3d6a4efc8bab8f796b7ea997ad4438d40c52cb0ad09eed3621156542b422cf5e207227335ff6bb": 5883,
      "##08206b030820498a003020102020a190f31e8000000000003300d06092a864886f70d01010b05003056310b300906035504061302494c311d301b060355040a1314476f7665726e6d656e74206f662049737261656c312830260603550403131f476f7665726e6d656e74206f662049737261656c20526f6f74204341204732301e170d3133303232303039323833375a170d3238303232303039333833375a304a310b300906035504061302494c311d301b060355040a1314476f7665726e6d656e74206f662049737261656c311c301a0603550403131354414d555a2d4465766963657320434120473230820222300d06092a864886f70d01010105000382020f003082020a0282020100c8e848a8ba807c7fda9bdb591982b5597dbd74db11e7e3e1eb721b297128f19f7e855c14b28e9437a2d1e10a55d44200ea3df003f1b8e84242da166d6076ff1826724eaf46e9411f49482b19ff9fa37fbda494ccaecebb56111d8a6b23d042a99b776c487d19b0c141a253b2795d0f0d389845453e835293b7ceb978d5a989c6e25d13b06596fa07459afb1caebc61f478b098f3540542f8d819ad4066252d24a185802e25b5c6fbade6a9885fb1032b7d5b13c4d3766c079c4ce37b47a8805565fc7ef562b9278a9089dd124eccff05a0ddf54c4a0685a040cca55055598ae880177964096b1e17c1e262e53ce5e59420b029ac51f42b1cfd5bf59ee4d8f32f065fc74ed462200a79ff56b2a7194f5cadf2aee4a5e45c431d58f0469a5a3ba8f85f95e6de4db858594c34a2e860eb8010601f08364c7af8b37c599bd31076408b9653165a1e35eb02455465b297d10d16918dfe0e3aba32b7380147f903f9c1457cccde756d743907586c41": 5884,
      "##764167e83c7b7df57b34ea112b3422fdd70984ca5e6c04ca9e186274e87f0f73f5a5b3b9266f59b50baa241a137bea6b041d2b4d66819a3591297f4f522baa28d74994484dc595d3f8ca89bc0ce22d34b2bda10056c368b4e9ef5ba07dee570a661a919f2c81086664d15a0c332eadf0e36a36d97e60c11c92ba4100f12fd7852709f213e21902db44d837b5a784a96d929cafe86d291dd60ffce4c57d98565ae1187f161c9e206c469296d00f833f2d099363830da81e5e406d396a1014c5ac3b664cd67c31e79cafb0acf6c4b9fdc08a4f64e5b060cdc4dd49aeb8ad7559c63a92dc8d3564558d94cce1d6d23301ae428ca8ad5b2dc3560dadf44e2ef3886b4393577ea626faa15fe42a4f8ad107a63127cd46245f99245e1120642413c3b4e3221d000814d2406769806e9e4806812027e565d3bee9e64": 5885,
      "##dffc83ddfb7bc16ad83bf2869a7af8283363c12759e169e336fd8999ad3d6c5541c3318117b94eeb8a7c6af401b85f18584084837db89248378a726ff92e16c87cc4179acff3e550b19666729578afee9711e83dadeb246a6cc240a0e5352a18071bb8f084729fe69dc85391d44cce8f9639a9b3dad122ccf530e6e4b8a10f4b244b39a1aee887e5c27418bdc98b2e4d63306b970203010001a382018a3082018630120603551d130101ff040830060101ff020101301d0603551d0e04160414b543d00ec460f968f3803ed8f450967d6c99d969300b0603551d0f040403020186301006092b06010401823715010403020100301906092b0601040182371402040c1e0a00530075006200430041301f0603551d23041830168014be5407c26b9c7dd9f83943b8a0f6974d4499a03a306e0603551d1f046730653063a061a05f862d687474703a2f2f63726c2e74616d757a2e676f762e696c2f7075626c69632f54616d757a52636147322e63726c862e687474703a2f2f63726c322e74616d757a2e676f762e696c2f7075626c69632f54616d757a52636147322e63726c30818506082b0601050507010104793077303906082b06010505073001862d687474703a2f2f63726c2e74616d757a2e676f762e696c2f7075626c69632f54616d757a52636147322e636572303a06082b06010505073001862e687474703a2f2f63726c322e74616d757a2e676f762e696c2f7075626c69632f54616d757a52636147322e636572300d06092a864886f70d01010b0500038202010058a690d1d4abd164ec917e3006b3ec8fed3a04b9b4ece1163d7f14e10c94429d9f8d4f984a8972b8b889f86b25cb96086ee65ea3b59c5d131a88697d8d629a3dc3470ba3682772b85a06b89d5cb3e50e55e41dd293e03aa3dd3ef170473d3d6a4efc8bab8f796b7ea997ad4438d40c52cb0ad09eed3621156542b422cf5e207227335ff6bb764167e83c7b7df57b34ea112b3422fdd70984ca5e6c04ca9e186274e87f0f73f5a5b3b9266f59b50baa241a137bea6b041d2b4d66819a3591297f4f522baa28d74994484dc595d3f8ca89bc0ce22d34b2bda10056c368b4e9ef5ba07dee570a661a919f2c81086664d15a0c332eadf0e36a36d97e60c11c92ba4100f12fd7852709f213e21902db44d837b5a784a96d929cafe86d291dd60ffce4c57d98565ae1187f161c9e206c469296d00f833f2d099363830da81e5e406d396a1014c5ac3b664cd67c31e79cafb0acf6c4b9fdc08a4f64e5b060cdc4dd49aeb8ad7559c63a92dc8d3564558d94cce1d6d23301ae428ca8ad5b2dc3560dadf44e2ef3886b4393577ea626faa15fe42a4f8ad107a63127cd46245f99245e1120642413c3b4e3221d000814d2406769806e9e4806812027e565d3bee9e64": 5886,
      "##08206b030820498a003020102020a190f31e8000000000003300d06092a864886f70d01010b05003056310b300906035504061302494c311d301b060355040a1314476f7665726e6d656e74206f662049737261656c312830260603550403131f476f7665726e6d656e74206f662049737261656c20526f6f74204341204732301e170d3133303232303039323833375a170d3238303232303039333833375a304a310b300906035504061302494c311d301b060355040a1314476f7665726e6d656e74206f662049737261656c311c301a0603550403131354414d555a2d4465766963657320434120473230820222300d06092a864886f70d01010105000382020f003082020a0282020100c8e848a8ba807c7fda9bdb591982b5597dbd74db11e7e3e1eb721b297128f19f7e855c14b28e9437a2d1e10a55d44200ea3df003f1b8e84242da166d6076ff1826724eaf46e9411f49482b19ff9fa37fbda494ccaecebb56111d8a6b23d042a99b776c487d19b0c141a253b2795d0f0d389845453e835293b7ceb978d5a989c6e25d13b06596fa07459afb1caebc61f478b098f3540542f8d819ad4066252d24a185802e25b5c6fbade6a9885fb1032b7d5b13c4d3766c079c4ce37b47a8805565fc7ef562b9278a9089dd124eccff05a0ddf54c4a0685a040cca55055598ae880177964096b1e17c1e262e53ce5e59420b029ac51f42b1cfd5bf59ee4d8f32f065fc74ed462200a79ff56b2a7194f5cadf2aee4a5e45c431d58f0469a5a3ba8f85f95e6de4db858594c34a2e860eb8010601f08364c7af8b37c599bd31076408b9653165a1e35eb02455465b297d10d16918dfe0e3aba32b7380147f903f9c1457cccde756d743907586c41dffc83ddfb7bc16ad83bf2869a7af8283363c12759e169e336fd8999ad3d6c5541c3318117b94eeb8a7c6af401b85f18584084837db89248378a726ff92e16c87cc4179acff3e550b19666729578afee9711e83dadeb246a6cc240a0e5352a18071bb8f084729fe69dc85391d44cce8f9639a9b3dad122ccf530e6e4b8a10f4b244b39a1aee887e5c27418bdc98b2e4d63306b970203010001a382018a3082018630120603551d130101ff040830060101ff020101301d0603551d0e04160414b543d00ec460f968f3803ed8f450967d6c99d969300b0603551d0f040403020186301006092b06010401823715010403020100301906092b0601040182371402040c1e0a00530075006200430041301f0603551d23041830168014be5407c26b9c7dd9f83943b8a0f6974d4499a03a306e0603551d1f046730653063a061a05f862d687474703a2f2f63726c2e74616d757a2e676f762e696c2f7075626c69632f54616d757a52636147322e63726c862e687474703a2f2f63726c322e74616d757a2e676f762e696c2f7075626c69632f54616d757a52636147322e63726c30818506082b0601050507010104793077303906082b06010505073001862d687474703a2f2f63726c2e74616d757a2e676f762e696c2f7075626c69632f54616d757a52636147322e636572303a06082b06010505073001862e687474703a2f2f63726c322e74616d757a2e676f762e696c2f7075626c69632f54616d757a52636147322e636572300d06092a864886f70d01010b0500038202010058a690d1d4abd164ec917e3006b3ec8fed3a04b9b4ece1163d7f14e10c94429d9f8d4f984a8972b8b889f86b25cb96086ee65ea3b59c5d131a88697d8d629a3dc3470ba3682772b85a06b89d5cb3e50e55e41dd293e03aa3dd3ef170473d3d6a4efc8bab8f796b7ea997ad4438d40c52cb0ad09eed3621156542b422cf5e207227335ff6bb764167e83c7b7df57b34ea112b3422fdd70984ca5e6c04ca9e186274e87f0f73f5a5b3b9266f59b50baa241a137bea6b041d2b4d66819a3591297f4f522baa28d74994484dc595d3f8ca89bc0ce22d34b2bda10056c368b4e9ef5ba07dee570a661a919f2c81086664d15a0c332eadf0e36a36d97e60c11c92ba4100f12fd7852709f213e21902db44d837b5a784a96d929cafe86d291dd60ffce4c57d98565ae1187f161c9e206c469296d00f833f2d099363830da81e5e406d396a1014c5ac3b664cd67c31e79cafb0acf6c4b9fdc08a4f64e5b060cdc4dd49aeb8ad7559c63a92dc8d3564558d94cce1d6d23301ae428ca8ad5b2dc3560dadf44e2ef3886b4393577ea626faa15fe42a4f8ad107a63127cd46245f99245e1120642413c3b4e3221d000814d2406769806e9e4806812027e565d3bee9e64": 5887,
      "##08206b030820498a003020102020a190f31e8000000000003300d06092a864886f70d01010b05003056310b300906035504061302494c311d301b060355040a1314476f7665726e6d656e74206f662049737261656c312830260603550403131f476f7665726e6d656e74206f662049737261656c20526f6f74204341204732301e170d3133303232303039323833375a170d3238303232303039333833375a304a310b300906035504061302494c311d301b060355040a1314476f7665726e6d656e74206f662049737261656c311c301a0603550403131354414d555a2d4465766963657320434120473230820222300d06092a864886f70d01010105000382020f003082020a0282020100c8e848a8ba807c7fda9bdb591982b5597dbd74db11e7e3e1eb721b297128f19f7e855c14b28e9437a2d1e10a55d44200ea3df003f1b8e84242da166d6076ff1826724eaf46e9411f49482b19ff9fa37fbda494ccaecebb56111d8a6b23d042a99b776c487d19b0c141a253b2795d0f0d389845453e835293b7ceb978d5a989c6e25d13b06596fa07459afb1caebc61f478b098f3540542f8d819ad4066252d24a185802e25b5c6fbade6a9885fb1032b7d5b13c4d3766c079c4ce37b47a8805565fc7ef562b9278a9089dd124eccff05a0ddf54c4a0685a040cca55055598ae880177964096b1e17c1e262e53ce5e59420b029ac51f42b1cfd5bf59ee4d8f32f065fc74ed462200a79ff56b2a7194f5cadf2aee4a5e45c431d58f0469a5a3ba8f85f95e6de4db858594c34a2e860eb8010601f08364c7af8b37c599bd31076408b9653165a1e35eb02455465b297d10d16918dfe0e3aba32b7380147f903f9c1457cccde756d743907586c41dffc83ddfb7bc16ad83bf2869a7af8283363c12759e169e336fd8999ad3d6c5541c3318117b94eeb8a7c6af401b85f18584084837db89248378a726ff92e16c87cc4179acff3e550b19666729578afee9711e83dadeb246a6cc240a0e5352a18071bb8f084729fe69dc85391d44cce8f9639a9b3dad122ccf530e6e4b8a10f4b244b39a1aee887e5c27418bdc98b2e4d63306b970203010001a382018a3082018630120603551d130101ff040830060101ff020101301d0603551d0e04160414b543d00ec460f968f3803ed8f450967d6c99d969300b0603551d0f040403020186301006092b06010401823715010403020100301906092b0601040182371402040c1e0a00530075006200430041301f0603551d23041830168014be5407c26b9c7dd9f83943b8a0f6974d4499a03a306e0603551d1f046730653063a061a05f862d687474703a2f2f63726c2e74616d757a2e676f762e696c2f7075626c69632f54616d757a52636147322e63726c862e687474703a2f2f63726c322e74616d757a2e676f762e696c2f7075626c69632f54616d757a52636147322e63726c30818506082b0601050507010104793077303906082b06010505073001862d687474703a2f2f63726c2e74616d757a2e676f762e696c2f7075626c69632f54616d757a52636147322e636572303a06082b06010505073001862e687474703a2f2f63726c322e74616d757a2e676f762e696c2f7075626c69632f54616d757a52636147322e636572300d06092a864886f70d01010b0500038202010058a690d1d4abd164ec917e3006b3ec8fed3a04b9b4ece1163d7f14e10c94429d9f8d4f984a8972b8b889f86b25cb96086ee65ea3b59c5d131a88697d8d629a3dc3470ba3682772b85a06b89d5cb3e50e55e41dd293e03aa3dd3ef170473d3d6a4efc8bab8f796b7ea997ad4438d40c52cb0ad09eed3621156542b422cf5e207227335ff6bb764167e83c7b7df57b34ea112b3422fdd70984ca5e6c04ca9e186274e87f0f73f5a5b3b9266f59b50baa241a137bea6b041d2b4d66819a3591297f4f522baa28d74994484dc595d3f8ca89bc0ce22d34b2bda10056c368b4e9ef5ba07dee570a661a919f2c81086664d15a0c332eadf0e36a36d97e60c11c92ba4100f12fd7852709f213e21902db44d837b5a784a96d929cafe86d291dd60ffce4c57d98565ae1187f161c9e206c469296d00f833f2d099363830da81e5e406d396a1014c5ac3b664cd67c31e79cafb0acf6c4b9fdc08a4f64e5b060cdc4dd49aeb8ad7559c63a92dc8d3564558d94cce1d6d23301ae428ca8ad5b2dc3560dadf44e2ef3886b4393577ea626faa15fe42a4f8ad107a63127cd46245f99245e1120642413c3b4e3221d000814d2406769806e9e4806812027e565d3bee9e6470a2f130277e58da73ecf6e7a6304aaf27f50bd8365929ec6f1164188cf6697d1c84cfcb262423c0ce578f630e5135816070790977d9ddacff7e3ca186e3c4de65": 5888,
      "הו": 5889,
      "##29b": 5890,
      "ou": 5891,
      "##קרים": 5892,
      "outlines": 5893,
      "##9998": 5894,
      "205": 5895,
      "##קבל": 5896,
      "##efb": 5897,
      "##28b": 5898,
      "##555": 5899,
      "944": 5900,
      "מעצר": 5901,
      "##0bd": 5902,
      "##ורים": 5903,
      "##6ab": 5904,
      "גב": 5905,
      "##נג": 5906,
      "##4d9": 5907,
      "##5499": 5908,
      "##cnf": 5909,
      "##iv": 5910,
      "351": 5911,
      "##שונה": 5912,
      "##65d": 5913,
      "ia": 5914,
      "##24a": 5915,
      "##om": 5916,
      "##e93": 5917,
      "104": 5918,
      "כח": 5919,
      "##0fe": 5920,
      "##0333": 5921,
      "##25a": 5922,
      "hel": 5923,
      "04": 5924,
      "##בים": 5925,
      "126": 5926,
      "##9ea": 5927,
      "9d": 5928,
      "##25e": 5929,
      "9e": 5930,
      "##55a": 5931,
      "לפיכך": 5932,
      "##49c": 5933,
      "במקרה": 5934,
      "##6cb": 5935,
      "בן": 5936,
      "107": 5937,
      "##x9": 5938,
      "##יצוע": 5939,
      "עליו": 5940,
      "##84c": 5941,
      "355": 5942,
      "##פשרות": 5943,
      "x2": 5944,
      "##68d": 5945,
      "##e06": 5946,
      "540": 5947,
      "##50a": 5948,
      "930": 5949,
      "91": 5950,
      "##862b": 5951,
      "570": 5952,
      "##87e": 5953,
      "בדרך": 5954,
      "##e4a": 5955,
      "מצא": 5956,
      "##xp": 5957,
      "##משלה": 5958,
      "##4b3": 5959,
      "הקבוע": 5960,
      "##eaca": 5961,
      "##04144": 5962,
      "##hy": 5963,
      "##d2a": 5964,
      "##bu": 5965,
      "##9af": 5966,
      "##cs7": 5967,
      "##301c": 5968,
      "102": 5969,
      "adbe": 5970,
      "pkcs7": 5971,
      "##310f1": 5972,
      "##05310f1": 5973,
      "##06092a864886f70d010905310f1": 5974,
      "##806092a864886f70d010903310b06092a864886f70d010701301c": 5975,
      "##806092a864886f70d010903310b06092a864886f70d010701301c06092a864886f70d010905310f1": 5976,
      "##מר": 5977,
      "##74616d757a2e676f762e696c2f7075626c69632f74616d757a": 5978,
      "##bl": 5979,
      "אצ": 5980,
      "##חית": 5981,
      "##hdd": 5982,
      "ההחלטה": 5983,
      "##רג": 5984,
      "##000": 5985,
      "##188": 5986,
      "##d15": 5987,
      "577": 5988,
      "##c71": 5989,
      "206": 5990,
      "##ביר": 5991,
      "שהוא": 5992,
      "פס": 5993,
      "so": 5994,
      "un": 5995,
      "יותר": 5996,
      "112": 5997,
      "373": 5998,
      "247": 5999,
      "הוצא": 6000,
      "##9fe": 6001,
      "##kk": 6002,
      "תשס": 6003,
      "##d1c": 6004,
      "##5b1": 6005,
      "##c72": 6006,
      "הרחק": 6007,
      "שנקבע": 6008,
      "oi": 6009,
      "##4544": 6010,
      "העניין": 6011,
      "367": 6012,
      "##יז": 6013,
      "340": 6014,
      "##da6": 6015,
      "c7": 6016,
      "בהם": 6017,
      "##0925": 6018,
      "214": 6019,
      "234": 6020,
      "##4643": 6021,
      "##0731": 6022,
      "בלתי": 6023,
      "##0726": 6024,
      "##6981": 6025,
      "##wi": 6026,
      "תנאי": 6027,
      "##5373": 6028,
      "בעלי": 6029,
      "##ids": 6030,
      "לעניינים": 6031,
      "דרכון": 6032,
      "##49a3": 6033,
      "##989": 6034,
      "##2702": 6035,
      "##8675": 6036,
      "##8355": 6037,
      "##7404": 6038,
      "##ca9f": 6039,
      "##0f7f": 6040,
      "##4386": 6041,
      "##8586": 6042,
      "##ceea": 6043,
      "##073f": 6044,
      "##6569": 6045,
      "##7563": 6046,
      "##2f03": 6047,
      "##827f": 6048,
      "##7a03": 6049,
      "##048b": 6050,
      "##aa86": 6051,
      "##03ab": 6052,
      "##ca79": 6053,
      "##41eb": 6054,
      "##ca06": 6055,
      "##cc74": 6056,
      "##635f": 6057,
      "##7f05": 6058,
      "##652b": 6059,
      "##052b": 6060,
      "##dd41": 6061,
      "##0d1f": 6062,
      "##09cf": 6063,
      "##83036": 6064,
      "##046b": 6065,
      "##ce6f": 6066,
      "##0fef": 6067,
      "##84ef": 6068,
      "##3195": 6069,
      "##7d7b": 6070,
      "##dd82": 6071,
      "##1595": 6072,
      "##0775": 6073,
      "##de4b": 6074,
      "##0db3": 6075,
      "##2dff": 6076,
      "##2e7b": 6077,
      "##de7c": 6078,
      "##994d": 6079,
      "266": 6080,
      "שיקבע": 6081,
      "##0e49": 6082,
      "##7a76": 6083,
      "##8a2f": 6084,
      "##0e59": 6085,
      "##21a3": 6086,
      "##14d9": 6087,
      "##ffeb": 6088,
      "##aa1b": 6089,
      "##d32e": 6090,
      "##720e": 6091,
      "##0ae9": 6092,
      "##05c9": 6093,
      "##8f81": 6094,
      "##cba3": 6095,
      "##071a": 6096,
      "##7508": 6097,
      "##צי": 6098,
      "##6eeb": 6099,
      "##1f2a": 6100,
      "##267c": 6101,
      "##75ee": 6102,
      "##546d": 6103,
      "##4dac": 6104,
      "##424a": 6105,
      "##6e13": 6106,
      "##c499": 6107,
      "##ce45": 6108,
      "##664f": 6109,
      "##ac6f": 6110,
      "##2b25": 6111,
      "##e9ce": 6112,
      "##2f23": 6113,
      "##7c23": 6114,
      "##4d85": 6115,
      "##ea63": 6116,
      "##127f": 6117,
      "##83cd": 6118,
      "שעות": 6119,
      "##ab76": 6120,
      "##6e9c": 6121,
      "##2c6d": 6122,
      "##784e": 6123,
      "##ee43": 6124,
      "##87": 6125,
      "##662b": 6126,
      "##1fbd": 6127,
      "##81da": 6128,
      "##78ba": 6129,
      "##e831": 6130,
      "##5f0b": 6131,
      "##be89": 6132,
      "##0e5c": 6133,
      "##bc06": 6134,
      "##3151": 6135,
      "##78b5": 6136,
      "##8bec": 6137,
      "##8e43": 6138,
      "##4e31": 6139,
      "##8c1f": 6140,
      "##07be": 6141,
      "##d391": 6142,
      "##893d": 6143,
      "##193e": 6144,
      "reh": 6145,
      "##010e": 6146,
      "##ec5e": 6147,
      "##2bae": 6148,
      "##adb9": 6149,
      "##5d2e": 6150,
      "##6e1a": 6151,
      "##fbef": 6152,
      "##4c45": 6153,
      "##06bc": 6154,
      "##5e66": 6155,
      "##2284": 6156,
      "##539b": 6157,
      "##2d2c": 6158,
      "##ee91": 6159,
      "##5859": 6160,
      "##5e54": 6161,
      "##8e98": 6162,
      "##4d71": 6163,
      "##d1ce": 6164,
      "##d181": 6165,
      "##855f": 6166,
      "##8fa5": 6167,
      "##74c4": 6168,
      "##a8ad": 6169,
      "##7e62": 6170,
      "חוקית": 6171,
      "##1c00": 6172,
      "kids": 6173,
      "##51bc": 6174,
      "##jvy": 6175,
      "##773a": 6176,
      "##64b5": 6177,
      "##fd79": 6178,
      "##9783": 6179,
      "##ec34": 6180,
      "##83035": 6181,
      "##43b1": 6182,
      "##קל": 6183,
      "##d516": 6184,
      "##5b61": 6185,
      "##ux7": 6186,
      "##45e4": 6187,
      "##utl": 6188,
      "##db08": 6189,
      "##91c5": 6190,
      "##f2eb": 6191,
      "##59b6": 6192,
      "tag": 6193,
      "rct": 6194,
      "##רס": 6195,
      "##e6f6": 6196,
      "##aaat": 6197,
      "##ed47": 6198,
      "0cc": 6199,
      "usg": 6200,
      "ved": 6201,
      "##949f": 6202,
      "##28b6": 6203,
      "##ogle": 6204,
      "##d3c4f": 6205,
      "נוסף": 6206,
      "google": 6207,
      "##c0c6": 6208,
      "##ונית": 6209,
      "##4cq": 6210,
      "המנוח": 6211,
      "##agot": 6212,
      "##95d7": 6213,
      "##ovot": 6214,
      "esrc": 6215,
      "##82c44": 6216,
      "##fqri": 6217,
      "##ccwl": 6218,
      "##sprl": 6219,
      "##8357a": 6220,
      "נטען": 6221,
      "##ae37": 6222,
      "##de38f": 6223,
      "##rkaz": 6224,
      "##9qew": 6225,
      "##43am": 6226,
      "##d3wj": 6227,
      "##merkaz": 6228,
      "sig2": 6229,
      "##og4cq": 6230,
      "##tdmk": 6231,
      "##qjvk": 6232,
      "##qjcnf": 6233,
      "##g7ux7": 6234,
      "##g7aaat": 6235,
      "##mujvy": 6236,
      "##yq9qew": 6237,
      "u5x9": 6238,
      "##tfng": 6239,
      "afqjcnf": 6240,
      "psagot": 6241,
      "##74bce": 6242,
      "##hddg7aaat": 6243,
      "c7sprl": 6244,
      "rehovot": 6245,
      "##utltfng": 6246,
      "0ccyq9qew": 6247,
      "##fqriqjvk": 6248,
      "##ccwlmujvy": 6249,
      "##43amg7ux7": 6250,
      "##d3wjfqriqjvk": 6251,
      "##tdmkd3wjfqriqjvk": 6252,
      "u5x9hddg7aaat": 6253,
      "afqjcnfccwlmujvy": 6254,
      "psagotmerkaz": 6255,
      "c7sprl43amg7ux7": 6256,
      "0ccyq9qewcq": 6257,
      "##tdmkd3wjfqriqjvkdw": 6258,
      "u5x9hddg7aaatog4cq": 6259,
      "afqjcnfccwlmujvytdmkd3wjfqriqjvkdw": 6260,
      "c7sprl43amg7ux7utltfng": 6261,
      "##41165": 6262,
      "##ccc05": 6263,
      "##cc5ec": 6264,
      "##7f143": 6265,
      "##21b2a": 6266,
      "##43703": 6267,
      "##70c2a": 6268,
      "##0ac65": 6269,
      "##76415": 6270,
      "##65585": 6271,
      "##789ca": 6272,
      "##8df04": 6273,
      "##799ca": 6274,
      "##2e0ce": 6275,
      "##7926c": 6276,
      "##095cf": 6277,
      "##48c53": 6278,
      "##0e841": 6279,
      "##cc605": 6280,
      "##2e6ad": 6281,
      "##4cf4c": 6282,
      "##ea1f3": 6283,
      "##6127b": 6284,
      "##605ff": 6285,
      "##e9d76": 6286,
      "##26f4b": 6287,
      "##7ad2e": 6288,
      "##0d47e": 6289,
      "##555ca": 6290,
      "##01839": 6291,
      "##5e50a": 6292,
      "##2ea77": 6293,
      "##2542f": 6294,
      "##b3b7f": 6295,
      "##5938a": 6296,
      "##e93c3": 6297,
      "##8143f": 6298,
      "##25fbb": 6299,
      "##77b6e": 6300,
      "##12703": 6301,
      "##ed37c": 6302,
      "##aba31": 6303,
      "##25e6a": 6304,
      "##7f23f": 6305,
      "##b936a": 6306,
      "##71e0c": 6307,
      "##68e4a": 6308,
      "##1a6ab": 6309,
      "##0ec6c": 6310,
      "##0655a": 6311,
      "##c42ea": 6312,
      "##c72cf": 6313,
      "##2f2be": 6314,
      "##ad50b": 6315,
      "##8465b": 6316,
      "##59c86": 6317,
      "##5bfdd": 6318,
      "##60b2f": 6319,
      "##24a54": 6320,
      "##8a84c": 6321,
      "##1df46": 6322,
      "##61c5b": 6323,
      "##29424": 6324,
      "##4a2fd": 6325,
      "##d9c6f": 6326,
      "##5c6ad": 6327,
      "##60539": 6328,
      "##4f10e": 6329,
      "##42207": 6330,
      "##3f27a": 6331,
      "##5963e": 6332,
      "##4d044": 6333,
      "##08302706092b060104018237150a041a3018300a06082b06010505070302300a06082b06010505070301300d06092a864886f70d0101": 6334,
      "##b8949": 6335,
      "##794ce45": 6336,
      "##020164020108302706092b060104018237150a041a3018300a06082b06010505070302300a06082b06010505070301300d06092a864886f70d0101": 6337,
      "##543d00ec460f968f3803ed8f450967d6c99d969306e0603551d1f046730653063a061a05f862d687474703a2f2f63726c2e74616d757a2e676f762e696c2f7075626c69632f54616d757a44657647322e63726c862e687474703a2f2f63726c322e74616d757a2e676f762e696c2f7075626c69632f54616d757a44657647322e63726c30818506082b0601050507010104793077303906082b06010505073002862d687474703a2f2f63726c2e74616d757a2e676f762e696c2f7075626c69632f54616d757a44657647322e636572303a06082b06010505073002862e687474703a2f2f63726c322e74616d757a2e676f762e696c2f7075626c69632f54616d757a44657647322e636572303c06092b0601040182371507042f302d06252b06010401823715088280812c82fad93881f59532f6f15382acad0a188": 6338,
      "##8586cc74": 6339,
      "##794ce458586cc74": 6340,
      "##020164020108302706092b060104018237150a041a3018300a06082b06010505070302300a06082b06010505070301300d06092a864886f70d01010b05000382": 6341,
      "##543d00ec460f968f3803ed8f450967d6c99d969306e0603551d1f046730653063a061a05f862d687474703a2f2f63726c2e74616d757a2e676f762e696c2f7075626c69632f54616d757a44657647322e63726c862e687474703a2f2f63726c322e74616d757a2e676f762e696c2f7075626c69632f54616d757a44657647322e63726c30818506082b0601050507010104793077303906082b06010505073002862d687474703a2f2f63726c2e74616d757a2e676f762e696c2f7075626c69632f54616d757a44657647322e636572303a06082b06010505073002862e687474703a2f2f63726c322e74616d757a2e676f762e696c2f7075626c69632f54616d757a44657647322e636572303c06092b0601040182371507042f302d06252b06010401823715088280812c82fad93881f59532f6f15382acad0a188794ce458586cc74": 6342,
      "##543d00ec460f968f3803ed8f450967d6c99d969306e0603551d1f046730653063a061a05f862d687474703a2f2f63726c2e74616d757a2e676f762e696c2f7075626c69632f54616d757a44657647322e63726c862e687474703a2f2f63726c322e74616d757a2e676f762e696c2f7075626c69632f54616d757a44657647322e63726c30818506082b0601050507010104793077303906082b06010505073002862d687474703a2f2f63726c2e74616d757a2e676f762e696c2f7075626c69632f54616d757a44657647322e636572303a06082b06010505073002862e687474703a2f2f63726c322e74616d757a2e676f762e696c2f7075626c69632f54616d757a44657647322e636572303c06092b0601040182371507042f302d06252b06010401823715088280812c82fad93881f59532f6f15382acad0a188794ce458586cc74020164020108302706092b060104018237150a041a3018300a06082b06010505070302300a06082b06010505070301300d06092a864886f70d01010b05000382": 6343,
      "##fdda8": 6344,
      "##f7dbb": 6345,
      "##0414445": 6346,
      "##59143b": 6347,
      "##e069f": 6348,
      "##7a4de1": 6349,
      "##785373": 6350,
      "##6c073f": 6351,
      "##2c6f15": 6352,
      "##8aa72": 6353,
      "##703244": 6354,
      "##e9df6": 6355,
      "##8bf8ca": 6356,
      "##a06295": 6357,
      "##0ae9ff": 6358,
      "##1b539b": 6359,
      "##6bd7cd": 6360,
      "##73e68d": 6361,
      "##87e639": 6362,
      "##d2af0f": 6363,
      "##49a3ee": 6364,
      "##270251": 6365,
      "##ceeacc": 6366,
      "##267c61": 6367,
      "##78b577": 6368,
      "##ec51bc": 6369,
      "##8d6eeb": 6370,
      "##6a862d": 6371,
      "##4678ba": 6372,
      "##4e6f116": 6373,
      "##a94d85": 6374,
      "##dee95d7": 6375,
      "##adfa8ad": 6376,
      "##c8f7b9": 6377,
      "##15a25a": 6378,
      "##150db6": 6379,
      "##8d8fb65": 6380,
      "##16643703": 6381,
      "##2c369a": 6382,
      "##8347ad": 6383,
      "##0701623": 6384,
      "##8887bb": 6385,
      "##0b68531": 6386,
      "##49c1f3": 6387,
      "##6cbebd": 6388,
      "##aa8645f": 6389,
      "##8a2fc8f": 6390,
      "##aa1bfd": 6391,
      "##2f2358f": 6392,
      "##784e3d": 6393,
      "##8e43e43": 6394,
      "##5e6662a": 6395,
      "##65a301e": 6396,
      "##352e6ad": 6397,
      "##9990726": 6398,
      "##6e74376": 6399,
      "##494c1595": 6400,
      "##f3ec5e": 6401,
      "##830383035": 6402,
      "##605d1ce": 6403,
      "##993ccc05": 6404,
      "##1f4ffeb": 6405,
      "##21b1fbd": 6406,
      "##2ba0fef": 6407,
      "##2ba546d": 6408,
      "##c14cba3": 6409,
      "##0492b25": 6410,
      "##301d0603551d0e04160414445": 6411,
      "##02010038887bb": 6412,
      "##424ea63": 6413,
      "##de18fa5": 6414,
      "##ee96cbebd": 6415,
      "##7b42f03": 6416,
      "##d6a664f": 6417,
      "##f9cdee95d7": 6418,
      "##204341204732301e170d313330383036": 6419,
      "##53d0c6": 6420,
      "##53d4c45": 6421,
      "##65a170d313": 6422,
      "##4438a84c": 6423,
      "##23f41eb": 6424,
      "##99b1a5": 6425,
      "##625652b": 6426,
      "##08a21a3": 6427,
      "##c83827f": 6428,
      "##96a949f": 6429,
      "##137b62d": 6430,
      "##cf5e4678ba": 6431,
      "##664d3151": 6432,
      "##301f0603551d23041830168014b543d00ec460f968f3803ed8f450967d6c99d969306e0603551d1f046730653063a061a05f862d687474703a2f2f63726c2e74616d757a2e676f762e696c2f7075626c69632f54616d757a44657647322e63726c862e687474703a2f2f63726c322e74616d757a2e676f762e696c2f7075626c69632f54616d757a44657647322e63726c30818506082b0601050507010104793077303906082b06010505073002862d687474703a2f2f63726c2e74616d757a2e676f762e696c2f7075626c69632f54616d757a44657647322e636572303a06082b06010505073002862e687474703a2f2f63726c322e74616d757a2e676f762e696c2f7075626c69632f54616d757a44657647322e636572303c06092b0601040182371507042f302d06252b06010401823715088280812c82fad93881f59532f6f15382acad0a188794ce458586cc74020164020108302706092b060104018237150a041a3018300a06082b06010505070302300a06082b06010505070301300d06092a864886f70d01010b05000382": 6433,
      "##fbb14d9": 6434,
      "##57f74e": 6435,
      "##57f474": 6436,
      "##c6259b6": 6437,
      "##c620b68531": 6438,
      "##150dbe89": 6439,
      "##70bd9af": 6440,
      "##70bd7ad2e": 6441,
      "##3133323831365a301e": 6442,
      "##3133323831365a170d313": 6443,
      "##d9d99b1a5": 6444,
      "##2bd7a76": 6445,
      "##3303605d1ce": 6446,
      "##977aa1bfd": 6447,
      "##20a4d71": 6448,
      "##153f4d044": 6449,
      "##4595e16d00000000072d300d06092a864886f70d01010b0500304a310b300906035504061302494c311d301b060355040a1314476f7665726e6d656e74206f662049737261656c311c301a0603550403131354414d555a2d44657669636573": 6450,
      "##156893d": 6451,
      "##c137e62": 6452,
      "##ead70c2a": 6453,
      "##0357508": 6454,
      "##00e773a": 6455,
      "##843720e": 6456,
      "##824048b": 6457,
      "##7ebde38f": 6458,
      "##6fa994d": 6459,
      "##9566bd7cd": 6460,
      "##30820122300d06092a864886f70d01010105000382010f003082010a0282010100c72cf": 6461,
      "##ede2e0ce": 6462,
      "##71c2284": 6463,
      "##2ee6569": 6464,
      "##e5ae9ce": 6465,
      "##577799ca": 6466,
      "##98ab25fbb": 6467,
      "##998d57f474": 6468,
      "##0a42d181": 6469,
      "##498e069f": 6470,
      "##311c301a06035504030c134d696e69737472795f4f665f4a75737469636530820122300d06092a864886f70d01010105000382010f003082010a0282010100c72cf": 6471,
      "##d334a2fd": 6472,
      "##29e1f2a": 6473,
      "##45c2800": 6474,
      "##f5bc0c6": 6475,
      "##07d8df04": 6476,
      "##239c499": 6477,
      "##951aba31": 6478,
      "##dd92ba546d": 6479,
      "##011375ee": 6480,
      "##6015b61": 6481,
      "##aac06bc": 6482,
      "##70fed47": 6483,
      "##6646981": 6484,
      "##ecd4643": 6485,
      "##a2e011375ee": 6486,
      "##49005963e": 6487,
      "##7238a2fc8f": 6488,
      "##2768e43e43": 6489,
      "##2ed4e31": 6490,
      "##0203010001a38201cf308201cb300b0603551d0f0404030204b0301d0603551d250416301406082b0601050507030206082b06010505070301301d0603551d0e04160414445": 6491,
      "##08205bd308203a5a003020102020a4595e16d00000000072d300d06092a864886f70d01010b0500304a310b300906035504061302494c311d301b060355040a1314476f7665726e6d656e74206f662049737261656c311c301a0603550403131354414d555a2d44657669636573": 6492,
      "##02056e13": 6493,
[...]
