[PAD]
[UNK]
[CLS]
[SEP]
[MASK]
!
"
#
$
%
&
'
(
)
*
+
,
-
.
/
0
1
2
3
4
5
6
7
8
9
:
;
<
=
>
?
@
[
\
]
^
_
`
a
b
c
d
e
f
g
h
i
j
k
l
m
n
o
p
q
r
s
t
u
v
w
x
y
z
{
|
}
~
¡
¢
£
¤
¥
¦
§
¨
©
ª
«
¬
®
¯
°
±
²
³
´
µ
¶
·
¸
¹
º
»
¼
½
¾
¿
×
ß
æ
ð
÷
ø
þ
œ
ƒ
ˆ
˜
α
γ
ζ
θ
κ
λ
υ
а
б
в
г
д
е
ж
з
и
к
л
м
н
о
п
р
с
т
у
ф
х
ц
ч
ш
щ
ъ
ы
ь
э
ю
я
ђ
є
ѕ
і
ј
љ
њ
ћ
џ
ґ
־
א
ב
ג
ד
ה
ו
ז
ח
ט
י
ך
כ
ל
ם
מ
ן
נ
ס
ע
ף
פ
ץ
צ
ק
ר
ש
ת
׳
ا
ل
م
ي
–
—
‘
’
‚
“
”
„
†
‡
•
…
‰
′
‹
›
₪
€
№
℡
™
ⅰ
ⅱ
ⅲ
ⅴ
ⅷ
√
∠
∧
∪
∵
≒
≧
├
┥
▼
◯
♪
〈
〒
〓
〔
〕
ぃ
か
け
し
ち
て
な
ね
ひ
ゑ
を
ゝ
ァ
ウ
ォ
サ
シ
タ
ッ
ヒ
フ
ヘ
ホ
ヤ
・
㍉
㍗
七
丘
丨
乗
亨
亳
仙
仮
伹
佃
位
佐
佖
佳
侚
侟
俔
俳
倉
倚
偃
偆
偵
偶
傭
傲
僉
僘
僴
冑
冝
冷
凜
処
凹
刕
刧
券
則
劍
勅
匀
匇
匝
匳
卲
卻
历
厘
厩
厭
厰
叢
吃
吋
呆
咀
哘
哲
商
問
喀
喊
喨
嘩
嘴
嚠
嚴
囲
囹
囿
圀
圉
圏
圭
址
坊
坙
坥
埇
埈
埣
埼
堺
堻
堽
塋
塗
塵
墊
墲
墸
壕
壜
夊
央
夵
夷
奅
奝
奪
奱
妁
妖
妸
妻
姥
姫
娃
娟
娼
媾
嫩
嬋
孔
孟
孻
宋
官
寡
實
尽
屆
屈
岑
岫
岳
岼
峠
峡
峵
崙
崛
嵂
嵭
嶤
工
平
幼
庖
庵
廿
式
弑
引
弖
弡
弦
弸
彈
彰
徂
待
徇
従
徘
徙
從
徨
徭
德
徼
忠
忽
怫
怯
恆
恠
恫
恭
息
悊
患
惞
惠
惪
惺
愀
愉
愑
愡
愴
愷
慘
慯
慴
慵
憲
懊
懋
懣
戓
戦
所
托
扛
找
把
抒
抔
拗
挧
振
捜
掖
掘
掟
探
掻
揌
搾
摧
摶
撕
撤
操
擎
擦
攵
改
敦
敲
斌
断
新
施
旌
昃
昞
昤
昨
昮
昶
晙
晥
晦
暖
曁
曄
曰
曵
曻
杉
材
杪
松
板
枩
架
柔
柩
柱
栃
栩
栲
桒
梟
梠
棊
椄
椽
楊
楕
楢
楳
榎
榿
槌
槓
様
槝
樟
模
樹
橆
橈
橾
檸
櫢
欅
欺
歐
歡
歩
殯
殱
殺
殻
毖
毳
氿
汚
汯
汰
泄
泚
泛
泪
泯
洄
洙
洶
活
浮
浯
涇
涜
涬
涼
淕
淫
淮
淲
淼
渉
渠
渫
湎
溿
滕
漿
潛
潺
澆
澣
澵
濛
濵
濾
瀇
瀛
炫
炬
炮
点
烈
焄
煌
煜
煢
熊
熔
熕
燕
燭
爨
牝
状
狙
猤
猿
獺
琦
琿
瑜
璞
瓜
瓮
甯
田
畑
畤
疽
症
痣
癆
癇
癨
皎
皜
盾
省
眄
睆
瞭
矛
石
硝
硺
碯
磴
礙
礼
祉
神
祠
祥
禊
福
禛
禺
秉
稍
税
穴
窓
窖
窰
竍
竪
竫
竭
筒
箚
箴
篌
簡
簧
簫
籔
精
系
紀
紆
絈
絳
綉
続
綛
網
綾
綿
縛
縞
縲
縹
繃
纐
罍
羣
群
羹
翠
耐
聒
聡
肥
肭
胆
脊
膽
膾
臑
臓
臟
臠
舌
舍
船
艚
艟
艮
色
芙
芫
苜
茉
茗
茯
茱
荳
莪
菖
萵
葆
葈
葯
葱
葺
蒿
蓍
蓑
蓙
蓴
蔟
蔭
蕗
薀
薊
薰
藕
藤
虜
蚕
蚣
蚩
蛎
蛮
蝉
蝦
螂
蠅
蠡
衫
裃
裝
裹
襆
要
覘
覦
覲
覿
觜
解
触
討
託
訳
訶
詩
該
誄
課
誾
調
諄
談
請
諒
諟
諦
諸
謙
謠
譁
變
讙
貊
貲
賃
賊
賣
賭
賰
賴
跏
践
蹇
蹌
躇
躔
躡
躱
軆
輝
轎
轺
辯
迅
近
迚
述
迸
逓
逮
週
遁
遐
邂
邊
邏
那
郞
鄒
鄧
鄭
酢
醋
醯
釤
釥
鈑
鉑
鉞
鉤
銈
銹
鋙
鋠
錂
錣
鍈
鍔
鍮
鍰
鍾
鏆
鏸
鐡
鑞
鑿
閒
防
阻
陋
陵
陷
隆
隯
雉
震
霈
靃
靕
静
面
靦
鞘
鞭
韃
韈
頁
頴
頸
顱
顴
飜
飫
飯
飼
餅
餘
餠
餾
饅
首
駅
驅
驎
髏
髑
髓
髫
鬥
鬻
魄
鮎
鮏
鮮
鯒
鯰
鰤
鱒
鳫
鳬
鳶
鴒
鴕
鴿
鵯
鶤
鶸
鷯
鷹
麭
麾
黔
黯
黼
鼈
齏
齠
齧
齪
﨏
！
＇
－
８
＠
［
ｋ
ｍ
ｑ
ｚ
｛
｡
｢
｣
､
･
ｦ
ｧ
ｨ
ｩ
ｪ
ｫ
ｬ
ｭ
ｮ
ｯ
ｰ
ｱ
ｲ
ｳ
ｴ
ｵ
ｶ
ｷ
ｸ
ｹ
ｺ
ｻ
ｼ
ｽ
ｾ
ｿ
ﾀ
ﾁ
ﾂ
ﾃ
ﾄ
ﾅ
ﾆ
ﾇ
ﾈ
ﾉ
ﾊ
ﾋ
ﾌ
ﾍ
ﾎ
ﾏ
ﾐ
ﾑ
ﾒ
ﾓ
ﾔ
ﾕ
ﾖ
ﾗ
ﾘ
ﾙ
ﾚ
ﾛ
ﾜ
ﾝ
ﾞ
ﾟ
##7
##t
##ﾝ
##j
##o
##s
##e
##½
##n
##œ
##p
##h
##ｳ
##a
##3
##q
##r
##ƒ
##d
##2
##i
##u
##c
##¢
##¹
##w
##¼
##m
##™
##ð
##5
##¥
##י
##ס
##א
##ג
##נ
##1
##æ
##y
##÷
##±
##כ
##ש
##ד
##ב
##ר
##ת
##b
##³
##ע
##ו
##ה
##ם
##k
##9
##v
##x
##0
##ｬ
##6
##8
##4
##ｰ
##ｧ
##´
##ø
##省
##ﾌ
##鍰
##ﾜ
##¯
##€
##l
##z
##ﾏ
##ｮ
##¤
##g
##¨
##¸
##f
##×
##ח
##þ
##מ
##ט
##©
##ﾈ
##ﾕ
##ﾑ
##ß
##°
##¬
##ﾄ
##ｸ
##ﾅ
##ﾖ
##£
##¾
##ｷ
##ﾇ
##ﾐ
##ﾔ
##ｱ
##ﾉ
##ﾙ
##ﾎ
##ｯ
##ｴ
##ｽ
##ﾒ
##ｲ
##ｾ
##ｦ
##ｶ
##ｪ
##¦
##ｨ
##ﾁ
##ﾗ
##け
##孟
##µ
##ˆ
##葈
##ｻ
##®
##ｵ
##ק
##º
##ﾊ
##フ
##泛
##ﾆ
##ｺ
##ｹ
##ﾓ
##ﾚ
##ﾘ
##ﾀ
##ל
##ﾛ
##ª
##ｫ
##銈
##ﾂ
##ﾃ
##ץ
##˜
##ז
##ן
##欺
##茯
##ｩ
##驎
##ﾋ
##ｼ
##蓍
##²
##ﾟ
##פ
##ｭ
##ﾞ
##か
##髏
##ⅰ
##濛
##綿
##ｿ
##∧
##樹
##℡
##昨
##т
##芫
##м
##┥
##叢
##צ
##侚
##ﾍ
##ю
##н
##х
##і
##ґ
##з
##а
##є
##и
##ζ
##黼
##ы
##歩
##鉑
##κ
##鄧
##冷
##∪
##妻
##榎
##亨
##鬻
##要
##七
##ц
##埇
##弡
##窖
##丨
##飼
##щ
##槌
##壜
##匝
##冝
##祥
##賣
##ッ
##昶
##耐
##髑
##硺
##皜
##敲
##翠
##葯
##峡
##ь
##о
##е
##э
##鏆
##№
##ф
##ⅷ
##衫
##昮
##捜
##埈
##ｚ
##к
##в
##靦
##晙
##д
##タ
##壕
##課
##ף
##淼
##擎
##絳
##鐡
##僘
##羣
##栩
##餘
##螂
##述
##煜
##濾
##嶤
##徘
##仙
##澵
##槓
##碯
##薀
##墲
##疽
##託
##涇
##鋙
##ך
##咀
##琦
##韃
##調
##券
##櫢
##鍈
##甯
##諸
##曵
##神
##飯
##∵
##毳
##竍
##枩
##淫
##醯
##攵
##請
##鷹
##旌
##吃
##囹
##椄
##悊
##г
##覿
##８
##妸
##を
##喀
##佐
##鏸
##待
##џ
##綉
##惞
##狙
##央
##鋠
##躡
##韈
##杉
##曄
##縲
##舌
##黯
##墸
##齪
##轎
##傲
##抔
##ホ
##暖
##雉
##ѕ
##癇
##ј
##∠
##覘
##擦
##厘
##て
##匀
##◯
##鑿
##苜
##鴒
##瀛
##堺
##賊
##鄭
##餠
##撤
##釤
##ね
##蠅
##燕
##纐
##架
##氿
##愑
##厭
##処
##ж
##喨
##薊
##鱒
##簫
##л
##魄
##洶
##箚
##溿
##ⅴ
##遁
##迸
##僴
##偵
##丘
##麭
##臑
##♪
##恫
##奝
##膾
##怫
##酢
##炫
##蓑
##慯
##筒
##賃
##崙
##ゑ
##ゝ
##柱
##釥
##涜
##匇
##琿
##у
##р
##ъ
##敦
##臓
##陷
##隆
##曻
##蝦
##絈
##≒
##ل
##م
##ا
##љ
##位
##偶
##峵
##堽
##ш
##ћ
##蝉
##患
##嵂
##歡
##蚣
##懋
##孻
##圭
##肭
##ｋ
##п
##畑
##炬
##熊
##鶤
##靃
##艮
##讙
##с
##搾
##賰
##忠
##覦
##莪
##礼
##週
##臟
##改
##瓜
##ウ
##訶
##葆
##隯
##郞
##羹
##虜
##那
##洄
##ⅲ
##餾
##倚
##鳬
##拗
##弖
##熕
##澆
##ي
##藤
##饅
##則
##昞
##徨
##囿
##鑞
##飫
##炮
##瓮
##浮
##猿
##乗
##近
##德
##嘴
##煌
##泚
##愴
##探
##解
##夊
##曰
##閒
##匳
##侟
##堻
##夵
##硝
##刧
##俳
##迅
##鮏
##昤
##該
##禛
##泪
##竭
##譁
##奪
##畤
##簡
##躔
##材
##邊
##凹
##њ
##鬥
##勅
##蹌
##岫
##楳
##б
##症
##黔
##式
##坊
##蛮
##ち
##妖
##殱
##肥
##掘
##秉
##蓙
##謙
##伹
##顴
##浯
##縞
##様
##鞭
##瀇
##板
##諒
##石
##摧
##頴
##謠
##竫
##福
##税
##ｑ
##続
##夷
##癨
##汯
##俔
##塵
##鍮
##迚
##殻
##楊
##晥
##所
##覲
##縹
##歐
##娟
##工
##嬋
##活
##サ
##愀
##ひ
##從
##橈
##静
##飜
##鍾
##蔭
##濵
##息
##圀
##橆
##澣
##獺
##藕
##岳
##傭
##焄
##裃
##徼
##抒
##宋
##檸
##睆
##恠
##燭
##践
##談
##愡
##栃
##淲
##し
##鳫
##я
##稍
##≧
##漿
##惺
##廿
##渉
##熔
##ⅱ
##嘩
##淮
##胆
##橾
##網
##操
##崛
##僉
##諟
##従
##誾
##哲
##蠡
##梠
##庵
##ч
##鮎
##撕
##蒿
##色
##状
##祉
##嚠
##刕
##ｍ
##▼
##璞
##ヤ
##掟
##卻
##斌
##諄
##紀
##荳
##葺
##妁
##實
##菖
##吋
##跏
##椽
##懣
##断
##址
##齏
##盾
##髫
##偆
##鯒
##ђ
##汚
##涼
##圉
##佖
##茱
##鍔
##嚴
##湎
##θ
##鼈
##昃
##蚩
##ヘ
##鴕
##鯰
##曁
##毖
##塗
##煢
##﨏
##圏
##裝
##戦
##陵
##把
##怯
##姥
##烈
##問
##嫩
##恆
##佃
##猤
##軆
##脊
##躱
##蚕
##榿
##薰
##彰
##訳
##ヒ
##冑
##坥
##坙
##誄
##屈
##蹇
##官
##寡
##茗
##鶸
##邏
##縛
##銹
##箴
##υ
##α
##槝
##鞘
##貊
##陋
##竪
##亳
##徙
##慵
##孔
##錂
##喊
##逮
##綛
##媾
##楕
##劍
##船
##蔟
##樟
##触
##矛
##鉤
##繃
##掖
##遐
##面
##├
##戓
##涬
##窓
##ォ
##新
##栲
##佳
##〓
##尽
##娃
##禊
##施
##群
##潺
##岑
##呆
##篌
##泄
##殺
##癆
##洙
##楢
##引
##徭
##桒
##松
##幼
##驅
##芙
##磴
##倉
##汰
##籔
##ァ
##變
##λ
##嵭
##淕
##殯
##觜
##討
##痣
##柔
##掻
##忽
##貲
##聡
##渠
##渫
##塋
##托
##梟
##霈
##錣
##鰤
##鳶
##愷
##萵
##慴
##慘
##彈
##愉
##屆
##賴
##綾
##臠
##鉞
##卲
##埣
##艟
##禺
##聒
##齧
##詩
##な
##鴿
##棊
##挧
##舍
##摶
##髓
##√
##罍
##裹
##岼
##商
##憲
##齠
##滕
##鄒
##シ
##蓴
##皎
##穴
##簧
##鵯
##逓
##γ
##弑
##凜
##顱
##礙
##麾
##厩
##系
##仮
##庖
##惠
##奅
##徇
##㍉
##精
##峠
##防
##找
##紆
##轺
##徂
##襆
##賭
##頁
##振
##弸
##哘
##姫
##膽
##首
##懊
##平
##祠
##蛎
##囲
##偃
##諦
##邂
##鷯
##欅
##震
##艚
##泯
##模
##埼
##潛
##杪
##揌
##扛
##厰
##窰
##鈑
##葱
##辯
##恭
##瑜
##鮮
##阻
##餅
##ぃ
##瞭
##晦
##躇
##田
##眄
##历
##墊
##駅
##醋
##㍗
##点
##柩
##〒
##蕗
##娼
##奱
##頸
##靕
##牝
##爨
##輝
##弦
##₪
##茉
##惪
##00
##aa
##01
##06
##pe
##ype
##ות
##03
mc
##04
type
##22
tj
faa
##nt
tf
12
##ים
##id
faaa
המ
##02
##de
##05
##86
##33
##65
500
##99
##31
##76
##82
##te
pg
##74
##55
##ור
##ce
##07
##ית
##63
##43
mcr
mcid
##26
faaab
td
##44
##2f
##ני
##69
##2e
##09
##73
722
##56
##ont
##70
##16
של
##ין
##ng
##יו
##77
##23
##83
##ca
##75
##ec
##15
##th
##7a
##98
##ינ
##81
##41
333
##2a
##78
##cc
##or
##d3
##53
font
##48
##שר
##66
##co
##ea
##2b
##יר
##082
על
##ער
##59
##49
##ig
##0355
##060355
לה
##0a
##54
##13
##726
##89
##14
##11
##6c
##dd
##ול
##29
##0b
##יב
##ed
443
##0f
##79
fi
##ag
##42
##וב
כי
##8f
##19
##ter
##25
##וד
##a3
##c3
##es
לא
##1d
##0101
##70d
##וק
##ef
##ri
##וח
##ou
##נה
המש
##on
את
faaabh
##300
##4c
##יה
##ar
##eb
##type
##0609
##68
##וע
##eng
##ength
##ff
length
##le
##ate
##תי
##פט
556
##ad
fl
##בר
##6e
##2d
##85
##4d
##8648
במ
##7b
##204
##7f
##86f
##45
##16d
##6f
##lter
11
##he
su
##ee
##0e
##6d
##יק
##0c
##0601
##86f70d
##2a8648
##2a864886f70d
33
##ab
##95
filter
##ון
##at
##1f
##67
##tr
sub
##code
##21
##לי
##757a
##616d
##616d757a
##06092a864886f70d
##8d
הע
##קש
##0000
למ
##תו
##08
##06035504
##an
הח
##me
100
##76f
25
הת
##זק
##bb
##76f76
##decode
##it
##רי
בה
הש
##וי
##ect
##64
##אל
##יום
בע
##ום
הא
in
##b3
##24
##88
הד
##ol
##ice
subtype
14
im
לפ
##7e
str
faaacc
##al
##7d
##ent
##0d
##yy
000
מש
##7c
##יל
##5e
##5a
##מור
##נו
##ob
##bd
##se
##b9
##st
##וא
##0505
##atedecode
flatedecode
##003
##יש
##6a
##62
32
##6963
שה
##יע
##uc
##ing
##4f
##חר
##ot
##35
##בקש
##71
##נות
##63726
##ro
##cf
sig
##e1
##0201
##ht
##וחזק
##0603551d
the
##in
##ופ
##10
##ight
277
##יד
##91
##703
##קב
##4a
##ay
struc
13
an
20
##131
##ומ
de
##61
##8a
בית
##5b
##ox
35
##082b
##06082b
##050507
##0601050507
##06082b0601050507
##ject
##22e
##ac
הה
444
המשפט
##og
##e9
##צא
10
##4b
24
xob
xobject
##tor
##er
##age
##כל
##מו
##311
##lem
בא
38
##telem
structelem
לע
##שראל
201
לב
##d9
##37
##c4
##df
1000
##da
##72
##סק
##d06092a864886f70d
##d06092a864886f70d0101
cm
הר
הס
או
##a2f
22
##2e6
##ion
##ame
##84
19
##52
for
בש
##60
##ic
הנ
##74616d757a
dev
המוחזק
##לה
##is
498
וה
##cb
23
הפ
##1a
##יא
470
זה
##ינה
##וס
##26c
389
##לא
##ding
##8b
##דר
device
##ap
##עי
##as
##2e69
##76f762e69
##2e676f762e69
##2e676f762e696c
##cri
##crip
##c9
##46
##707
##לט
##נת
442
##7474
##a2f2f
##7474703
##687474703
##2e676f762e696c2f
##687474703a2f2f
faaabb
d7
##נים
##des
##ערער
as
##idth
##6576
##יון
faaabf
##די
##cent
fontdes
##criptor
fontdescriptor
##206
##ae
et
##313
##av
##70756
##69632f
##74616d757a2e676f762e696c2f
##26c69632f
##7075626c69632f
##74616d757a2e676f762e696c2f7075626c69632f
##333
21
לי
##וש
##687474703a2f2f63726
005
מס
##301
וב
לח
faaaa
##2c
##עת
##999
or
##bc
בפ
בת
##ירה
##165
##ינו
15
26
##קר
##nco
##ncoding
##ie
כל
610
##6e74
שב
הצ
##6b
##out
##0002
##וג
##9f
ti
לש
##47
##7322e
##54616d757a
##74616d757a2e676f762e696c2f7075626c69632f54616d757a
581
##ימ
faaaca
##וז
##טע
הג
##רת
31
##5f
611
##מורת
##01b
pro
##0500
הב
200
נית
278
27
666
##973
מה
##e8
##שה
sp
##avid
015
##sp
##93
בי
##446576
##4e
##c8
##אי
##נס
##494c
##06092a864886f70d01
##e6d
##f66
הדין
##re
col
david
des
##65726
##e6d65
##1656c
##204973
##7261656c
##76f7665726
##f66204973
##e6d656e74
##76f7665726e6d656e74
##f662049737261656c
המערער
by
span
17
##עיף
##af
304
bas
29
52
##be
##ct
המשיב
co
to
249
##יפ
מע
##וט
##ch
##וכ
##את
אין
##מש
##צר
##17
39
res
לפי
##ועד
##0603550403
##a9
הכ
##041
18
##34
##0301
##of
##לו
##ica
667
##1302
777
##efont
basefont
##0401
cont
##cd
##our
width
##310b
##18
##are
##8237
##2b0601
##04018237
##2b060104018237
##ource
tm
##ירות
שנ
##081
##b5
צו
##9c
##2043
37
image
of
##ayout
16
##tem
34
sign
##יים
##206f662049737261656c
##76f7665726e6d656e74206f662049737261656c
##300d06092a864886f70d0101
30
בס
יש
##oft
##ניין
##01a
content
##12
##שות
##עה
בח
28
##3f
זו
##כות
##height
form
##1b
##עור
36
##gb
cs
bt
##ags
##char
##son
##stchar
##כן
##a1
##060355040a
name
הוא
##כך
שלא
מת
##f4
##xt
##דים
48
##fe
##fb
##ources
resources
##rgb
לישראל
המח
devicergb
##oo
##יות
כא
##ity
##db
log
אני
##3009
##13144
##311d3
##061302
##204341
##06035504061302
##01b060355040a
##494c311d3
##0603550403131
##300906035504061302
##01b060355040a13144
##494c311d301b060355040a13144
##300906035504061302494c311d301b060355040a13144
וא
##ba
חוק
##mp
##ue
color
##00024
fir
##ותר
bol
##2303
##not
bold
tr
annot
##רח
##כת
אשר
logic
##אות
##0382
##020a
מיום
##310b300906035504061302494c311d301b060355040a13144
faaaag
##מת
##2b06010401823715
##יבות
##28
##ace
##696365
250
it
המבקש
##לת
332
##מה
##97
##יח
מק
##5c
##רה
##c2e
##iab
55
התש
רא
##space
colorspace
he
##יס
משפט
##ut
##0001
##dex
index
42
##f8
##ware
##oftware
##ונ
software
layout
cid
##וצא
##08201
encoding
##311c3
##fo
pdf
##862d
ar
##51
##5d
507
778
do
##f3
##מד
##00d06092a864886f70d0101
##uu
##name
276
עם
ניתן
525
##05000382
##עות
גם
##אה
##06082b0601050507300
##687474703a2f2f63726c2e
##8f3
##arent
##רכ
##a8
44
##יצ
מא
819
80
ביום
בד
##וה
##שת
41
faaabj
##8e
81900024
ital
and
##יט
40
##20473
##20434120473
##310b300906035504061302494c311d301b060355040a1314476f7665726e6d656e74206f662049737261656c
לת
841
stem
cap
הק
fontbb
fontbbox
##ngle
descent
fontname
flags
ascent
##icangle
italicangle
stemv
capheight
imag
##ניס
page
הער
סעיף
##8303
##וצ
פר
וע
##d1
טע
255
ול
מח
ide
במש
ident
identity
##בקשה
56
##614
43
בב
75
##וזי
##set
##f2
##ai
contents
##9a
##pp
##מים
##0403
##tp
proc
procset
##3d
##ויות
##31333
עד
לו
החלט
##311c301a
##022
בג
45
##dee
##yyyy
אם
מב
##14d
##atter
##ורה
la
patter
pattern
##26f
המחוזי
##39
##פר
##oi
##לק
##605
היא
לחוק
##ze
221
th
265
##657
##פי
כד
##862e
##47322e
##74616d757a2e676f762e696c2f7075626c69632f54616d757a446576
##74616d757a2e676f762e696c2f7075626c69632f54616d757a44657647322e
##5263
##300b
##c322e
##63657
##687474703a2f2f63726c322e
##862d687474703a2f2f63726c2e
##862e687474703a2f2f63726c322e
##d0603551d
##74616d757a2e676f762e696c2f7075626c69632f54616d757a5263
##6147322e
##74616d757a2e676f762e696c2f7075626c69632f54616d757a52636147322e
##a06
השו
sigf
לאחר
תש
מד
595
##a301
בין
med
this
per
##iabox
mediabox
57
##קבע
##spe
##1e
cop
bit
##טר
כן
ומ
##יכ
##יעה
פסק
##ינת
03
##7ad
##083
##a5
##ms
387
ad
##פק
שא
##חת
##ותו
##8201
##fd
##312
is
##555a
היום
##06092a864886f70d0107
##חד
##4414d
##00000000
##69636573
##4414d555a
##חה
479
##58
299
##atu
rect
לג
195
##06092a864886f70d0109
##rco
##בע
##fi
49
##onent
92
##mponent
height
bitspe
##rcomponent
bitspercomponent
##993
##3e
##חלט
לד
##ui
parent
##00a
##c5
בר
##3b
53
##נית
wi
מצ
faaabd
##2043412047323
length1
##8c
בקש
gr
##שו
##43b
54
rea
##020101
##039
##כר
##מן
reason
תק
בו
##ולה
##ata
##לב
ער
true
te
signatu
##יג
נוס
664
653
am
##04a
##764
##nse
##d5
##8ad
בפני
##ניסה
##icense
##96
##בות
##ans
##c7
win
##e3
bb
##font
##כי
##iencoding
##ansiencoding
winansiencoding
##בוד
si
##ורך
654
act
##ובד
##f1
##lu
##לן
ob
##au
##b6
##פשר
כך
הז
##27
##8301
##ib
כדין
##ew
##565
##יית
##et
##דם
##fa
ידי
##ובה
במשמורת
360
##פת
ממ
bbox
00
##לים
ht
time
59
date
64
לצ
##tion
553
שמ
##תא
##006
##0ce
##238
##020100
350
##ww
השופט
58
אחר
id
http
##כה
##תנ
לקב
היה
##fdd
##1f4
##תירה
47
##d6c
##ניינ
63
##el
##0101ff
size
ro
##046
50
##כים
##adf
##ורת
##2d446576
##354414d555a
##0603550403131354414d555a
##310b300906035504061302494c311d301b060355040a1314476f7665726e6d656e74206f662049737261656c311c301a
##636572303
##04a310b300906035504061302494c311d301b060355040a1314476f7665726e6d656e74206f662049737261656c311c301a
##2d44657669636573
##0603550403131354414d555a2d44657669636573
##04a310b300906035504061302494c311d301b060355040a1314476f7665726e6d656e74206f662049737261656c311c301a0603550403131354414d555a2d44657669636573
##b89
##e5
95
לר
##ליך
##sy
750
lm
##li
להלן
ולא
60
##ריך
##וף
##po
דין
faaace
##ובר
##21b
08
##oup
##2ba
##d8
group
##696
##שים
פי
##f5
##rl
##ובע
widths
##ao
ope
mat
firstchar
lastchar
truetype
##2d3
##819
faaabi
##דינה
##1c
##ode
הצד
##iel
89
df
##תה
inc
מן
889
xr
##ther
לס
אף
##ant
sl
הור
inclu
perm
re
license
dl
700
rl
copy
##0416
##0f04
##רו
##לות
506
99
##020102
##0001a3
##020301
##0e0416
##f0603551d
##003020102
##0603551d0f04
##300b0603551d0f04
##d0603551d0e0416
##0203010001a3
##300b0603551d0f040403
xref
##שב
##ii
לבית
##נסיבות
##07c
##c14
etf
signed
flg
##ddata
sigfiel
sigfielddata
##7374
##cu
העותר
##308201
##06082b06010505073002
69
##709
כאמור
##eam
רש
##rix
##width
matrix
##אים
formtype
##ax
stream
##ages
735
46
##19f
מקום
##0ec
אז
text
כדי
זאת
##ינוי
au
##סג
##עתי
ישראל
החוק
662
##am
##חות
609
##כם
www
##100
##0414
ביק
use
##יבור
##שרד
נכ
##בול
הדיון
##0302
אלה
##קרה
##014
fr
info
##c8f
##וצאות
##0282
first
##7d1
ft
סב
##gr
##6801
##של
##0f003
##e170d
##0105000382
##קע
בכ
##0204
##rom
root
##חרור
##יין
##019
##obe
##ia
##06092b06010401823715
##06082b06010505070301
##06082b06010505070302
##23041
##010104
##63726c
##63726c3
##0603551d1f
##06082b0601050507010104
##83016801
##f0603551d23041
##0203010001a38201
##f0603551d2304183016801
##003020102020a
מי
##רש
377
##תיק
adobe
##779
##c6f
##65b
##um
##ign
94
מכ
##049
##d44
##855
##sign
##839
##803
obj
ניתנה
##8302
דבר
##stm
##ונה
##301d0603551d0e0416
##ns
אל
02
##ניה
##0201003
09
##424
##9917
##a0
98
##אריך
##תק
##2300d06092a864886f70d0101
##ly
נע
אינ
הכניסה
##11e
##86b
##05f
##244
הבקשה
##istr
הערעור
המדינה
##מי
##3133303
##9b
##ded
##מצ
##istry
##406
##de1
##828
sa
הצדדים
##רית
##799
##7cd
בנסיבות
273
##ולם
##0e3
האמור
220
##יקה
annots
##459
51
faaabc
פע
##lo
##בי
##000244
93
##310f
##gray
devicegray
אות
##307
##az
בישראל
##ברה
##רך
527
216
##0b05
##1e1
להג
##כנ
##ment
##ee9
##0b05000382
##204341204732301
##0b05003
##204341204732301e170d
##פים
עוד
##ni
##82b
##00ec
##7b4
##d6a
שע
with
##סגרת
##63726c3081
##0603551d1f046
other
##86301
##וך
##ccc
הסתנ
objstm
325
##ebre
קב
עב
הנו
hebre
hebrew
lin
##2ea
app
##57
##f59
##f9c
##079
##204341204732301e170d3133303
##53d
##td
out
##835
##פור
##ילה
המשיבים
##056
##ופן
imageb
imagec
imagei
##929
##65a1
##oe
##301f0603551d2304183016801
abc
abcdee
##נק
אי
המוחזקת
##116
##063
signature
##02d
##06e
##פוא
##חק
##639
1009
##bf
##274
המשמורת
359
##443
891
##תאם
יה
כב
229
##0002441
##יחס
##דת
tu
61
pages
##422
##יהם
##2fd
##97d
90002441
##455
##מונה
##ייב
##אש
בכל
##43d
##cy
##qj
##ur
##c3b
##41a
הפנים
##7e3
mm
##3128302
252
##file
##103
##6f74
##858
##295
6539917
שו
##ov
##aa2
##a04
##59c
##65f
##צה
##c6
לפני
##992
##d83
להת
300
##4f5
רשות
##אר
fontfile
fontfile2
576
##ul
##9e1
62
90
שיק
##23f
##99b
##73039
##33375
החלטה
##205
##7306
##b06
##לום
##7b9
##4509
##ed8f
##99d9
##232303
##591
##460f
##45f
##ds
##15a
##625
##acff
##4cf
##74616d757a2e676f762e696c2f7075626c69632f54616d757a44657647322e636572303
##08a
##67d6c
##79307
##53063
##1a05f
##968f3
##8506082b0601050507010104
##a061a05f
##63726c862e687474703a2f2f63726c322e
##803ed8f
##00ec460f
##63726c30818506082b0601050507010104
##0603551d1f0467306
##06e0603551d1f0467306
##43d00ec460f
##450967d6c
##99d969
##7930773039
##53063a061a05f
##968f3803ed8f
##63726c30818506082b06010505070101047930773039
##06e0603551d1f046730653063a061a05f
##43d00ec460f968f3803ed8f
##450967d6c99d969
##06e0603551d1f046730653063a061a05f862d687474703a2f2f63726c2e
##43d00ec460f968f3803ed8f450967d6c99d969
##06082b06010505073001
נמ
##c83
##ed3
נד
##45e
בסעיף
569
##50b
##פה
התק
##g7
בבית
##uo
07
##זה
##ליט
dec
##0c6
ראו
##96a
הית
##nge
##998
נקבע
##755
##כויות
לק
uri
##לתי
##מות
av
##ירת
##בה
##mes
##d7
##137b
##new
frm
em
##5300
##6f15
##cf5e
##664d
334
##f8ca
##info
##6f116
##301f0603551d23041830168014b
times
##1f3
##roman
##ופה
decode
הט
faaabg
במסגרת
##300d06092a864886f70d01010505
ערעור
בתו
##fbb
בהתאם
##57f
oa
##יימ
##ימו
##par
##mt
132
##ודה
##c62
72
colum
decodepar
decodeparms
columns
##a6
##238313
pre
##150d
##חס
##70bd
##we
##un
747
url
##אלה
##072d3
##5e16d
##31333238313
##00000000072d3
##4595e16d
##4595e16d00000000072d3
##ation
330
##צוע
##pose
aa
אך
488
202
##oy
##צרים
us
אינו
##גע
חבר
##hed
##חלטה
אב
##oa
ei
##סר
##02e
אלא
המשיבה
96
##זור
בעני
det
ביקורת
העתירה
לכך
on
##20526f
##20526f6f74
המק
199
תאריך
##מא
הרי
המת
##זר
##756
##935
##ki
##פני
376
##ual
##ידה
תח
##988
##ובת
##ted
##08203
אינה
##טח
##ומר
##d6
833
en
וכן
##2313
הסתננות
##122
##ירוש
##207
חלק
##yyy
משרד
##im
##text
actual
##0003
actualtext
##279
pr
דרך
##ies
##map
בער
dw
275
##yk
##iu
##3306
pri
##צאה
##וקול
##ניות
307
322
##sion
ap
not
בני
##0393
##וטוקול
##099
המצ
##e6
##כלל
any
למש
##ical
print
בדבר
##023
וכי
permit
included
##7c5
cr
##70d313
##cen
##92
tou
ac
##edic
predic
without
כוח
predictor
##ולים
##dant
##tog
##ibl
##ביעה
mit
##right
copyright
bibl
##ntype
opentype
biblical
##nicode
tounicode
descen
type0
##קרקע
##fonts
##dantfonts
descendantfonts
##שי
עו
לטע
yˆ
##יעת
##stem
##רות
חש
##וכח
##system
cidsystem
cidsysteminfo
##type2
cidfont
cidfonttype2
##מכות
##idmap
cidtog
cidtogidmap
##נהל
##der
docu
66
84
##69676
324
##והה
באופן
עצ
משמורת
##69a
faaacd
##4f1
##4b9
במועד
בק
##23d
##00000
מוחזק
נג
כאשר
הוד
251
מר
000000
##oh
##ce3
##462
כפי
##0eb
##cm
crea
בקשה
prod
לעניין
##וות
886
##2eb
מטע
##81e
##יבה
##719
בנו
##48c
##b4
##ud
האר
prev
##ידי
578
##18d
המע
ds
##64c
##ועדה
##רט
לתק
306
415
65
##יני
##ps
יס
##60603550403131
##76f7665726e6d656e74206f662049737261656c20526f6f74
##f476f7665726e6d656e74206f662049737261656c20526f6f74
##310b300906035504061302494c311d301b060355040a1314476f7665726e6d656e74206f662049737261656c3128302
##056310b300906035504061302494c311d301b060355040a1314476f7665726e6d656e74206f662049737261656c3128302
##60603550403131f476f7665726e6d656e74206f662049737261656c20526f6f74
##056310b300906035504061302494c311d301b060355040a1314476f7665726e6d656e74206f662049737261656c312830260603550403131f476f7665726e6d656e74206f662049737261656c20526f6f74
אזרח
##בקשת
##ובא
##מוד
331
##יתן
##ערך
##de3
##b1
##d9d
##וחר
##pk
##ישור
88
310
שחרור
##513
##כום
73
##ua
יד
##082022
השת
##f04
##נאי
##ge
להע
mo
##08205
בתק
מיו
##c98
##00609
##2bd
##010403
action
##130101ff
##2b06010401823715010403
##300b0603551d0f0404030201
##006092b06010401823715010403
##130101ff04
##ילת
400
org
לנ
67
בעניין
faaaai
81
##ישה
היו
##301d0603551d0e04160414
##צו
##984
fiel
fields
הציבור
##ריתרי
68
##רם
##כב
##יפה
כה
##כתב
##0c1e
max
##ופת
##vy
##010500
##757374
טענות
##757374696365
נס
עמד
##dc
##2176
##995
##תייחס
##ncy
210
##yyyyyyyy
il
ss
262176
##200
##9999
be
##il
608
##גור
למע
246
70
##mu
##f1b
לצורך
##7500
וש
##738
tran
transp
ju
##arency
transparency
##e2
453
##4300
##3303
##977
##ריתריאה
563
מוס
ללא
cat
##776
נת
##דיק
##20a
המס
##alog
es
catalog
##86d
480
##73f
##ff6
העובד
תוך
##733
##6200
##ודת
##ישום
303
##ברים
226
##153f
שינוי
בפסק
##5d3
ימים
אר
487
326
##פע
##זאת
reg
##si
##58f
354
בגין
ao
rot
##83c
##a03
203
rotate
##42b
##ld
הנני
##דה
##4595e16d00000000072d300d06092a864886f70d0101
כס
305
##c1
##535
##010100
2013
לעיל
110
336
##לבד
##b93
##256
cs1
cs3
cs2
##cmyk
devicecmyk
החזק
314
##ניינים
##פורט
##וני
769
שם
רק
##איות
##586
שיש
חוד
##027
##bdb
##ph
##84d
dct
##c4a
##463
dctdecode
##629
##כס
##101
##ange
יום
כמו
קמא
נוכח
##terange
byterange
##ומה
##029
##ci
ממש
##33f
לתו
##ניעת
appli
להס
##צב
##164
אחד
##ital
dig
##רים
digital
כמ
##70a
##newroman
timesnewroman
בשל
##תב
##0b05000382020100
##4c3
דינו
##156
##118
##io
xheight
##yo
##יפוט
##e2e
avg
timesnewromanps
maxwidth
avgwidth
##e33
##7af
##cb9
267
##63c
##טען
בהק
##weight
fontweight
##b65
just
##1cf
##ונש
הקב
##ליים
##038
הוראות
##c13
justice
##331
##e9e
##161
##02a
##70d3
##42a
##78b
##aba
auth
##יפול
author
יכ
##801
##06b
טוע
שוהה
##96d
##5ba
דרכ
##7f9
##f95
שר
##ead
##ck
##28f
78
ari
##קרקעין
##035
נש
##זכ
##cs
פג
##וקף
71
מדינת
##c59
פור
##4cd
##6d2
##1bb
##df6
##044
##55e
##44c
##531
##305
##539
734
##c9e
##00e
##תח
##fad
אמ
##פות
קבע
שירות
345
חד
##dc3
##f7d
##310
##ye
##843
sh
##ריג
##d3ef
##6974
85
321
##042a
##dd9f
הרא
##re1
aspose
335
##8a0f
##26b9
##2e4d
הרש
564
##fce
##e848
##5e6c
##9a1a
##886b
347
##99a03
##5407c
##254
##143
##פו
##c7dd9f
##83943b
##020f003
##082020a
##2043412047323082022
##0282020100
##0105000382020f003
##d4499a03
##2300d06092a864886f70d01010105000382020f003
##0b05003056310b300906035504061302494c311d301b060355040a1314476f7665726e6d656e74206f662049737261656c312830260603550403131f476f7665726e6d656e74206f662049737261656c20526f6f74
##6974d4499a03
##8a0f6974d4499a03
##26b9c7dd9f
##5407c26b9c7dd9f
##83943b8a0f6974d4499a03
##082020a0282020100
##20434120473230820222300d06092a864886f70d01010105000382020f003
##0b05003056310b300906035504061302494c311d301b060355040a1314476f7665726e6d656e74206f662049737261656c312830260603550403131f476f7665726e6d656e74206f662049737261656c20526f6f74204341204732301e170d3133303
##5407c26b9c7dd9f83943b8a0f6974d4499a03
##20434120473230820222300d06092a864886f70d01010105000382020f003082020a0282020100
##€b
327
אג
##ימוש
jd
##086
##for
##b3b
##0109
##02222
##794
בעל
##הל
##cn
000s
ההג
##ותרת
##824
בקשת
##7eb
##e43
503
bui
sap
##27b
##0704
min
##form
##idg
##0431
##yq
##795f
##0a00
##7ea
##0c13
ועל
זכות
##יף
##6fa
להב
##5611
##4d69
##6e69
##27a
##eal
##29d9
##2e16
##קה
##956
prop
##665f
##ba8f
##22300d06092a864886f70d0101
##ועל
##77e5
##7df5
##300a
##דו
3082
cal
##ached
##04163
widg
widget
signature1
ministry
build
##8300a
ppk
##0a041
##0204b
sapi
##0109100
detached
##0a0282
##02a082
##03310b
##72795f
##filter
##806092a864886f70d0109
##010f003
##0b2a864886f70d
##2504163
subfilter
##4a757374696365
##06035504030c13
##0301d0603551d
##2b0601040182371508
##082010a0282
##311c301a06035504030c13
##300b06092a864886f70d0107
##a3018300a
##06092a864886f70d010701
##06092a864886f70d010702a082
##06092a864886f70d01090431
##020101310f
##300b0603551d0f0404030204b
##737472795f
##30820122300d06092a864886f70d0101
##0105000382010f003
##06092b060104018237150704
##06092b060104018237150a041
##01050004
##02706092b060104018237150a041
##4d696e69
##665f4a757374696365
ppkms
##03310b06092a864886f70d010701
##806092a864886f70d010903310b06092a864886f70d010701
##0b2a864886f70d0109100
##2504163014
##0301d0603551d2504163014
##311c301a06035504030c134d696e69
##300b06092a864886f70d010701a
##30820122300d06092a864886f70d01010105000382010f003
##02706092b060104018237150a041a3018300a
##311c301a06035504030c134d696e69737472795f
##30820122300d06092a864886f70d01010105000382010f003082010a0282
##73a
##020101305
##30820122300d06092a864886f70d01010105000382010f003082010a0282010100
acro
##lags
acroform
sigflags
##08204
##1bb8f
##083006
##140204
##a003020102020a
##20603551d
##06092b060104018237
##01906092b060104018237
##020100301906092b060104018237
##86301006092b06010401823715010403
##53007500
##300b0603551d0f040403020186301006092b06010401823715010403
##130101ff04083006
##0c1e0a00
##430041
##6200430041
##300b06092a864886f70d010701a082
##1402040c1e0a00
##20603551d130101ff04083006
##020100301906092b0601040182371402040c1e0a00
##530075006200430041
##300b0603551d0f040403020186301006092b06010401823715010403020100301906092b0601040182371402040c1e0a00
##20603551d130101ff040830060101ff
##300b0603551d0f040403020186301006092b06010401823715010403020100301906092b0601040182371402040c1e0a00530075006200430041
הרשות
312
הם
כלל
##ורג
101
##78d
ae
מדובר
##ibri
##60b
##yz
calibri
לקבוע
##881
##82c
394
600
##0ac
##ede
##71c
##9d
##63e
##2ee
##413
f15
המערערת
##yu
##6bd
##49a
##483
##5ec
למניעת
wh
##rc
המנ
##e5a
##7274
##61c
##בולות
s3
##00696
##7ce
##577
06
##מך
המבקשת
##ea6
##69d
faaaah
open
חל
לבין
רפוא
##so
##98ab
254
##כא
##8d8f
נכנס
74
##998d
##חון
השופטת
##204f662049737261656c
##76f7665726e6d656e74204f662049737261656c
##0a42
##7499
##ילות
ההס
##lin
##22d3
##dff
##166
##ess
##yi
##eae
##וצע
וח
##089
83
##300d06092a864886f70d0101050500
##7a4
##b0c
##095
##498
faaacb
222
##¸y
##4ab
##lines
מצרים
##בודה
##טרס
2000
##דות
no
##zed
הקוד
con
##תן
u5
000i
497
##124
##78f
האם
##deb
דיון
לגבי
##נן
##eari
##62d
oe
2007
בדר
lineari
linearized
פרוטוקול
##נט
##סם
המערערים
ככל
##ux
a2
האו
##tf
77
##4f665f4a757374696365
##311c301a06035504030c134d696e69737472795f4f665f4a757374696365
##d33
207
##bed
##aca
##1df
בכך
##ויים
may
הטע
##נאים
אותו
##cff
##78af
##2c3
שק
114
##7852
f14
##596f
בתוך
תע
##vk
אח
86
560
##300b0603551d0f0404030204b0301d0603551d2504163014
##73e
002
בט
אדם
256
##89f
בבקשה
##layout
##e6f
ii
418
בלא
##all
נפ
להש
##98779
##ad3
##021
##d0a
##29e
##rk
##ollo
548
##יקת
##c41
מל
##עד
##2be
im9
##682
##6ad
640
בשב
המב
288
##4c5
000o
##ff9
##b9b
459
##4e3
person
hh
##ca1
##ions
חוז
##45c
##tions
##f0f
395
עניין
##כו
אלו
השלום
##a5a
##wj
מנת
por
##c16
##811
ובה
העותרים
permitted
##tri
יח
portions
shall
עובד
##cq
##ility
##202
war
lim
mer
##f8d
##ission
05
להור
##trict
שנים
##d76
##f5b
restrict
##834
embed
##0d3
##ohn
registry
han
dd
##ped
gs
##4100
##wing
##3301
##004
liab
##כנית
##ייה
ביצוע
john
follo
##fq
including
notice
##rant
hud
wiki
deal
following
שני
ral
permission
warrant
##cock
copies
hudson
hancock
ralph
##cae
השתכנ
2010
יצא
##ea3
##ance
ראש
וזאת
הכל
##ring
הגבולות
212
65402222
323
uo
supp
##ddf
הל
##d36
a6
structp
structparent
##lement
##ילו
##0f31
ltd
##041d
01
##07d
supplement
##dering
ordering
##239
2011
##72b
##7cc
באשר
בעניינו
היתר
af
##951
בטע
##701
##os
נא
##ccf
ונ
##za
##70b
##גיש
iu
ולה
הממונה
##253
##ta
##054
352
##182
docusign
##5453
##169
החלטת
##dd9
##4ef
97
גבול
##0977
אותה
##565f
##5a78
##22b
##623
##צע
##2f3
##0113
##שרה
##74e
##83b
בנ
##ecf
##a170d3
##428
##d3b
##ll
רשאי
641
##0304
344
##c74
דעת
##0c9
##0cd
##4db
##ומים
##78a
##8a3
##c2a
##60f
##0165
##ידע
##601
##71e
29998779
##0da
##c4f
##63d
##0ad
##25d
##ebd
##56b
##8f9
##6a3
##0701
##31e
##62a
##8d9
##669
##7698
##0d4
יע
הוג
##d0609
ית
##608648
##03040201
##016503040201
##d0609608648
##0165030402010500
##d06096086480165030402010500
ההליך
##b3d
##8da
##494
##6cc
##291
##c8b
##941
##9q
הי
##c48
##10f
##23c
##6b3
76
לקבל
##888
##107
##41c
וכ
##uce
##bda
גירוש
##40c
##aac
##1a5
##64e
##0e8
##cea
בהחלט
##5b3
הן
שכן
##bd3
##60c
264
##376
בתיק
##8801
##6d9
תיק
##2800
ps
##58a
##da9
קט
##ומי
##a8b
##d74
##ליכים
האחר
n2
התשע
מג
##67c
go
579
##1a9
לט
2014
link
mmm
##aaf2
##e35
##8b8
##nu
##בת
105
##0993
עני
##ונות
מועד
produce
##טרה
##e64
##d5b
producer
בעמ
##133
יהיה
##ac5
##ros
##1902
##8e8
נעצר
##382
באמצ
82
79
עולה
125
463
##fdc
##70f
oy
n0
##d5c
##0b68
לפיה
##664
##ציג
השתכנעתי
##700
##789
במק
##b28
##eb7
##icros
##icrosoft
##ecd
65400696
211
##5598
##עתו
943
##b97
yyyy
##mk
##8aa
##593
bs
##0625
##33375a3
הדברים
##dw
##74b
##1607
##a2e
##49f
##4900
##3182
##wl
##0469
oo
##caeb
התובע
##cadf
##ask
##1565
##ca55
##76ff
##7459
##2406
##04ca
##4806
##de65
##0473
##aa15
##7f0f
##03aa
##cebb
##ee4a
##266f
##79ca
##ce1d
##6383
##79ff
##6531
##766c
##772b
##2f06
##43f
##de6a
היית
##41dd
##6409
##0c33
##88cf
##240a
##0b19
##6304
##0acf
##532f
##8805
##08b9
##ddfb
##4179
##cafe
##7a2d
##723
##0d1d
##0a55
##bd74
##6e7a
##ef56
##65ea
##297f
##ff9f
##984a
##a37f
##6929
##99bd
##276
##2b7d
##166d
##ce11
##24ea
##7c6a
##262e
##84ca
##9885
##0685
##420b
##8f79
##0e6e
##221d
##2483
##2c82
##7d98
##7d19
##112b
##c4dd
##246a
##ec8f
##7f14
##ea6b
##2dc3
##4b2b
##2971
##c431
##86ee
##53ce
##ee4d
##78a9
##4622
##2f8d
##56c3
##eb02
##2c81
##2e86
##d356
##11c9
##474
##eb8a
##e9ef
##4b8a
##a32b
##83da
##4c5a
##293b
##09ee
##4729
##2b4d
##8584
##2624
##5919
##86e3
##4242
##c4d3
##5d0f
##560d
##167e
##b50b
##1807
##00081
##1d8a
##869a
##63a9
##3422
##1275
##7e5c
##e943
dsz
##6d00
בתי
##ec91
##5b06
##d9dd
##630e
##7c1e
##5b13
##293e
##18bd
##5a98
##52cb
##5e59
##238303
##89bc
##db44
##25b5
##ee88
##2d24
pk
##dee5
##f213
##5e45
עמ
##2ed
##7af8
##d58f
##3338
##e6de
##e50e
##a5a3
##2dc8
##a886
##85f1
##7b34
##465b
##1457
##253b
##6667
##7bb
##di
##655
##0ce5
##c98b
##9c6e
##3907
##f083
##0d38
##f46e
##3e55
##7335
##470b
##4abd
##77b
##2b92
##68b4
מתן
##141a
##6fd8
##2020a
##fad93
##afb1
##a301e
יא
##ee97
##eu
##020164
##881f59
##2f302d
##828081
##6f15382
##a06082b06010505073002
##306e0603551d1f046730653063a061a05f862d687474703a2f2f63726c2e
##c06092b060104018237150704
##543d00ec460f968f3803ed8f450967d6c99d969
##cf308201
##cb300b0603551d0f0404030204b0301d0603551d2504163014
##74616d757a2e676f762e696c2f7075626c69632f54616d757a44657647322e63726c862e687474703a2f2f63726c322e
##74616d757a2e676f762e696c2f7075626c69632f54616d757a44657647322e63726c30818506082b06010505070101047930773039
##862d687474703a2f2f63726c2e74616d757a2e676f762e696c2f7075626c69632f54616d757a44657647322e636572303
##862e687474703a2f2f63726c322e74616d757a2e676f762e696c2f7075626c69632f54616d757a44657647322e636572303
##04a310b300906035504061302494c311d301b060355040a1314476f7665726e6d656e74206f662049737261656c311c301a0603550403131354414d555a2d4465766963657320434120473
##06082b06010505073002862d687474703a2f2f63726c2e74616d757a2e676f762e696c2f7075626c69632f54616d757a44657647322e636572303
##06082b06010505070301300d06092a864886f70d0101
##06082b0601050507030206082b06010505070301
##06082b06010505070302300a
##0203010001a38201cf308201
##0b0500304a310b300906035504061302494c311d301b060355040a1314476f7665726e6d656e74206f662049737261656c311c301a0603550403131354414d555a2d44657669636573
##2b0601040182371508828081
##010500048201
##02706092b060104018237150a041a3018300a06082b06010505070302300a
##acad0a
##06252b0601040182371508828081
##532f6f15382
##2c82fad93
##0201640201
##881f59532f6f15382
##2f302d06252b0601040182371508828081
##a06082b06010505073002862e687474703a2f2f63726c322e74616d757a2e676f762e696c2f7075626c69632f54616d757a44657647322e636572303
##306e0603551d1f046730653063a061a05f862d687474703a2f2f63726c2e74616d757a2e676f762e696c2f7075626c69632f54616d757a44657647322e63726c862e687474703a2f2f63726c322e
##c06092b0601040182371507042f302d06252b0601040182371508828081
##543d00ec460f968f3803ed8f450967d6c99d969306e0603551d1f046730653063a061a05f862d687474703a2f2f63726c2e74616d757a2e676f762e696c2f7075626c69632f54616d757a44657647322e63726c862e687474703a2f2f63726c322e
##cb300b0603551d0f0404030204b0301d0603551d250416301406082b0601050507030206082b06010505070301
##74616d757a2e676f762e696c2f7075626c69632f54616d757a44657647322e63726c30818506082b0601050507010104793077303906082b06010505073002862d687474703a2f2f63726c2e74616d757a2e676f762e696c2f7075626c69632f54616d757a44657647322e636572303
##0203010001a38201cf308201cb300b0603551d0f0404030204b0301d0603551d250416301406082b0601050507030206082b06010505070301
##02706092b060104018237150a041a3018300a06082b06010505070302300a06082b06010505070301300d06092a864886f70d0101
##2c82fad93881f59532f6f15382
##a06082b06010505073002862e687474703a2f2f63726c322e74616d757a2e676f762e696c2f7075626c69632f54616d757a44657647322e636572303c06092b0601040182371507042f302d06252b0601040182371508828081
##543d00ec460f968f3803ed8f450967d6c99d969306e0603551d1f046730653063a061a05f862d687474703a2f2f63726c2e74616d757a2e676f762e696c2f7075626c69632f54616d757a44657647322e63726c862e687474703a2f2f63726c322e74616d757a2e676f762e696c2f7075626c69632f54616d757a44657647322e63726c30818506082b0601050507010104793077303906082b06010505073002862d687474703a2f2f63726c2e74616d757a2e676f762e696c2f7075626c69632f54616d757a44657647322e636572303
##2c82fad93881f59532f6f15382acad0a
##a06082b06010505073002862e687474703a2f2f63726c322e74616d757a2e676f762e696c2f7075626c69632f54616d757a44657647322e636572303c06092b0601040182371507042f302d06252b06010401823715088280812c82fad93881f59532f6f15382acad0a
##543d00ec460f968f3803ed8f450967d6c99d969306e0603551d1f046730653063a061a05f862d687474703a2f2f63726c2e74616d757a2e676f762e696c2f7075626c69632f54616d757a44657647322e63726c862e687474703a2f2f63726c322e74616d757a2e676f762e696c2f7075626c69632f54616d757a44657647322e63726c30818506082b0601050507010104793077303906082b06010505073002862d687474703a2f2f63726c2e74616d757a2e676f762e696c2f7075626c69632f54616d757a44657647322e636572303a06082b06010505073002862e687474703a2f2f63726c322e74616d757a2e676f762e696c2f7075626c69632f54616d757a44657647322e636572303c06092b0601040182371507042f302d06252b06010401823715088280812c82fad93881f59532f6f15382acad0a
##8304a310b300906035504061302494c311d301b060355040a1314476f7665726e6d656e74206f662049737261656c311c301a0603550403131354414d555a2d4465766963657320434120473
##08203a5a
##08205bd3
##0201013058304a310b300906035504061302494c311d301b060355040a1314476f7665726e6d656e74206f662049737261656c311c301a0603550403131354414d555a2d4465766963657320434120473
##08203a5a003020102020a
##08205bd308203a5a003020102020a
##0201013058304a310b300906035504061302494c311d301b060355040a1314476f7665726e6d656e74206f662049737261656c311c301a0603550403131354414d555a2d44657669636573204341204732020a
##e835
##819a3
##20722
##82b19
##86274
##81202
##a3682
##08483
##1f42b
##49aeb
##70a2f
##7db89
##05a0
##0d169
##7e565
##07c7f
##03f9c
##11206
##0e3ab
##08a4f
##65929
##dd60f
##cccde
##85859
##ccf53
##0205
##d396a
##7e855
##7ea99
##098f3
##82b55
##428ca
##7f50b
##82833
##83c7b
##b3dad
##54c4a
##7e3e1
##c3b66
##5391d
##56b2a
##85a06
##4b244
##6c4b9
##4cfcb
##0c944
##25d13
##43935
##4484d
##d3d6a
##8972b
##a3dc3
##8d40c
##7e300
##dd124
##25cb9
##ad406
##5e406
##1187f
##44cce
##7ceb9
##59c5d
##7bc16
##b37c5
##4f8ad
##7b47a
##44e2e
##eccff
##aa28d
##73f5a
##ff6bb
##33f2d
##ea3df
##c74ed
##זרח
##2eadf
##8d629
##8ad5b
##7559c
##5352a
##06e9e
##69e33
##06b03
##5b3b9
##7e60c
##639a9
##d3621
##d6c55
##8d94c
##4a96d
##c87cc
##6b1e1
##6b23d
##70a66
##42413
##69dc8
##73ecf
##85f95
##fe42a
##63306
##c4ce3
##fb103
##f12fd
##a040c
##d837b
##7b94e
בלבד
##da100
##565ae
##c61f4
##54054
##ad83b
##f401b
##7d1c8
##c6fba
##5ba07
##9411f
##77ea6
##4c34a
##c8bab
##206c4
##58a69
##18dfe
##b9b4e
##f8d4f
##86e3c4
##297d1
##db11e
##756d74
##d5cb3
##084729
##2f065f
##b39a1a
##999ad3
##e87f0f
##a1858
##a6312
##78a726
##a8ba8
##581607
##86d291
##42b422
##dffc83
##055598
##190f31
##4d2406
##003f1b
##c8e848
##170473
##ed3a04
##776c48
##029ac5
##89f86b
##18267
##67c31e
##03aa3d
##266f59
##7d19b0c
##44e2ef3
##ec6f116
##4188cf
##2aee4a
##6076ff
##ae8801
##7796409
##d44200
##7cd462
##0e36a3
##ee9e64
##65a1e35
##c3b4e3
##7e3ca1
##99245e
##0eb801
##9845453
##586c41
##161c9e
##310764
##565fc7
##0da81e
##63d7f14
##0ad09ee
##6b3ec8f
##d5bf59
##eb721b
##79cafb
##65ea3b
##83dadeb
##2b4d66
##262423c
##4242da
##7b34ea
##253b279
##e5407c26b9c7dd9f83943b8a0f6974d4499a03
##a06082b06010505073001
##98a003020102020a
##08206b03
##a306e0603551d1f046730653063a061a05f862d687474703a2f2f63726c2e
##0e5352a
##0601f083
##e10c944
##131a886
##6086ee
##ae428ca
##6b7ea99
##e800000000
##494ccae
##130277e5
##b543d00ec460f968f3803ed8f450967d6c99d969
##300d06092a864886f70d01010b05003056310b300906035504061302494c311d301b060355040a1314476f7665726e6d656e74206f662049737261656c312830260603550403131f476f7665726e6d656e74206f662049737261656c20526f6f74204341204732301e170d3133303
##fe69dc8
##f833f2d
##0820186301
##8f32f065f
##f2869a
##26faa15
##636572300d06092a864886f70d0101
##862d687474703a2f2f63726c2e74616d757a2e676f762e696c2f7075626c69632f54616d757a52636147322e
##862e687474703a2f2f63726c322e74616d757a2e676f762e696c2f7075626c69632f54616d757a52636147322e
##74616d757a2e676f762e696c2f7075626c69632f54616d757a52636147322e63726c862e687474703a2f2f63726c322e
##74616d757a2e676f762e696c2f7075626c69632f54616d757a52636147322e63726c30818506082b06010505070101047930773039
##7ad443
##00a79ff
##020101301d0603551d0e04160414
##0393338
##764167e
##8ad7559c
##0ce22d3
##23833375
##fdd709
##adf44e2ef3
##636572303a06082b06010505073001
##04a310b300906035504061302494c311d301b060355040a1314476f7665726e6d656e74206f662049737261656c311c301a0603550403131354414d555a2d4465766963657320434120473230820222300d06092a864886f70d01010105000382020f003082020a0282020100
##b89d5cb3
##2ba4100
##819ad406
##c14b28
##709f213
##19f2c81
##19f7e855
##0147f9
##0203010001a382018a3
##a07459
##11e83dadeb
##1e10a55
##0790977
##079c4ce3
##929cafe
##27418bd
##97dbd74
##97d8d629
##455465b
##4558d94c
##41a137b
##29578af
##aa241a137b
##d8365929
##4f522b
##4f5cadf
##9e186274
##9e169e33
##99b776c48
##b06596f
##2323030393
##2323030393338
##591297f
##45f99245e
##15a0c33
##6252d24
##acff3e55
##acff7e3ca1
##06082b06010505073001862d687474703a2f2f63726c2e74616d757a2e676f762e696c2f7075626c69632f54616d757a52636147322e
##cf5e20722
##664d15a0c33
##f8ca89bc
##301f0603551d23041830168014be5407c26b9c7dd9f83943b8a0f6974d4499a03
##02e25b5
##122ccf53
##0003300d06092a864886f70d01010b05003056310b300906035504061302494c311d301b060355040a1314476f7665726e6d656e74206f662049737261656c312830260603550403131f476f7665726e6d656e74206f662049737261656c20526f6f74204341204732301e170d3133303
##7194f5cadf
##64c7af8
##513581607
##7380147f9
##e21902
##5d3f8ca89bc
##bdb5919
##1014c5a
##164ec91
##0b0500038202010058a69
##7af82833
##63c1275
##1cfd5bf59
##331811
##78b098f3
##28f19f7e855
##c595d3f8ca89bc
##4cd67c31e
##6d23301
##55e41dd
##d3ef170473
##042a99b776c48
##2e4d63306
##fce4c5
##5e6c04ca
##886b43935
##086664d15a0c33
##56111d8a
##29d9f8d4f
##2e16c87cc
##ba8f85f95
##7df57b34ea
##0820498a003020102020a
##1bb8f084729
##20603551d130101ff040830060101ff020101301d0603551d0e04160414
##300b0603551d0f040403020186301006092b06010401823715010403020100301906092b0601040182371402040c1e0a00530075006200430041301f0603551d23041830168014be5407c26b9c7dd9f83943b8a0f6974d4499a03
##78d5a98
##74994484d
##089dd124
##78f630e
##7852709f213
##ff92e16c87cc
##ddf54c4a
##041d2b4d66
##4efc8bab
##5a784a96d
##a170d3238303
##d3bee9e64
##0cdc4dd
##4db85859
##8f9639a9
##6697d1c8
##769806e9e
##8da73ecf
##49482b19
##6cc240a
##10f4b244
##107a6312
##41c331811
##bda494ccae
##64e5b06
##6d97e60c
##da9bdb5919
##1a919f2c81
##aaf27f50b
##8b889f86b
##09936383
##8e84242da
##fdc08a4f
##b970203010001a382018a3
##33375a304a310b300906035504061302494c311d301b060355040a1314476f7665726e6d656e74206f662049737261656c311c301a0603550403131354414d555a2d4465766963657320434120473230820222300d06092a864886f70d01010105000382020f003082020a0282020100
##0469a5a3
##caebc61f4
##156542b422
##ca55055598
##480681202
##cebb56111d8a
##ce1d6d23301
##653165a1e35
##766c079c4ce3
##772b85a06
##de6a9885
##0b196667
##6304aaf27f50b
##0acf6c4b9
##8805565fc7
##08b9653165a1e35
##ddfb7bc16
##4179acff3e55
##7a2d1e10a55
##0d1d4abd
##6e7a6304aaf27f50b
##ef562b92
##ff9fa37f
##984a8972b
##69296d00
##99bd310764
##2b7d5b13
##166d6076ff
##ce1163d7f14
##24eaf46e
##7c6af401b
##262e53ce
##84ca5e6c04ca
##0685a040c
##420b029ac5
##8f796b7ea99
##0e6e4b8a
##221d00081
##248378a726
##7d98565ae
##112b3422
##246a6cc240a
##ea6b041d2b4d66
##2dc3560d
##4b2bda100
##297128f19f7e855
##c431d58f
##ee4d8f32f065f
##78a9089dd124
##462200a79ff
##2f8d819ad406
##56c368b4
##eb02455465b
##2e860eb801
##d3564558d94c
##11c92ba4100
##eb8a7c6af401b
##e9ef5ba07
##a32b7380147f9
##293b7ceb9
##858408483
##c4d3766c079c4ce3
##5d0f0d38
##b50baa241a137b
##18071bb8f084729
##63a92dc8
##7e5c27418bd
##e9437a2d1e10a55
##d9ddacff7e3ca1
##7c1e262e53ce
##293e03aa3d
##52cb0ad09ee
##5e59420b029ac5
##db44d837b
##ee887e5c27418bd
##dee570a66
##5e45c431d58f
##e6de4db85859
##e50e55e41dd
##85f1858408483
##1457cccde
##0ce578f630e
##c98b2e4d63306
##9c6e25d13
##3907586c41
##7335ff6bb
##470ba3682
##141a253b279
##6fd8999ad3
##afb1caebc61f4
##ee9711e83dadeb
##e835293b7ceb9
##819a3591297f
##1f42b1cfd5bf59
##49aeb8ad7559c
##70a2f130277e5
##7db89248378a726
##05a0ddf54c4a
##0d16918dfe
##7e565d3bee9e64
##07c7fda9bdb5919
##03f9c1457cccde
##1120642413
##0e3aba32b7380147f9
##dd60ffce4c5
##d396a1014c5a
##82b5597dbd74
##83c7b7df57b34ea
##b3dad122ccf53
##7e3e1eb721b
##c3b664cd67c31e
##5391d44cce
##56b2a7194f5cadf
##4cfcb262423c
##d3d6a4efc8bab
##a3dc3470ba3682
##8d40c52cb0ad09ee
##7e3006b3ec8f
##25cb96086ee
##5e406d396a1014c5a
##1187f161c9e
##59c5d131a886
##b37c599bd310764
##4f8ad107a6312
##7b47a8805565fc7
##eccff05a0ddf54c4a
##aa28d74994484d
##73f5a5b3b9
##ea3df003f1b
##c74ed462200a79ff
##2eadf0e36a3
##8ad5b2dc3560d
##d3621156542b422
##d6c5541c331811
##6b1e17c1e262e53ce
##6b23d042a99b776c48
##fe42a4f8ad107a6312
##fb1032b7d5b13
##f12fd7852709f213
##7b94eeb8a7c6af401b
##540542f8d819ad406
##ad83bf2869a
##c6fbade6a9885
##9411f49482b19
##77ea626faa15
##4c34a2e860eb801
##206c469296d00
##b9b4ece1163d7f14
##86e3c4de65
##297d10d16918dfe
##db11e7e3e1eb721b
##756d743907586c41
##b39a1aee887e5c27418bd
##e87f0f73f5a5b3b9
##a185802e25b5
##a8ba807c7fda9bdb5919
##86d291dd60ffce4c5
##dffc83ddfb7bc16
##190f31e800000000
##4d2406769806e9e
##c8e848a8ba807c7fda9bdb5919
##ed3a04b9b4ece1163d7f14
##1826724eaf46e
##266f59b50baa241a137b
##7d19b0c141a253b279
##ec6f1164188cf
##2aee4a5e45c431d58f
##ae88017796409
##d44200ea3df003f1b
##7cd46245f99245e
##c3b4e3221d00081
##9845453e835293b7ceb9
##0da81e5e406d396a1014c5a
##79cafb0acf6c4b9
##65ea3b59c5d131a886
##08206b030820498a003020102020a
##a306e0603551d1f046730653063a061a05f862d687474703a2f2f63726c2e74616d757a2e676f762e696c2f7075626c69632f54616d757a52636147322e63726c862e687474703a2f2f63726c322e
##0e5352a18071bb8f084729
##0601f08364c7af8
##e10c94429d9f8d4f
##ae428ca8ad5b2dc3560d
##b543d00ec460f968f3803ed8f450967d6c99d969300b0603551d0f040403020186301006092b06010401823715010403020100301906092b0601040182371402040c1e0a00530075006200430041301f0603551d23041830168014be5407c26b9c7dd9f83943b8a0f6974d4499a03
##fe69dc85391d44cce
##f833f2d09936383
##082018630120603551d130101ff040830060101ff020101301d0603551d0e04160414
##636572300d06092a864886f70d01010b0500038202010058a69
##862e687474703a2f2f63726c322e74616d757a2e676f762e696c2f7075626c69632f54616d757a52636147322e636572300d06092a864886f70d01010b0500038202010058a69
##74616d757a2e676f762e696c2f7075626c69632f54616d757a52636147322e63726c30818506082b0601050507010104793077303906082b06010505073001862d687474703a2f2f63726c2e74616d757a2e676f762e696c2f7075626c69632f54616d757a52636147322e
##7ad4438d40c52cb0ad09ee
##764167e83c7b7df57b34ea
##0ce22d34b2bda100
##23833375a170d3238303
##fdd70984ca5e6c04ca
##adf44e2ef3886b43935
##636572303a06082b06010505073001862e687474703a2f2f63726c322e74616d757a2e676f762e696c2f7075626c69632f54616d757a52636147322e636572300d06092a864886f70d01010b0500038202010058a69
##b89d5cb3e50e55e41dd
##c14b28e9437a2d1e10a55
##a07459afb1caebc61f4
##0790977d9ddacff7e3ca1
##929cafe86d291dd60ffce4c5
##97d8d629a3dc3470ba3682
##29578afee9711e83dadeb
##d8365929ec6f1164188cf
##4f522baa28d74994484d
##9e186274e87f0f73f5a5b3b9
##9e169e336fd8999ad3
##b06596fa07459afb1caebc61f4
##232303039323833375a170d3238303
##232303039333833375a304a310b300906035504061302494c311d301b060355040a1314476f7665726e6d656e74206f662049737261656c311c301a0603550403131354414d555a2d4465766963657320434120473230820222300d06092a864886f70d01010105000382020f003082020a0282020100
##6252d24a185802e25b5
##cf5e207227335ff6bb
##0003300d06092a864886f70d01010b05003056310b300906035504061302494c311d301b060355040a1314476f7665726e6d656e74206f662049737261656c312830260603550403131f476f7665726e6d656e74206f662049737261656c20526f6f74204341204732301e170d3133303232303039323833375a170d3238303
##5135816070790977d9ddacff7e3ca1
##e21902db44d837b
##164ec917e3006b3ec8f
##7af8283363c1275
##78b098f3540542f8d819ad406
##c595d3f8ca89bc0ce22d34b2bda100
##d3ef170473d3d6a4efc8bab
##086664d15a0c332eadf0e36a3
##ba8f85f95e6de4db85859
##78d5a989c6e25d13
##ff92e16c87cc4179acff3e55
##5a784a96d929cafe86d291dd60ffce4c5
##0cdc4dd49aeb8ad7559c
##8f9639a9b3dad122ccf53
##6697d1c84cfcb262423c
##8da73ecf6e7a6304aaf27f50b
##10f4b244b39a1aee887e5c27418bd
##bda494ccaecebb56111d8a
##64e5b060cdc4dd49aeb8ad7559c
##6d97e60c11c92ba4100
##1a919f2c81086664d15a0c332eadf0e36a3
##8b889f86b25cb96086ee
##8e84242da166d6076ff
##fdc08a4f64e5b060cdc4dd49aeb8ad7559c
##b970203010001a382018a3082018630120603551d130101ff040830060101ff020101301d0603551d0e04160414
##0469a5a3ba8f85f95e6de4db85859
##ca55055598ae88017796409
##4806812027e565d3bee9e64
##ce1d6d23301ae428ca8ad5b2dc3560d
##772b85a06b89d5cb3e50e55e41dd
##0b19666729578afee9711e83dadeb
##08b9653165a1e35eb02455465b
##0d1d4abd164ec917e3006b3ec8f
##ef562b9278a9089dd124
##ff9fa37fbda494ccaecebb56111d8a
##984a8972b8b889f86b25cb96086ee
##0685a040cca55055598ae88017796409
##8f796b7ea997ad4438d40c52cb0ad09ee
##0e6e4b8a10f4b244b39a1aee887e5c27418bd
##7d98565ae1187f161c9e
##112b3422fdd70984ca5e6c04ca
##246a6cc240a0e5352a18071bb8f084729
##ea6b041d2b4d66819a3591297f
##297128f19f7e855c14b28e9437a2d1e10a55
##ee4d8f32f065fc74ed462200a79ff
##56c368b4e9ef5ba07
##d3564558d94cce1d6d23301ae428ca8ad5b2dc3560d
##c4d3766c079c4ce37b47a8805565fc7
##5d0f0d389845453e835293b7ceb9
##63a92dc8d3564558d94cce1d6d23301ae428ca8ad5b2dc3560d
##293e03aa3dd3ef170473d3d6a4efc8bab
##5e59420b029ac51f42b1cfd5bf59
##dee570a661a919f2c81086664d15a0c332eadf0e36a3
##85f18584084837db89248378a726
##0ce578f630e5135816070790977d9ddacff7e3ca1
##c98b2e4d63306b970203010001a382018a3082018630120603551d130101ff040830060101ff020101301d0603551d0e04160414
##70a2f130277e58da73ecf6e7a6304aaf27f50b
##03f9c1457cccde756d743907586c41
##1120642413c3b4e3221d00081
##0e3aba32b7380147f903f9c1457cccde756d743907586c41
##82b5597dbd74db11e7e3e1eb721b
##c3b664cd67c31e79cafb0acf6c4b9
##56b2a7194f5cadf2aee4a5e45c431d58f
##b37c599bd31076408b9653165a1e35eb02455465b
##eccff05a0ddf54c4a0685a040cca55055598ae88017796409
##d3621156542b422cf5e207227335ff6bb
##d6c5541c3318117b94eeb8a7c6af401b
##6b1e17c1e262e53ce5e59420b029ac51f42b1cfd5bf59
##6b23d042a99b776c487d19b0c141a253b279
##fe42a4f8ad107a63127cd46245f99245e
##fb1032b7d5b13c4d3766c079c4ce37b47a8805565fc7
##f12fd7852709f213e21902db44d837b
##ad83bf2869a7af8283363c1275
##c6fbade6a9885fb1032b7d5b13c4d3766c079c4ce37b47a8805565fc7
##9411f49482b19ff9fa37fbda494ccaecebb56111d8a
##77ea626faa15fe42a4f8ad107a63127cd46245f99245e
##4c34a2e860eb8010601f08364c7af8
##206c469296d00f833f2d09936383
##297d10d16918dfe0e3aba32b7380147f903f9c1457cccde756d743907586c41
##dffc83ddfb7bc16ad83bf2869a7af8283363c1275
##190f31e8000000000003300d06092a864886f70d01010b05003056310b300906035504061302494c311d301b060355040a1314476f7665726e6d656e74206f662049737261656c312830260603550403131f476f7665726e6d656e74206f662049737261656c20526f6f74204341204732301e170d3133303232303039323833375a170d3238303
##4d2406769806e9e4806812027e565d3bee9e64
##c8e848a8ba807c7fda9bdb591982b5597dbd74db11e7e3e1eb721b
##ed3a04b9b4ece1163d7f14e10c94429d9f8d4f
##1826724eaf46e9411f49482b19ff9fa37fbda494ccaecebb56111d8a
##266f59b50baa241a137bea6b041d2b4d66819a3591297f
##d44200ea3df003f1b8e84242da166d6076ff
##0da81e5e406d396a1014c5ac3b664cd67c31e79cafb0acf6c4b9
##65ea3b59c5d131a88697d8d629a3dc3470ba3682
##08206b030820498a003020102020a190f31e8000000000003300d06092a864886f70d01010b05003056310b300906035504061302494c311d301b060355040a1314476f7665726e6d656e74206f662049737261656c312830260603550403131f476f7665726e6d656e74206f662049737261656c20526f6f74204341204732301e170d3133303232303039323833375a170d3238303
##a306e0603551d1f046730653063a061a05f862d687474703a2f2f63726c2e74616d757a2e676f762e696c2f7075626c69632f54616d757a52636147322e63726c862e687474703a2f2f63726c322e74616d757a2e676f762e696c2f7075626c69632f54616d757a52636147322e63726c30818506082b0601050507010104793077303906082b06010505073001862d687474703a2f2f63726c2e74616d757a2e676f762e696c2f7075626c69632f54616d757a52636147322e
##b543d00ec460f968f3803ed8f450967d6c99d969300b0603551d0f040403020186301006092b06010401823715010403020100301906092b0601040182371402040c1e0a00530075006200430041301f0603551d23041830168014be5407c26b9c7dd9f83943b8a0f6974d4499a03a306e0603551d1f046730653063a061a05f862d687474703a2f2f63726c2e74616d757a2e676f762e696c2f7075626c69632f54616d757a52636147322e63726c862e687474703a2f2f63726c322e74616d757a2e676f762e696c2f7075626c69632f54616d757a52636147322e63726c30818506082b0601050507010104793077303906082b06010505073001862d687474703a2f2f63726c2e74616d757a2e676f762e696c2f7075626c69632f54616d757a52636147322e
##fe69dc85391d44cce8f9639a9b3dad122ccf53
##764167e83c7b7df57b34ea112b3422fdd70984ca5e6c04ca
##adf44e2ef3886b4393577ea626faa15fe42a4f8ad107a63127cd46245f99245e
##636572303a06082b06010505073001862e687474703a2f2f63726c322e74616d757a2e676f762e696c2f7075626c69632f54616d757a52636147322e636572300d06092a864886f70d01010b0500038202010058a690d1d4abd164ec917e3006b3ec8f
##d8365929ec6f1164188cf6697d1c84cfcb262423c
##4f522baa28d74994484dc595d3f8ca89bc0ce22d34b2bda100
##9e186274e87f0f73f5a5b3b9266f59b50baa241a137bea6b041d2b4d66819a3591297f
##9e169e336fd8999ad3d6c5541c3318117b94eeb8a7c6af401b
##b06596fa07459afb1caebc61f478b098f3540542f8d819ad406
##232303039333833375a304a310b300906035504061302494c311d301b060355040a1314476f7665726e6d656e74206f662049737261656c311c301a0603550403131354414d555a2d4465766963657320434120473230820222300d06092a864886f70d01010105000382020f003082020a0282020100c8e848a8ba807c7fda9bdb591982b5597dbd74db11e7e3e1eb721b
##6252d24a185802e25b5c6fbade6a9885fb1032b7d5b13c4d3766c079c4ce37b47a8805565fc7
##78d5a989c6e25d13b06596fa07459afb1caebc61f478b098f3540542f8d819ad406
##ff92e16c87cc4179acff3e550b19666729578afee9711e83dadeb
##5a784a96d929cafe86d291dd60ffce4c57d98565ae1187f161c9e
##6d97e60c11c92ba4100f12fd7852709f213e21902db44d837b
##fdc08a4f64e5b060cdc4dd49aeb8ad7559c63a92dc8d3564558d94cce1d6d23301ae428ca8ad5b2dc3560d
##0469a5a3ba8f85f95e6de4db858594c34a2e860eb8010601f08364c7af8
##772b85a06b89d5cb3e50e55e41dd293e03aa3dd3ef170473d3d6a4efc8bab
##ef562b9278a9089dd124eccff05a0ddf54c4a0685a040cca55055598ae88017796409
##984a8972b8b889f86b25cb96086ee65ea3b59c5d131a88697d8d629a3dc3470ba3682
##8f796b7ea997ad4438d40c52cb0ad09eed3621156542b422cf5e207227335ff6bb
##0e6e4b8a10f4b244b39a1aee887e5c27418bdc98b2e4d63306b970203010001a382018a3082018630120603551d130101ff040830060101ff020101301d0603551d0e04160414
##246a6cc240a0e5352a18071bb8f084729fe69dc85391d44cce8f9639a9b3dad122ccf53
##297128f19f7e855c14b28e9437a2d1e10a55d44200ea3df003f1b8e84242da166d6076ff
##ee4d8f32f065fc74ed462200a79ff56b2a7194f5cadf2aee4a5e45c431d58f
##56c368b4e9ef5ba07dee570a661a919f2c81086664d15a0c332eadf0e36a3
##5d0f0d389845453e835293b7ceb978d5a989c6e25d13b06596fa07459afb1caebc61f478b098f3540542f8d819ad406
##85f18584084837db89248378a726ff92e16c87cc4179acff3e550b19666729578afee9711e83dadeb
##0ce578f630e5135816070790977d9ddacff7e3ca186e3c4de65
##70a2f130277e58da73ecf6e7a6304aaf27f50bd8365929ec6f1164188cf6697d1c84cfcb262423c
##1120642413c3b4e3221d000814d2406769806e9e4806812027e565d3bee9e64
##b37c599bd31076408b9653165a1e35eb02455465b297d10d16918dfe0e3aba32b7380147f903f9c1457cccde756d743907586c41
##6b1e17c1e262e53ce5e59420b029ac51f42b1cfd5bf59ee4d8f32f065fc74ed462200a79ff56b2a7194f5cadf2aee4a5e45c431d58f
##6b23d042a99b776c487d19b0c141a253b2795d0f0d389845453e835293b7ceb978d5a989c6e25d13b06596fa07459afb1caebc61f478b098f3540542f8d819ad406
##206c469296d00f833f2d099363830da81e5e406d396a1014c5ac3b664cd67c31e79cafb0acf6c4b9
##dffc83ddfb7bc16ad83bf2869a7af8283363c12759e169e336fd8999ad3d6c5541c3318117b94eeb8a7c6af401b
##ed3a04b9b4ece1163d7f14e10c94429d9f8d4f984a8972b8b889f86b25cb96086ee65ea3b59c5d131a88697d8d629a3dc3470ba3682
##1826724eaf46e9411f49482b19ff9fa37fbda494ccaecebb56111d8a6b23d042a99b776c487d19b0c141a253b2795d0f0d389845453e835293b7ceb978d5a989c6e25d13b06596fa07459afb1caebc61f478b098f3540542f8d819ad406
##08206b030820498a003020102020a190f31e8000000000003300d06092a864886f70d01010b05003056310b300906035504061302494c311d301b060355040a1314476f7665726e6d656e74206f662049737261656c312830260603550403131f476f7665726e6d656e74206f662049737261656c20526f6f74204341204732301e170d3133303232303039323833375a170d3238303232303039333833375a304a310b300906035504061302494c311d301b060355040a1314476f7665726e6d656e74206f662049737261656c311c301a0603550403131354414d555a2d4465766963657320434120473230820222300d06092a864886f70d01010105000382020f003082020a0282020100c8e848a8ba807c7fda9bdb591982b5597dbd74db11e7e3e1eb721b
##b543d00ec460f968f3803ed8f450967d6c99d969300b0603551d0f040403020186301006092b06010401823715010403020100301906092b0601040182371402040c1e0a00530075006200430041301f0603551d23041830168014be5407c26b9c7dd9f83943b8a0f6974d4499a03a306e0603551d1f046730653063a061a05f862d687474703a2f2f63726c2e74616d757a2e676f762e696c2f7075626c69632f54616d757a52636147322e63726c862e687474703a2f2f63726c322e74616d757a2e676f762e696c2f7075626c69632f54616d757a52636147322e63726c30818506082b0601050507010104793077303906082b06010505073001862d687474703a2f2f63726c2e74616d757a2e676f762e696c2f7075626c69632f54616d757a52636147322e636572303a06082b06010505073001862e687474703a2f2f63726c322e74616d757a2e676f762e696c2f7075626c69632f54616d757a52636147322e636572300d06092a864886f70d01010b0500038202010058a690d1d4abd164ec917e3006b3ec8f
##764167e83c7b7df57b34ea112b3422fdd70984ca5e6c04ca9e186274e87f0f73f5a5b3b9266f59b50baa241a137bea6b041d2b4d66819a3591297f
##adf44e2ef3886b4393577ea626faa15fe42a4f8ad107a63127cd46245f99245e1120642413c3b4e3221d000814d2406769806e9e4806812027e565d3bee9e64
##4f522baa28d74994484dc595d3f8ca89bc0ce22d34b2bda10056c368b4e9ef5ba07dee570a661a919f2c81086664d15a0c332eadf0e36a3
##6252d24a185802e25b5c6fbade6a9885fb1032b7d5b13c4d3766c079c4ce37b47a8805565fc7ef562b9278a9089dd124eccff05a0ddf54c4a0685a040cca55055598ae88017796409
##5a784a96d929cafe86d291dd60ffce4c57d98565ae1187f161c9e206c469296d00f833f2d099363830da81e5e406d396a1014c5ac3b664cd67c31e79cafb0acf6c4b9
##6d97e60c11c92ba4100f12fd7852709f213e21902db44d837b5a784a96d929cafe86d291dd60ffce4c57d98565ae1187f161c9e206c469296d00f833f2d099363830da81e5e406d396a1014c5ac3b664cd67c31e79cafb0acf6c4b9
##fdc08a4f64e5b060cdc4dd49aeb8ad7559c63a92dc8d3564558d94cce1d6d23301ae428ca8ad5b2dc3560dadf44e2ef3886b4393577ea626faa15fe42a4f8ad107a63127cd46245f99245e1120642413c3b4e3221d000814d2406769806e9e4806812027e565d3bee9e64
##0469a5a3ba8f85f95e6de4db858594c34a2e860eb8010601f08364c7af8b37c599bd31076408b9653165a1e35eb02455465b297d10d16918dfe0e3aba32b7380147f903f9c1457cccde756d743907586c41
##772b85a06b89d5cb3e50e55e41dd293e03aa3dd3ef170473d3d6a4efc8bab8f796b7ea997ad4438d40c52cb0ad09eed3621156542b422cf5e207227335ff6bb
##0e6e4b8a10f4b244b39a1aee887e5c27418bdc98b2e4d63306b970203010001a382018a3082018630120603551d130101ff040830060101ff020101301d0603551d0e04160414b543d00ec460f968f3803ed8f450967d6c99d969300b0603551d0f040403020186301006092b06010401823715010403020100301906092b0601040182371402040c1e0a00530075006200430041301f0603551d23041830168014be5407c26b9c7dd9f83943b8a0f6974d4499a03a306e0603551d1f046730653063a061a05f862d687474703a2f2f63726c2e74616d757a2e676f762e696c2f7075626c69632f54616d757a52636147322e63726c862e687474703a2f2f63726c322e74616d757a2e676f762e696c2f7075626c69632f54616d757a52636147322e63726c30818506082b0601050507010104793077303906082b06010505073001862d687474703a2f2f63726c2e74616d757a2e676f762e696c2f7075626c69632f54616d757a52636147322e636572303a06082b06010505073001862e687474703a2f2f63726c322e74616d757a2e676f762e696c2f7075626c69632f54616d757a52636147322e636572300d06092a864886f70d01010b0500038202010058a690d1d4abd164ec917e3006b3ec8f
##246a6cc240a0e5352a18071bb8f084729fe69dc85391d44cce8f9639a9b3dad122ccf530e6e4b8a10f4b244b39a1aee887e5c27418bdc98b2e4d63306b970203010001a382018a3082018630120603551d130101ff040830060101ff020101301d0603551d0e04160414b543d00ec460f968f3803ed8f450967d6c99d969300b0603551d0f040403020186301006092b06010401823715010403020100301906092b0601040182371402040c1e0a00530075006200430041301f0603551d23041830168014be5407c26b9c7dd9f83943b8a0f6974d4499a03a306e0603551d1f046730653063a061a05f862d687474703a2f2f63726c2e74616d757a2e676f762e696c2f7075626c69632f54616d757a52636147322e63726c862e687474703a2f2f63726c322e74616d757a2e676f762e696c2f7075626c69632f54616d757a52636147322e63726c30818506082b0601050507010104793077303906082b06010505073001862d687474703a2f2f63726c2e74616d757a2e676f762e696c2f7075626c69632f54616d757a52636147322e636572303a06082b06010505073001862e687474703a2f2f63726c322e74616d757a2e676f762e696c2f7075626c69632f54616d757a52636147322e636572300d06092a864886f70d01010b0500038202010058a690d1d4abd164ec917e3006b3ec8f
##297128f19f7e855c14b28e9437a2d1e10a55d44200ea3df003f1b8e84242da166d6076ff1826724eaf46e9411f49482b19ff9fa37fbda494ccaecebb56111d8a6b23d042a99b776c487d19b0c141a253b2795d0f0d389845453e835293b7ceb978d5a989c6e25d13b06596fa07459afb1caebc61f478b098f3540542f8d819ad406
##85f18584084837db89248378a726ff92e16c87cc4179acff3e550b19666729578afee9711e83dadeb246a6cc240a0e5352a18071bb8f084729fe69dc85391d44cce8f9639a9b3dad122ccf530e6e4b8a10f4b244b39a1aee887e5c27418bdc98b2e4d63306b970203010001a382018a3082018630120603551d130101ff040830060101ff020101301d0603551d0e04160414b543d00ec460f968f3803ed8f450967d6c99d969300b0603551d0f040403020186301006092b06010401823715010403020100301906092b0601040182371402040c1e0a00530075006200430041301f0603551d23041830168014be5407c26b9c7dd9f83943b8a0f6974d4499a03a306e0603551d1f046730653063a061a05f862d687474703a2f2f63726c2e74616d757a2e676f762e696c2f7075626c69632f54616d757a52636147322e63726c862e687474703a2f2f63726c322e74616d757a2e676f762e696c2f7075626c69632f54616d757a52636147322e63726c30818506082b0601050507010104793077303906082b06010505073001862d687474703a2f2f63726c2e74616d757a2e676f762e696c2f7075626c69632f54616d757a52636147322e636572303a06082b06010505073001862e687474703a2f2f63726c322e74616d757a2e676f762e696c2f7075626c69632f54616d757a52636147322e636572300d06092a864886f70d01010b0500038202010058a690d1d4abd164ec917e3006b3ec8f
##70a2f130277e58da73ecf6e7a6304aaf27f50bd8365929ec6f1164188cf6697d1c84cfcb262423c0ce578f630e5135816070790977d9ddacff7e3ca186e3c4de65
##6b1e17c1e262e53ce5e59420b029ac51f42b1cfd5bf59ee4d8f32f065fc74ed462200a79ff56b2a7194f5cadf2aee4a5e45c431d58f0469a5a3ba8f85f95e6de4db858594c34a2e860eb8010601f08364c7af8b37c599bd31076408b9653165a1e35eb02455465b297d10d16918dfe0e3aba32b7380147f903f9c1457cccde756d743907586c41
##dffc83ddfb7bc16ad83bf2869a7af8283363c12759e169e336fd8999ad3d6c5541c3318117b94eeb8a7c6af401b85f18584084837db89248378a726ff92e16c87cc4179acff3e550b19666729578afee9711e83dadeb246a6cc240a0e5352a18071bb8f084729fe69dc85391d44cce8f9639a9b3dad122ccf530e6e4b8a10f4b244b39a1aee887e5c27418bdc98b2e4d63306b970203010001a382018a3082018630120603551d130101ff040830060101ff020101301d0603551d0e04160414b543d00ec460f968f3803ed8f450967d6c99d969300b0603551d0f040403020186301006092b06010401823715010403020100301906092b0601040182371402040c1e0a00530075006200430041301f0603551d23041830168014be5407c26b9c7dd9f83943b8a0f6974d4499a03a306e0603551d1f046730653063a061a05f862d687474703a2f2f63726c2e74616d757a2e676f762e696c2f7075626c69632f54616d757a52636147322e63726c862e687474703a2f2f63726c322e74616d757a2e676f762e696c2f7075626c69632f54616d757a52636147322e63726c30818506082b0601050507010104793077303906082b06010505073001862d687474703a2f2f63726c2e74616d757a2e676f762e696c2f7075626c69632f54616d757a52636147322e636572303a06082b06010505073001862e687474703a2f2f63726c322e74616d757a2e676f762e696c2f7075626c69632f54616d757a52636147322e636572300d06092a864886f70d01010b0500038202010058a690d1d4abd164ec917e3006b3ec8f
##ed3a04b9b4ece1163d7f14e10c94429d9f8d4f984a8972b8b889f86b25cb96086ee65ea3b59c5d131a88697d8d629a3dc3470ba3682772b85a06b89d5cb3e50e55e41dd293e03aa3dd3ef170473d3d6a4efc8bab8f796b7ea997ad4438d40c52cb0ad09eed3621156542b422cf5e207227335ff6bb
##08206b030820498a003020102020a190f31e8000000000003300d06092a864886f70d01010b05003056310b300906035504061302494c311d301b060355040a1314476f7665726e6d656e74206f662049737261656c312830260603550403131f476f7665726e6d656e74206f662049737261656c20526f6f74204341204732301e170d3133303232303039323833375a170d3238303232303039333833375a304a310b300906035504061302494c311d301b060355040a1314476f7665726e6d656e74206f662049737261656c311c301a0603550403131354414d555a2d4465766963657320434120473230820222300d06092a864886f70d01010105000382020f003082020a0282020100c8e848a8ba807c7fda9bdb591982b5597dbd74db11e7e3e1eb721b297128f19f7e855c14b28e9437a2d1e10a55d44200ea3df003f1b8e84242da166d6076ff1826724eaf46e9411f49482b19ff9fa37fbda494ccaecebb56111d8a6b23d042a99b776c487d19b0c141a253b2795d0f0d389845453e835293b7ceb978d5a989c6e25d13b06596fa07459afb1caebc61f478b098f3540542f8d819ad406
##764167e83c7b7df57b34ea112b3422fdd70984ca5e6c04ca9e186274e87f0f73f5a5b3b9266f59b50baa241a137bea6b041d2b4d66819a3591297f4f522baa28d74994484dc595d3f8ca89bc0ce22d34b2bda10056c368b4e9ef5ba07dee570a661a919f2c81086664d15a0c332eadf0e36a3
##6252d24a185802e25b5c6fbade6a9885fb1032b7d5b13c4d3766c079c4ce37b47a8805565fc7ef562b9278a9089dd124eccff05a0ddf54c4a0685a040cca55055598ae880177964096b1e17c1e262e53ce5e59420b029ac51f42b1cfd5bf59ee4d8f32f065fc74ed462200a79ff56b2a7194f5cadf2aee4a5e45c431d58f0469a5a3ba8f85f95e6de4db858594c34a2e860eb8010601f08364c7af8b37c599bd31076408b9653165a1e35eb02455465b297d10d16918dfe0e3aba32b7380147f903f9c1457cccde756d743907586c41
##6d97e60c11c92ba4100f12fd7852709f213e21902db44d837b5a784a96d929cafe86d291dd60ffce4c57d98565ae1187f161c9e206c469296d00f833f2d099363830da81e5e406d396a1014c5ac3b664cd67c31e79cafb0acf6c4b9fdc08a4f64e5b060cdc4dd49aeb8ad7559c63a92dc8d3564558d94cce1d6d23301ae428ca8ad5b2dc3560dadf44e2ef3886b4393577ea626faa15fe42a4f8ad107a63127cd46245f99245e1120642413c3b4e3221d000814d2406769806e9e4806812027e565d3bee9e64
##dffc83ddfb7bc16ad83bf2869a7af8283363c12759e169e336fd8999ad3d6c5541c3318117b94eeb8a7c6af401b85f18584084837db89248378a726ff92e16c87cc4179acff3e550b19666729578afee9711e83dadeb246a6cc240a0e5352a18071bb8f084729fe69dc85391d44cce8f9639a9b3dad122ccf530e6e4b8a10f4b244b39a1aee887e5c27418bdc98b2e4d63306b970203010001a382018a3082018630120603551d130101ff040830060101ff020101301d0603551d0e04160414b543d00ec460f968f3803ed8f450967d6c99d969300b0603551d0f040403020186301006092b06010401823715010403020100301906092b0601040182371402040c1e0a00530075006200430041301f0603551d23041830168014be5407c26b9c7dd9f83943b8a0f6974d4499a03a306e0603551d1f046730653063a061a05f862d687474703a2f2f63726c2e74616d757a2e676f762e696c2f7075626c69632f54616d757a52636147322e63726c862e687474703a2f2f63726c322e74616d757a2e676f762e696c2f7075626c69632f54616d757a52636147322e63726c30818506082b0601050507010104793077303906082b06010505073001862d687474703a2f2f63726c2e74616d757a2e676f762e696c2f7075626c69632f54616d757a52636147322e636572303a06082b06010505073001862e687474703a2f2f63726c322e74616d757a2e676f762e696c2f7075626c69632f54616d757a52636147322e636572300d06092a864886f70d01010b0500038202010058a690d1d4abd164ec917e3006b3ec8fed3a04b9b4ece1163d7f14e10c94429d9f8d4f984a8972b8b889f86b25cb96086ee65ea3b59c5d131a88697d8d629a3dc3470ba3682772b85a06b89d5cb3e50e55e41dd293e03aa3dd3ef170473d3d6a4efc8bab8f796b7ea997ad4438d40c52cb0ad09eed3621156542b422cf5e207227335ff6bb
##08206b030820498a003020102020a190f31e8000000000003300d06092a864886f70d01010b05003056310b300906035504061302494c311d301b060355040a1314476f7665726e6d656e74206f662049737261656c312830260603550403131f476f7665726e6d656e74206f662049737261656c20526f6f74204341204732301e170d3133303232303039323833375a170d3238303232303039333833375a304a310b300906035504061302494c311d301b060355040a1314476f7665726e6d656e74206f662049737261656c311c301a0603550403131354414d555a2d4465766963657320434120473230820222300d06092a864886f70d01010105000382020f003082020a0282020100c8e848a8ba807c7fda9bdb591982b5597dbd74db11e7e3e1eb721b297128f19f7e855c14b28e9437a2d1e10a55d44200ea3df003f1b8e84242da166d6076ff1826724eaf46e9411f49482b19ff9fa37fbda494ccaecebb56111d8a6b23d042a99b776c487d19b0c141a253b2795d0f0d389845453e835293b7ceb978d5a989c6e25d13b06596fa07459afb1caebc61f478b098f3540542f8d819ad4066252d24a185802e25b5c6fbade6a9885fb1032b7d5b13c4d3766c079c4ce37b47a8805565fc7ef562b9278a9089dd124eccff05a0ddf54c4a0685a040cca55055598ae880177964096b1e17c1e262e53ce5e59420b029ac51f42b1cfd5bf59ee4d8f32f065fc74ed462200a79ff56b2a7194f5cadf2aee4a5e45c431d58f0469a5a3ba8f85f95e6de4db858594c34a2e860eb8010601f08364c7af8b37c599bd31076408b9653165a1e35eb02455465b297d10d16918dfe0e3aba32b7380147f903f9c1457cccde756d743907586c41
##764167e83c7b7df57b34ea112b3422fdd70984ca5e6c04ca9e186274e87f0f73f5a5b3b9266f59b50baa241a137bea6b041d2b4d66819a3591297f4f522baa28d74994484dc595d3f8ca89bc0ce22d34b2bda10056c368b4e9ef5ba07dee570a661a919f2c81086664d15a0c332eadf0e36a36d97e60c11c92ba4100f12fd7852709f213e21902db44d837b5a784a96d929cafe86d291dd60ffce4c57d98565ae1187f161c9e206c469296d00f833f2d099363830da81e5e406d396a1014c5ac3b664cd67c31e79cafb0acf6c4b9fdc08a4f64e5b060cdc4dd49aeb8ad7559c63a92dc8d3564558d94cce1d6d23301ae428ca8ad5b2dc3560dadf44e2ef3886b4393577ea626faa15fe42a4f8ad107a63127cd46245f99245e1120642413c3b4e3221d000814d2406769806e9e4806812027e565d3bee9e64
##dffc83ddfb7bc16ad83bf2869a7af8283363c12759e169e336fd8999ad3d6c5541c3318117b94eeb8a7c6af401b85f18584084837db89248378a726ff92e16c87cc4179acff3e550b19666729578afee9711e83dadeb246a6cc240a0e5352a18071bb8f084729fe69dc85391d44cce8f9639a9b3dad122ccf530e6e4b8a10f4b244b39a1aee887e5c27418bdc98b2e4d63306b970203010001a382018a3082018630120603551d130101ff040830060101ff020101301d0603551d0e04160414b543d00ec460f968f3803ed8f450967d6c99d969300b0603551d0f040403020186301006092b06010401823715010403020100301906092b0601040182371402040c1e0a00530075006200430041301f0603551d23041830168014be5407c26b9c7dd9f83943b8a0f6974d4499a03a306e0603551d1f046730653063a061a05f862d687474703a2f2f63726c2e74616d757a2e676f762e696c2f7075626c69632f54616d757a52636147322e63726c862e687474703a2f2f63726c322e74616d757a2e676f762e696c2f7075626c69632f54616d757a52636147322e63726c30818506082b0601050507010104793077303906082b06010505073001862d687474703a2f2f63726c2e74616d757a2e676f762e696c2f7075626c69632f54616d757a52636147322e636572303a06082b06010505073001862e687474703a2f2f63726c322e74616d757a2e676f762e696c2f7075626c69632f54616d757a52636147322e636572300d06092a864886f70d01010b0500038202010058a690d1d4abd164ec917e3006b3ec8fed3a04b9b4ece1163d7f14e10c94429d9f8d4f984a8972b8b889f86b25cb96086ee65ea3b59c5d131a88697d8d629a3dc3470ba3682772b85a06b89d5cb3e50e55e41dd293e03aa3dd3ef170473d3d6a4efc8bab8f796b7ea997ad4438d40c52cb0ad09eed3621156542b422cf5e207227335ff6bb764167e83c7b7df57b34ea112b3422fdd70984ca5e6c04ca9e186274e87f0f73f5a5b3b9266f59b50baa241a137bea6b041d2b4d66819a3591297f4f522baa28d74994484dc595d3f8ca89bc0ce22d34b2bda10056c368b4e9ef5ba07dee570a661a919f2c81086664d15a0c332eadf0e36a36d97e60c11c92ba4100f12fd7852709f213e21902db44d837b5a784a96d929cafe86d291dd60ffce4c57d98565ae1187f161c9e206c469296d00f833f2d099363830da81e5e406d396a1014c5ac3b664cd67c31e79cafb0acf6c4b9fdc08a4f64e5b060cdc4dd49aeb8ad7559c63a92dc8d3564558d94cce1d6d23301ae428ca8ad5b2dc3560dadf44e2ef3886b4393577ea626faa15fe42a4f8ad107a63127cd46245f99245e1120642413c3b4e3221d000814d2406769806e9e4806812027e565d3bee9e64
##08206b030820498a003020102020a190f31e8000000000003300d06092a864886f70d01010b05003056310b300906035504061302494c311d301b060355040a1314476f7665726e6d656e74206f662049737261656c312830260603550403131f476f7665726e6d656e74206f662049737261656c20526f6f74204341204732301e170d3133303232303039323833375a170d3238303232303039333833375a304a310b300906035504061302494c311d301b060355040a1314476f7665726e6d656e74206f662049737261656c311c301a0603550403131354414d555a2d4465766963657320434120473230820222300d06092a864886f70d01010105000382020f003082020a0282020100c8e848a8ba807c7fda9bdb591982b5597dbd74db11e7e3e1eb721b297128f19f7e855c14b28e9437a2d1e10a55d44200ea3df003f1b8e84242da166d6076ff1826724eaf46e9411f49482b19ff9fa37fbda494ccaecebb56111d8a6b23d042a99b776c487d19b0c141a253b2795d0f0d389845453e835293b7ceb978d5a989c6e25d13b06596fa07459afb1caebc61f478b098f3540542f8d819ad4066252d24a185802e25b5c6fbade6a9885fb1032b7d5b13c4d3766c079c4ce37b47a8805565fc7ef562b9278a9089dd124eccff05a0ddf54c4a0685a040cca55055598ae880177964096b1e17c1e262e53ce5e59420b029ac51f42b1cfd5bf59ee4d8f32f065fc74ed462200a79ff56b2a7194f5cadf2aee4a5e45c431d58f0469a5a3ba8f85f95e6de4db858594c34a2e860eb8010601f08364c7af8b37c599bd31076408b9653165a1e35eb02455465b297d10d16918dfe0e3aba32b7380147f903f9c1457cccde756d743907586c41dffc83ddfb7bc16ad83bf2869a7af8283363c12759e169e336fd8999ad3d6c5541c3318117b94eeb8a7c6af401b85f18584084837db89248378a726ff92e16c87cc4179acff3e550b19666729578afee9711e83dadeb246a6cc240a0e5352a18071bb8f084729fe69dc85391d44cce8f9639a9b3dad122ccf530e6e4b8a10f4b244b39a1aee887e5c27418bdc98b2e4d63306b970203010001a382018a3082018630120603551d130101ff040830060101ff020101301d0603551d0e04160414b543d00ec460f968f3803ed8f450967d6c99d969300b0603551d0f040403020186301006092b06010401823715010403020100301906092b0601040182371402040c1e0a00530075006200430041301f0603551d23041830168014be5407c26b9c7dd9f83943b8a0f6974d4499a03a306e0603551d1f046730653063a061a05f862d687474703a2f2f63726c2e74616d757a2e676f762e696c2f7075626c69632f54616d757a52636147322e63726c862e687474703a2f2f63726c322e74616d757a2e676f762e696c2f7075626c69632f54616d757a52636147322e63726c30818506082b0601050507010104793077303906082b06010505073001862d687474703a2f2f63726c2e74616d757a2e676f762e696c2f7075626c69632f54616d757a52636147322e636572303a06082b06010505073001862e687474703a2f2f63726c322e74616d757a2e676f762e696c2f7075626c69632f54616d757a52636147322e636572300d06092a864886f70d01010b0500038202010058a690d1d4abd164ec917e3006b3ec8fed3a04b9b4ece1163d7f14e10c94429d9f8d4f984a8972b8b889f86b25cb96086ee65ea3b59c5d131a88697d8d629a3dc3470ba3682772b85a06b89d5cb3e50e55e41dd293e03aa3dd3ef170473d3d6a4efc8bab8f796b7ea997ad4438d40c52cb0ad09eed3621156542b422cf5e207227335ff6bb764167e83c7b7df57b34ea112b3422fdd70984ca5e6c04ca9e186274e87f0f73f5a5b3b9266f59b50baa241a137bea6b041d2b4d66819a3591297f4f522baa28d74994484dc595d3f8ca89bc0ce22d34b2bda10056c368b4e9ef5ba07dee570a661a919f2c81086664d15a0c332eadf0e36a36d97e60c11c92ba4100f12fd7852709f213e21902db44d837b5a784a96d929cafe86d291dd60ffce4c57d98565ae1187f161c9e206c469296d00f833f2d099363830da81e5e406d396a1014c5ac3b664cd67c31e79cafb0acf6c4b9fdc08a4f64e5b060cdc4dd49aeb8ad7559c63a92dc8d3564558d94cce1d6d23301ae428ca8ad5b2dc3560dadf44e2ef3886b4393577ea626faa15fe42a4f8ad107a63127cd46245f99245e1120642413c3b4e3221d000814d2406769806e9e4806812027e565d3bee9e64
##08206b030820498a003020102020a190f31e8000000000003300d06092a864886f70d01010b05003056310b300906035504061302494c311d301b060355040a1314476f7665726e6d656e74206f662049737261656c312830260603550403131f476f7665726e6d656e74206f662049737261656c20526f6f74204341204732301e170d3133303232303039323833375a170d3238303232303039333833375a304a310b300906035504061302494c311d301b060355040a1314476f7665726e6d656e74206f662049737261656c311c301a0603550403131354414d555a2d4465766963657320434120473230820222300d06092a864886f70d01010105000382020f003082020a0282020100c8e848a8ba807c7fda9bdb591982b5597dbd74db11e7e3e1eb721b297128f19f7e855c14b28e9437a2d1e10a55d44200ea3df003f1b8e84242da166d6076ff1826724eaf46e9411f49482b19ff9fa37fbda494ccaecebb56111d8a6b23d042a99b776c487d19b0c141a253b2795d0f0d389845453e835293b7ceb978d5a989c6e25d13b06596fa07459afb1caebc61f478b098f3540542f8d819ad4066252d24a185802e25b5c6fbade6a9885fb1032b7d5b13c4d3766c079c4ce37b47a8805565fc7ef562b9278a9089dd124eccff05a0ddf54c4a0685a040cca55055598ae880177964096b1e17c1e262e53ce5e59420b029ac51f42b1cfd5bf59ee4d8f32f065fc74ed462200a79ff56b2a7194f5cadf2aee4a5e45c431d58f0469a5a3ba8f85f95e6de4db858594c34a2e860eb8010601f08364c7af8b37c599bd31076408b9653165a1e35eb02455465b297d10d16918dfe0e3aba32b7380147f903f9c1457cccde756d743907586c41dffc83ddfb7bc16ad83bf2869a7af8283363c12759e169e336fd8999ad3d6c5541c3318117b94eeb8a7c6af401b85f18584084837db89248378a726ff92e16c87cc4179acff3e550b19666729578afee9711e83dadeb246a6cc240a0e5352a18071bb8f084729fe69dc85391d44cce8f9639a9b3dad122ccf530e6e4b8a10f4b244b39a1aee887e5c27418bdc98b2e4d63306b970203010001a382018a3082018630120603551d130101ff040830060101ff020101301d0603551d0e04160414b543d00ec460f968f3803ed8f450967d6c99d969300b0603551d0f040403020186301006092b06010401823715010403020100301906092b0601040182371402040c1e0a00530075006200430041301f0603551d23041830168014be5407c26b9c7dd9f83943b8a0f6974d4499a03a306e0603551d1f046730653063a061a05f862d687474703a2f2f63726c2e74616d757a2e676f762e696c2f7075626c69632f54616d757a52636147322e63726c862e687474703a2f2f63726c322e74616d757a2e676f762e696c2f7075626c69632f54616d757a52636147322e63726c30818506082b0601050507010104793077303906082b06010505073001862d687474703a2f2f63726c2e74616d757a2e676f762e696c2f7075626c69632f54616d757a52636147322e636572303a06082b06010505073001862e687474703a2f2f63726c322e74616d757a2e676f762e696c2f7075626c69632f54616d757a52636147322e636572300d06092a864886f70d01010b0500038202010058a690d1d4abd164ec917e3006b3ec8fed3a04b9b4ece1163d7f14e10c94429d9f8d4f984a8972b8b889f86b25cb96086ee65ea3b59c5d131a88697d8d629a3dc3470ba3682772b85a06b89d5cb3e50e55e41dd293e03aa3dd3ef170473d3d6a4efc8bab8f796b7ea997ad4438d40c52cb0ad09eed3621156542b422cf5e207227335ff6bb764167e83c7b7df57b34ea112b3422fdd70984ca5e6c04ca9e186274e87f0f73f5a5b3b9266f59b50baa241a137bea6b041d2b4d66819a3591297f4f522baa28d74994484dc595d3f8ca89bc0ce22d34b2bda10056c368b4e9ef5ba07dee570a661a919f2c81086664d15a0c332eadf0e36a36d97e60c11c92ba4100f12fd7852709f213e21902db44d837b5a784a96d929cafe86d291dd60ffce4c57d98565ae1187f161c9e206c469296d00f833f2d099363830da81e5e406d396a1014c5ac3b664cd67c31e79cafb0acf6c4b9fdc08a4f64e5b060cdc4dd49aeb8ad7559c63a92dc8d3564558d94cce1d6d23301ae428ca8ad5b2dc3560dadf44e2ef3886b4393577ea626faa15fe42a4f8ad107a63127cd46245f99245e1120642413c3b4e3221d000814d2406769806e9e4806812027e565d3bee9e6470a2f130277e58da73ecf6e7a6304aaf27f50bd8365929ec6f1164188cf6697d1c84cfcb262423c0ce578f630e5135816070790977d9ddacff7e3ca186e3c4de65
הו
##29b
ou
##קרים
outlines
##9998
205
##קבל
##efb
##28b
##555
944
מעצר
##0bd
##ורים
##6ab
גב
##נג
##4d9
##5499
##cnf
##iv
351
##שונה
##65d
ia
##24a
##om
##e93
104
כח
##0fe
##0333
##25a
hel
04
##בים
126
##9ea
9d
##25e
9e
##55a
לפיכך
##49c
במקרה
##6cb
בן
107
##x9
##יצוע
עליו
##84c
355
##פשרות
x2
##68d
##e06
540
##50a
930
91
##862b
570
##87e
בדרך
##e4a
מצא
##xp
##משלה
##4b3
הקבוע
##eaca
##04144
##hy
##d2a
##bu
##9af
##cs7
##301c
102
adbe
pkcs7
##310f1
##05310f1
##06092a864886f70d010905310f1
##806092a864886f70d010903310b06092a864886f70d010701301c
##806092a864886f70d010903310b06092a864886f70d010701301c06092a864886f70d010905310f1
##מר
##74616d757a2e676f762e696c2f7075626c69632f74616d757a
##bl
אצ
##חית
##hdd
ההחלטה
##רג
##000
##188
##d15
577
##c71
206
##ביר
שהוא
פס
so
un
יותר
112
373
247
הוצא
##9fe
##kk
תשס
##d1c
##5b1
##c72
הרחק
שנקבע
oi
##4544
העניין
367
##יז
340
##da6
c7
בהם
##0925
214
234
##4643
##0731
בלתי
##0726
##6981
##wi
תנאי
##5373
בעלי
##ids
לעניינים
דרכון
##49a3
##989
##2702
##8675
##8355
##7404
##ca9f
##0f7f
##4386
##8586
##ceea
##073f
##6569
##7563
##2f03
##827f
##7a03
##048b
##aa86
##03ab
##ca79
##41eb
##ca06
##cc74
##635f
##7f05
##652b
##052b
##dd41
##0d1f
##09cf
##83036
##046b
##ce6f
##0fef
##84ef
##3195
##7d7b
##dd82
##1595
##0775
##de4b
##0db3
##2dff
##2e7b
##de7c
##994d
266
שיקבע
##0e49
##7a76
##8a2f
##0e59
##21a3
##14d9
##ffeb
##aa1b
##d32e
##720e
##0ae9
##05c9
##8f81
##cba3
##071a
##7508
##צי
##6eeb
##1f2a
##267c
##75ee
##546d
##4dac
##424a
##6e13
##c499
##ce45
##664f
##ac6f
##2b25
##e9ce
##2f23
##7c23
##4d85
##ea63
##127f
##83cd
שעות
##ab76
##6e9c
##2c6d
##784e
##ee43
##87
##662b
##1fbd
##81da
##78ba
##e831
##5f0b
##be89
##0e5c
##bc06
##3151
##78b5
##8bec
##8e43
##4e31
##8c1f
##07be
##d391
##893d
##193e
reh
##010e
##ec5e
##2bae
##adb9
##5d2e
##6e1a
##fbef
##4c45
##06bc
##5e66
##2284
##539b
##2d2c
##ee91
##5859
##5e54
##8e98
##4d71
##d1ce
##d181
##855f
##8fa5
##74c4
##a8ad
##7e62
חוקית
##1c00
kids
##51bc
##jvy
##773a
##64b5
##fd79
##9783
##ec34
##83035
##43b1
##קל
##d516
##5b61
##ux7
##45e4
##utl
##db08
##91c5
##f2eb
##59b6
tag
rct
##רס
##e6f6
##aaat
##ed47
0cc
usg
ved
##949f
##28b6
##ogle
##d3c4f
נוסף
google
##c0c6
##ונית
##4cq
המנוח
##agot
##95d7
##ovot
esrc
##82c44
##fqri
##ccwl
##sprl
##8357a
נטען
##ae37
##de38f
##rkaz
##9qew
##43am
##d3wj
##merkaz
sig2
##og4cq
##tdmk
##qjvk
##qjcnf
##g7ux7
##g7aaat
##mujvy
##yq9qew
u5x9
##tfng
afqjcnf
psagot
##74bce
##hddg7aaat
c7sprl
rehovot
##utltfng
0ccyq9qew
##fqriqjvk
##ccwlmujvy
##43amg7ux7
##d3wjfqriqjvk
##tdmkd3wjfqriqjvk
u5x9hddg7aaat
afqjcnfccwlmujvy
psagotmerkaz
c7sprl43amg7ux7
0ccyq9qewcq
##tdmkd3wjfqriqjvkdw
u5x9hddg7aaatog4cq
afqjcnfccwlmujvytdmkd3wjfqriqjvkdw
c7sprl43amg7ux7utltfng
##41165
##ccc05
##cc5ec
##7f143
##21b2a
##43703
##70c2a
##0ac65
##76415
##65585
##789ca
##8df04
##799ca
##2e0ce
##7926c
##095cf
##48c53
##0e841
##cc605
##2e6ad
##4cf4c
##ea1f3
##6127b
##605ff
##e9d76
##26f4b
##7ad2e
##0d47e
##555ca
##01839
##5e50a
##2ea77
##2542f
##b3b7f
##5938a
##e93c3
##8143f
##25fbb
##77b6e
##12703
##ed37c
##aba31
##25e6a
##7f23f
##b936a
##71e0c
##68e4a
##1a6ab
##0ec6c
##0655a
##c42ea
##c72cf
##2f2be
##ad50b
##8465b
##59c86
##5bfdd
##60b2f
##24a54
##8a84c
##1df46
##61c5b
##29424
##4a2fd
##d9c6f
##5c6ad
##60539
##4f10e
##42207
##3f27a
##5963e
##4d044
##08302706092b060104018237150a041a3018300a06082b06010505070302300a06082b06010505070301300d06092a864886f70d0101
##b8949
##794ce45
##020164020108302706092b060104018237150a041a3018300a06082b06010505070302300a06082b06010505070301300d06092a864886f70d0101
##543d00ec460f968f3803ed8f450967d6c99d969306e0603551d1f046730653063a061a05f862d687474703a2f2f63726c2e74616d757a2e676f762e696c2f7075626c69632f54616d757a44657647322e63726c862e687474703a2f2f63726c322e74616d757a2e676f762e696c2f7075626c69632f54616d757a44657647322e63726c30818506082b0601050507010104793077303906082b06010505073002862d687474703a2f2f63726c2e74616d757a2e676f762e696c2f7075626c69632f54616d757a44657647322e636572303a06082b06010505073002862e687474703a2f2f63726c322e74616d757a2e676f762e696c2f7075626c69632f54616d757a44657647322e636572303c06092b0601040182371507042f302d06252b06010401823715088280812c82fad93881f59532f6f15382acad0a188
##8586cc74
##794ce458586cc74
##020164020108302706092b060104018237150a041a3018300a06082b06010505070302300a06082b06010505070301300d06092a864886f70d01010b05000382
##543d00ec460f968f3803ed8f450967d6c99d969306e0603551d1f046730653063a061a05f862d687474703a2f2f63726c2e74616d757a2e676f762e696c2f7075626c69632f54616d757a44657647322e63726c862e687474703a2f2f63726c322e74616d757a2e676f762e696c2f7075626c69632f54616d757a44657647322e63726c30818506082b0601050507010104793077303906082b06010505073002862d687474703a2f2f63726c2e74616d757a2e676f762e696c2f7075626c69632f54616d757a44657647322e636572303a06082b06010505073002862e687474703a2f2f63726c322e74616d757a2e676f762e696c2f7075626c69632f54616d757a44657647322e636572303c06092b0601040182371507042f302d06252b06010401823715088280812c82fad93881f59532f6f15382acad0a188794ce458586cc74
##543d00ec460f968f3803ed8f450967d6c99d969306e0603551d1f046730653063a061a05f862d687474703a2f2f63726c2e74616d757a2e676f762e696c2f7075626c69632f54616d757a44657647322e63726c862e687474703a2f2f63726c322e74616d757a2e676f762e696c2f7075626c69632f54616d757a44657647322e63726c30818506082b0601050507010104793077303906082b06010505073002862d687474703a2f2f63726c2e74616d757a2e676f762e696c2f7075626c69632f54616d757a44657647322e636572303a06082b06010505073002862e687474703a2f2f63726c322e74616d757a2e676f762e696c2f7075626c69632f54616d757a44657647322e636572303c06092b0601040182371507042f302d06252b06010401823715088280812c82fad93881f59532f6f15382acad0a188794ce458586cc74020164020108302706092b060104018237150a041a3018300a06082b06010505070302300a06082b06010505070301300d06092a864886f70d01010b05000382
##fdda8
##f7dbb
##0414445
##59143b
##e069f
##7a4de1
##785373
##6c073f
##2c6f15
##8aa72
##703244
##e9df6
##8bf8ca
##a06295
##0ae9ff
##1b539b
##6bd7cd
##73e68d
##87e639
##d2af0f
##49a3ee
##270251
##ceeacc
##267c61
##78b577
##ec51bc
##8d6eeb
##6a862d
##4678ba
##4e6f116
##a94d85
##dee95d7
##adfa8ad
##c8f7b9
##15a25a
##150db6
##8d8fb65
##16643703
##2c369a
##8347ad
##0701623
##8887bb
##0b68531
##49c1f3
##6cbebd
##aa8645f
##8a2fc8f
##aa1bfd
##2f2358f
##784e3d
##8e43e43
##5e6662a
##65a301e
##352e6ad
##9990726
##6e74376
##494c1595
##f3ec5e
##830383035
##605d1ce
##993ccc05
##1f4ffeb
##21b1fbd
##2ba0fef
##2ba546d
##c14cba3
##0492b25
##301d0603551d0e04160414445
##02010038887bb
##424ea63
##de18fa5
##ee96cbebd
##7b42f03
##d6a664f
##f9cdee95d7
##204341204732301e170d313330383036
##53d0c6
##53d4c45
##65a170d313
##4438a84c
##23f41eb
##99b1a5
##625652b
##08a21a3
##c83827f
##96a949f
##137b62d
##cf5e4678ba
##664d3151
##301f0603551d23041830168014b543d00ec460f968f3803ed8f450967d6c99d969306e0603551d1f046730653063a061a05f862d687474703a2f2f63726c2e74616d757a2e676f762e696c2f7075626c69632f54616d757a44657647322e63726c862e687474703a2f2f63726c322e74616d757a2e676f762e696c2f7075626c69632f54616d757a44657647322e63726c30818506082b0601050507010104793077303906082b06010505073002862d687474703a2f2f63726c2e74616d757a2e676f762e696c2f7075626c69632f54616d757a44657647322e636572303a06082b06010505073002862e687474703a2f2f63726c322e74616d757a2e676f762e696c2f7075626c69632f54616d757a44657647322e636572303c06092b0601040182371507042f302d06252b06010401823715088280812c82fad93881f59532f6f15382acad0a188794ce458586cc74020164020108302706092b060104018237150a041a3018300a06082b06010505070302300a06082b06010505070301300d06092a864886f70d01010b05000382
##fbb14d9
##57f74e
##57f474
##c6259b6
##c620b68531
##150dbe89
##70bd9af
##70bd7ad2e
##3133323831365a301e
##3133323831365a170d313
##d9d99b1a5
##2bd7a76
##3303605d1ce
##977aa1bfd
##20a4d71
##153f4d044
##4595e16d00000000072d300d06092a864886f70d01010b0500304a310b300906035504061302494c311d301b060355040a1314476f7665726e6d656e74206f662049737261656c311c301a0603550403131354414d555a2d44657669636573
##156893d
##c137e62
##ead70c2a
##0357508
##00e773a
##843720e
##824048b
##7ebde38f
##6fa994d
##9566bd7cd
##30820122300d06092a864886f70d01010105000382010f003082010a0282010100c72cf
##ede2e0ce
##71c2284
##2ee6569
##e5ae9ce
##577799ca
##98ab25fbb
##998d57f474
##0a42d181
##498e069f
##311c301a06035504030c134d696e69737472795f4f665f4a75737469636530820122300d06092a864886f70d01010105000382010f003082010a0282010100c72cf
##d334a2fd
##29e1f2a
##45c2800
##f5bc0c6
##07d8df04
##239c499
##951aba31
##dd92ba546d
##011375ee
##6015b61
##aac06bc
##70fed47
##6646981
##ecd4643
##a2e011375ee
##49005963e
##7238a2fc8f
##2768e43e43
##2ed4e31
##0203010001a38201cf308201cb300b0603551d0f0404030204b0301d0603551d250416301406082b0601050507030206082b06010505070301301d0603551d0e04160414445
##08205bd308203a5a003020102020a4595e16d00000000072d300d06092a864886f70d01010b0500304a310b300906035504061302494c311d301b060355040a1314476f7665726e6d656e74206f662049737261656c311c301a0603550403131354414d555a2d44657669636573
##02056e13
##29b8f81
##efb08a21a3
##0bdcf5e4678ba
##4d9153f4d044
##5499f5bc0c6
##65d77b6e
##0fe2d2c
##9ea6fa994d
##eaca635f
##d158355
##c71e9d76
##9fe1f4ffeb
##d1c555ca
##5b143b1
##45444f10e
##da621b2a
##0925adb9
##073196a949f
##867565d77b6e
##7404d516
##ca9f9ea6fa994d
##0f7f625652b
##4386c42ea
##75638d6eeb
##7a03db08
##03abe6f6
##ca79785373
##ca06843720e
##7f055f0b
##052bec34
##dd41ca79785373
##0d1f29b8f81
##09cf127f
##046be5ae9ce
##ce6f60539
##84efb936a
##3195ae37
##7d7b82c44
##dd82095cf
##0775dd41ca79785373
##de4b75638d6eeb
##0db3a06295
##2dffd9d99b1a5
##2e7b91c5
##de7c1b539b
##0e49de4b75638d6eeb
##0e590fe2d2c
##d32e5859
##05c9424ea63
##071a951aba31
##4dac1a6ab
##424a78b577
##ac6f4d9153f4d044
##7c23fbef
##83cd12703
##ab76aac06bc
##6e9c0e841
##2c6dbc06
##ee43577799ca
##662b4e6f116
##81da662b4e6f116
##e8317c23fbef
##0e5c5b143b1
##8becfdda8
##8c1f352e6ad
##07be53d4c45
##d39107d8df04
##193e867565d77b6e
##010e0357508
##2bae49005963e
##5d2e498e069f
##6e1a61c5b
##ee91150dbe89
##5e54fbb14d9
##8e9845444f10e
##855f1df46
##74c4703244
##1c0098ab25fbb
##64b58465b
##fd790925adb9
##9783ed37c
##45e40ac65
##f2eb68e4a
##28b6137b62d
##d3c4f8143f
##8357a9fe1f4ffeb
##74bce45e40ac65
##411655bfdd
##cc5ec8becfdda8
##7f14349a3ee
##76415c83827f
##655854386c42ea
##789ca4438a84c
##7926c0db3a06295
##48c5320a4d71
##cc605d158355
##4cf4c5938a
##ea1f30492b25
##6127bf3ec5e
##605ffecd4643
##26f4b7a03db08
##0d47e0701623
##01839e9df6
##5e50ada621b2a
##2ea77c6259b6
##2542fd1c555ca
##b3b7f424a78b577
##e93c3efb08a21a3
##25e6a16643703
##7f23f010e0357508
##71e0c2c6dbc06
##0ec6c00e773a
##0655a7926c0db3a06295
##2f2be2c6f15
##ad50bd9c6f
##59c86b3b7f424a78b577
##60b2f59143b
##24a54ca9f9ea6fa994d
##29424267c61
##5c6ad23f41eb
##422077a4de1
##3f27a7f055f0b
##b8949eaca635f
##f7dbbaa8645f
##6c073f81da662b4e6f116
##8aa720f7f625652b
##8bf8ca5d2e498e069f
##0ae9ff02056e13
##73e68d45c2800
##87e639d32e5859
##d2af0fa2e011375ee
##270251e93c3efb08a21a3
##ceeacc664d3151
##ec51bc2ba0fef
##6a862d03abe6f6
##a94d8526f4b7a03db08
##adfa8ad0ec6c00e773a
##c8f7b9ee91150dbe89
##15a25a0e49de4b75638d6eeb
##150db6dd82095cf
##8d8fb6501839e9df6
##2c369acc605d158355
##8347ad6e9c0e841
##49c1f30d1f29b8f81
##2f2358fd3c4f8143f
##784e3d74c4703244
##5e6662a28b6137b62d
##999072676415c83827f
##6e743766646981
##494c15958aa720f7f625652b
##8303830353133323831365a301e
##993ccc054cf4c5938a
##21b1fbd7ebde38f
##c14cba3ac6f4d9153f4d044
##02010038887bb6e743766646981
##de18fa5d39107d8df04
##ee96cbebd6e1a61c5b
##7b42f03c8f7b9ee91150dbe89
##d6a664f8bf8ca5d2e498e069f
##f9cdee95d7ee43577799ca
##204341204732301e170d3133303830363133323831365a170d313
##53d0c60a42d181
##301f0603551d23041830168014b543d00ec460f968f3803ed8f450967d6c99d969306e0603551d1f046730653063a061a05f862d687474703a2f2f63726c2e74616d757a2e676f762e696c2f7075626c69632f54616d757a44657647322e63726c862e687474703a2f2f63726c322e74616d757a2e676f762e696c2f7075626c69632f54616d757a44657647322e63726c30818506082b0601050507010104793077303906082b06010505073002862d687474703a2f2f63726c2e74616d757a2e676f762e696c2f7075626c69632f54616d757a44657647322e636572303a06082b06010505073002862e687474703a2f2f63726c322e74616d757a2e676f762e696c2f7075626c69632f54616d757a44657647322e636572303c06092b0601040182371507042f302d06252b06010401823715088280812c82fad93881f59532f6f15382acad0a188794ce458586cc74020164020108302706092b060104018237150a041a3018300a06082b06010505070302300a06082b06010505070301300d06092a864886f70d01010b0500038202010038887bb6e743766646981
##57f74e073196a949f
##c620b68531ad50bd9c6f
##70bd9af5e6662a28b6137b62d
##70bd7ad2e53d0c60a42d181
##2bd7a7664b58465b
##3303605d1ce998d57f474
##977aa1bfd5e54fbb14d9
##156893d5499f5bc0c6
##c137e62784e3d74c4703244
##ead70c2a60b2f59143b
##824048b57f74e073196a949f
##9566bd7cd07be53d4c45
##ede2e0ceceeacc664d3151
##71c22840e5c5b143b1
##2ee65693303605d1ce998d57f474
##311c301a06035504030c134d696e69737472795f4f665f4a75737469636530820122300d06092a864886f70d01010105000382010f003082010a0282010100c72cf87e639d32e5859
##d334a2fdce6f60539
##29e1f2aec51bc2ba0fef
##239c499c620b68531ad50bd9c6f
##dd92ba546d2bae49005963e
##6015b610ae9ff02056e13
##70fed47052bec34
##7238a2fc8f7f23f010e0357508
##2768e43e4308206b030820498a003020102020a190f31e8000000000003300d06092a864886f70d01010b05003056310b300906035504061302494c311d301b060355040a1314476f7665726e6d656e74206f662049737261656c312830260603550403131f476f7665726e6d656e74206f662049737261656c20526f6f74204341204732301e170d3133303232303039323833375a170d3238303232303039333833375a304a310b300906035504061302494c311d301b060355040a1314476f7665726e6d656e74206f662049737261656c311c301a0603550403131354414d555a2d4465766963657320434120473230820222300d06092a864886f70d01010105000382020f003082020a0282020100c8e848a8ba807c7fda9bdb591982b5597dbd74db11e7e3e1eb721b297128f19f7e855c14b28e9437a2d1e10a55d44200ea3df003f1b8e84242da166d6076ff1826724eaf46e9411f49482b19ff9fa37fbda494ccaecebb56111d8a6b23d042a99b776c487d19b0c141a253b2795d0f0d389845453e835293b7ceb978d5a989c6e25d13b06596fa07459afb1caebc61f478b098f3540542f8d819ad4066252d24a185802e25b5c6fbade6a9885fb1032b7d5b13c4d3766c079c4ce37b47a8805565fc7ef562b9278a9089dd124eccff05a0ddf54c4a0685a040cca55055598ae880177964096b1e17c1e262e53ce5e59420b029ac51f42b1cfd5bf59ee4d8f32f065fc74ed462200a79ff56b2a7194f5cadf2aee4a5e45c431d58f0469a5a3ba8f85f95e6de4db858594c34a2e860eb8010601f08364c7af8b37c599bd31076408b9653165a1e35eb02455465b297d10d16918dfe0e3aba32b7380147f903f9c1457cccde756d743907586c41dffc83ddfb7bc16ad83bf2869a7af8283363c12759e169e336fd8999ad3d6c5541c3318117b94eeb8a7c6af401b85f18584084837db89248378a726ff92e16c87cc4179acff3e550b19666729578afee9711e83dadeb246a6cc240a0e5352a18071bb8f084729fe69dc85391d44cce8f9639a9b3dad122ccf530e6e4b8a10f4b244b39a1aee887e5c27418bdc98b2e4d63306b970203010001a382018a3082018630120603551d130101ff040830060101ff020101301d0603551d0e04160414b543d00ec460f968f3803ed8f450967d6c99d969300b0603551d0f040403020186301006092b06010401823715010403020100301906092b0601040182371402040c1e0a00530075006200430041301f0603551d23041830168014be5407c26b9c7dd9f83943b8a0f6974d4499a03a306e0603551d1f046730653063a061a05f862d687474703a2f2f63726c2e74616d757a2e676f762e696c2f7075626c69632f54616d757a52636147322e63726c862e687474703a2f2f63726c322e74616d757a2e676f762e696c2f7075626c69632f54616d757a52636147322e63726c30818506082b0601050507010104793077303906082b06010505073001862d687474703a2f2f63726c2e74616d757a2e676f762e696c2f7075626c69632f54616d757a52636147322e636572303a06082b06010505073001862e687474703a2f2f63726c322e74616d757a2e676f762e696c2f7075626c69632f54616d757a52636147322e636572300d06092a864886f70d01010b0500038202010058a690d1d4abd164ec917e3006b3ec8fed3a04b9b4ece1163d7f14e10c94429d9f8d4f984a8972b8b889f86b25cb96086ee65ea3b59c5d131a88697d8d629a3dc3470ba3682772b85a06b89d5cb3e50e55e41dd293e03aa3dd3ef170473d3d6a4efc8bab8f796b7ea997ad4438d40c52cb0ad09eed3621156542b422cf5e207227335ff6bb764167e83c7b7df57b34ea112b3422fdd70984ca5e6c04ca9e186274e87f0f73f5a5b3b9266f59b50baa241a137bea6b041d2b4d66819a3591297f4f522baa28d74994484dc595d3f8ca89bc0ce22d34b2bda10056c368b4e9ef5ba07dee570a661a919f2c81086664d15a0c332eadf0e36a36d97e60c11c92ba4100f12fd7852709f213e21902db44d837b5a784a96d929cafe86d291dd60ffce4c57d98565ae1187f161c9e206c469296d00f833f2d099363830da81e5e406d396a1014c5ac3b664cd67c31e79cafb0acf6c4b9fdc08a4f64e5b060cdc4dd49aeb8ad7559c63a92dc8d3564558d94cce1d6d23301ae428ca8ad5b2dc3560dadf44e2ef3886b4393577ea626faa15fe42a4f8ad107a63127cd46245f99245e1120642413c3b4e3221d000814d2406769806e9e4806812027e565d3bee9e6470a2f130277e58da73ecf6e7a6304aaf27f50bd8365929ec6f1164188cf6697d1c84cfcb262423c0ce578f630e5135816070790977d9ddacff7e3ca186e3c4de65
##2ed4e31b8949eaca635f
##0203010001a38201cf308201cb300b0603551d0f0404030204b0301d0603551d250416301406082b0601050507030206082b06010505070301301d0603551d0e04160414445e8317c23fbef
##08205bd308203a5a003020102020a4595e16d00000000072d300d06092a864886f70d01010b0500304a310b300906035504061302494c311d301b060355040a1314476f7665726e6d656e74206f662049737261656c311c301a0603550403131354414d555a2d44657669636573204341204732301e170d3133303830363133323831365a170d313
##0bdcf5e4678ba655854386c42ea
##c71e9d76d2af0fa2e011375ee
##7404d5162bd7a7664b58465b
##ca06843720e2542fd1c555ca
##09cf127f8e9845444f10e
##046be5ae9ce71e0c2c6dbc06
##84efb936a0e590fe2d2c
##3195ae372e7b91c5
##7d7b82c44150db6dd82095cf
##0775dd41ca797853736c073f81da662b4e6f116
##2dffd9d99b1a5ab76aac06bc
##de7c1b539b05c9424ea63
##071a951aba31f9cdee95d7ee43577799ca
##4dac1a6ab156893d5499f5bc0c6
##83cd12703d334a2fdce6f60539
##8c1f352e6ad4dac1a6ab156893d5499f5bc0c6
##193e867565d77b6e8c1f352e6ad4dac1a6ab156893d5499f5bc0c6
##855f1df4629e1f2aec51bc2ba0fef
##1c0098ab25fbb6a862d03abe6f6
##fd790925adb9adfa8ad0ec6c00e773a
##9783ed37c0775dd41ca797853736c073f81da662b4e6f116
##f2eb68e4a5c6ad23f41eb
##8357a9fe1f4ffeb6015b610ae9ff02056e13
##74bce45e40ac65ede2e0ceceeacc664d3151
##411655bfdd977aa1bfd5e54fbb14d9
##cc5ec8becfdda849c1f30d1f29b8f81
##7f14349a3ee855f1df4629e1f2aec51bc2ba0fef
##789ca4438a84c999072676415c83827f
##48c5320a4d71824048b57f74e073196a949f
##ea1f30492b25fd790925adb9adfa8ad0ec6c00e773a
##6127bf3ec5e5e50ada621b2a
##605ffecd4643a94d8526f4b7a03db08
##0d47e07016232f2be2c6f15
##2ea77c6259b62ed4e31b8949eaca635f
##25e6a166437039566bd7cd07be53d4c45
##0655a7926c0db3a0629509cf127f8e9845444f10e
##59c86b3b7f424a78b57725e6a166437039566bd7cd07be53d4c45
##24a54ca9f9ea6fa994d70bd9af5e6662a28b6137b62d
##29424267c6170bd7ad2e53d0c60a42d181
##422077a4de121b1fbd7ebde38f
##3f27a7f055f0b7238a2fc8f7f23f010e0357508
##f7dbbaa8645fde7c1b539b05c9424ea63
##73e68d45c2800f2eb68e4a5c6ad23f41eb
##270251e93c3efb08a21a3c137e62784e3d74c4703244
##15a25a0e49de4b75638d6eeb8d8fb6501839e9df6
##2c369acc605d1583550655a7926c0db3a0629509cf127f8e9845444f10e
##8347ad6e9c0e841ead70c2a60b2f59143b
##2f2358fd3c4f8143f9783ed37c0775dd41ca797853736c073f81da662b4e6f116
##494c15958aa720f7f625652b6127bf3ec5e5e50ada621b2a
##8303830353133323831365a301e311c301a06035504030c134d696e69737472795f4f665f4a75737469636530820122300d06092a864886f70d01010105000382010f003082010a0282010100c72cf87e639d32e5859
##993ccc054cf4c5938a7b42f03c8f7b9ee91150dbe89
##c14cba3ac6f4d9153f4d044cc5ec8becfdda849c1f30d1f29b8f81
##de18fa5d39107d8df040bdcf5e4678ba655854386c42ea
##ee96cbebd6e1a61c5b0203010001a38201cf308201cb300b0603551d0f0404030204b0301d0603551d250416301406082b0601050507030206082b06010505070301301d0603551d0e04160414445e8317c23fbef
##d6a664f8bf8ca5d2e498e069f301f0603551d23041830168014b543d00ec460f968f3803ed8f450967d6c99d969306e0603551d1f046730653063a061a05f862d687474703a2f2f63726c2e74616d757a2e676f762e696c2f7075626c69632f54616d757a44657647322e63726c862e687474703a2f2f63726c322e74616d757a2e676f762e696c2f7075626c69632f54616d757a44657647322e63726c30818506082b0601050507010104793077303906082b06010505073002862d687474703a2f2f63726c2e74616d757a2e676f762e696c2f7075626c69632f54616d757a44657647322e636572303a06082b06010505073002862e687474703a2f2f63726c322e74616d757a2e676f762e696c2f7075626c69632f54616d757a44657647322e636572303c06092b0601040182371507042f302d06252b06010401823715088280812c82fad93881f59532f6f15382acad0a188794ce458586cc74020164020108302706092b060104018237150a041a3018300a06082b06010505070302300a06082b06010505070301300d06092a864886f70d01010b0500038202010038887bb6e743766646981
##71c22840e5c5b143b115a25a0e49de4b75638d6eeb8d8fb6501839e9df6
##2ee65693303605d1ce998d57f47483cd12703d334a2fdce6f60539
##239c499c620b68531ad50bd9c6fc71e9d76d2af0fa2e011375ee
##dd92ba546d2bae49005963eea1f30492b25fd790925adb9adfa8ad0ec6c00e773a
##70fed47052bec34239c499c620b68531ad50bd9c6fc71e9d76d2af0fa2e011375ee
##08205bd308203a5a003020102020a4595e16d00000000072d300d06092a864886f70d01010b0500304a310b300906035504061302494c311d301b060355040a1314476f7665726e6d656e74206f662049737261656c311c301a0603550403131354414d555a2d44657669636573204341204732301e170d3133303830363133323831365a170d3138303830353133323831365a301e311c301a06035504030c134d696e69737472795f4f665f4a75737469636530820122300d06092a864886f70d01010105000382010f003082010a0282010100c72cf87e639d32e5859
##7404d5162bd7a7664b58465b193e867565d77b6e8c1f352e6ad4dac1a6ab156893d5499f5bc0c6
##ca06843720e2542fd1c555ca789ca4438a84c999072676415c83827f
##046be5ae9ce71e0c2c6dbc062ee65693303605d1ce998d57f47483cd12703d334a2fdce6f60539
##84efb936a0e590fe2d2c2768e43e4308206b030820498a003020102020a190f31e8000000000003300d06092a864886f70d01010b05003056310b300906035504061302494c311d301b060355040a1314476f7665726e6d656e74206f662049737261656c312830260603550403131f476f7665726e6d656e74206f662049737261656c20526f6f74204341204732301e170d3133303232303039323833375a170d3238303232303039333833375a304a310b300906035504061302494c311d301b060355040a1314476f7665726e6d656e74206f662049737261656c311c301a0603550403131354414d555a2d4465766963657320434120473230820222300d06092a864886f70d01010105000382020f003082020a0282020100c8e848a8ba807c7fda9bdb591982b5597dbd74db11e7e3e1eb721b297128f19f7e855c14b28e9437a2d1e10a55d44200ea3df003f1b8e84242da166d6076ff1826724eaf46e9411f49482b19ff9fa37fbda494ccaecebb56111d8a6b23d042a99b776c487d19b0c141a253b2795d0f0d389845453e835293b7ceb978d5a989c6e25d13b06596fa07459afb1caebc61f478b098f3540542f8d819ad4066252d24a185802e25b5c6fbade6a9885fb1032b7d5b13c4d3766c079c4ce37b47a8805565fc7ef562b9278a9089dd124eccff05a0ddf54c4a0685a040cca55055598ae880177964096b1e17c1e262e53ce5e59420b029ac51f42b1cfd5bf59ee4d8f32f065fc74ed462200a79ff56b2a7194f5cadf2aee4a5e45c431d58f0469a5a3ba8f85f95e6de4db858594c34a2e860eb8010601f08364c7af8b37c599bd31076408b9653165a1e35eb02455465b297d10d16918dfe0e3aba32b7380147f903f9c1457cccde756d743907586c41dffc83ddfb7bc16ad83bf2869a7af8283363c12759e169e336fd8999ad3d6c5541c3318117b94eeb8a7c6af401b85f18584084837db89248378a726ff92e16c87cc4179acff3e550b19666729578afee9711e83dadeb246a6cc240a0e5352a18071bb8f084729fe69dc85391d44cce8f9639a9b3dad122ccf530e6e4b8a10f4b244b39a1aee887e5c27418bdc98b2e4d63306b970203010001a382018a3082018630120603551d130101ff040830060101ff020101301d0603551d0e04160414b543d00ec460f968f3803ed8f450967d6c99d969300b0603551d0f040403020186301006092b06010401823715010403020100301906092b0601040182371402040c1e0a00530075006200430041301f0603551d23041830168014be5407c26b9c7dd9f83943b8a0f6974d4499a03a306e0603551d1f046730653063a061a05f862d687474703a2f2f63726c2e74616d757a2e676f762e696c2f7075626c69632f54616d757a52636147322e63726c862e687474703a2f2f63726c322e74616d757a2e676f762e696c2f7075626c69632f54616d757a52636147322e63726c30818506082b0601050507010104793077303906082b06010505073001862d687474703a2f2f63726c2e74616d757a2e676f762e696c2f7075626c69632f54616d757a52636147322e636572303a06082b06010505073001862e687474703a2f2f63726c322e74616d757a2e676f762e696c2f7075626c69632f54616d757a52636147322e636572300d06092a864886f70d01010b0500038202010058a690d1d4abd164ec917e3006b3ec8fed3a04b9b4ece1163d7f14e10c94429d9f8d4f984a8972b8b889f86b25cb96086ee65ea3b59c5d131a88697d8d629a3dc3470ba3682772b85a06b89d5cb3e50e55e41dd293e03aa3dd3ef170473d3d6a4efc8bab8f796b7ea997ad4438d40c52cb0ad09eed3621156542b422cf5e207227335ff6bb764167e83c7b7df57b34ea112b3422fdd70984ca5e6c04ca9e186274e87f0f73f5a5b3b9266f59b50baa241a137bea6b041d2b4d66819a3591297f4f522baa28d74994484dc595d3f8ca89bc0ce22d34b2bda10056c368b4e9ef5ba07dee570a661a919f2c81086664d15a0c332eadf0e36a36d97e60c11c92ba4100f12fd7852709f213e21902db44d837b5a784a96d929cafe86d291dd60ffce4c57d98565ae1187f161c9e206c469296d00f833f2d099363830da81e5e406d396a1014c5ac3b664cd67c31e79cafb0acf6c4b9fdc08a4f64e5b060cdc4dd49aeb8ad7559c63a92dc8d3564558d94cce1d6d23301ae428ca8ad5b2dc3560dadf44e2ef3886b4393577ea626faa15fe42a4f8ad107a63127cd46245f99245e1120642413c3b4e3221d000814d2406769806e9e4806812027e565d3bee9e6470a2f130277e58da73ecf6e7a6304aaf27f50bd8365929ec6f1164188cf6697d1c84cfcb262423c0ce578f630e5135816070790977d9ddacff7e3ca186e3c4de65
##3195ae372e7b91c57d7b82c44150db6dd82095cf
##2dffd9d99b1a5ab76aac06bc0d47e07016232f2be2c6f15
##071a951aba31f9cdee95d7ee43577799ca84efb936a0e590fe2d2c2768e43e4308206b030820498a003020102020a190f31e8000000000003300d06092a864886f70d01010b05003056310b300906035504061302494c311d301b060355040a1314476f7665726e6d656e74206f662049737261656c312830260603550403131f476f7665726e6d656e74206f662049737261656c20526f6f74204341204732301e170d3133303232303039323833375a170d3238303232303039333833375a304a310b300906035504061302494c311d301b060355040a1314476f7665726e6d656e74206f662049737261656c311c301a0603550403131354414d555a2d4465766963657320434120473230820222300d06092a864886f70d01010105000382020f003082020a0282020100c8e848a8ba807c7fda9bdb591982b5597dbd74db11e7e3e1eb721b297128f19f7e855c14b28e9437a2d1e10a55d44200ea3df003f1b8e84242da166d6076ff1826724eaf46e9411f49482b19ff9fa37fbda494ccaecebb56111d8a6b23d042a99b776c487d19b0c141a253b2795d0f0d389845453e835293b7ceb978d5a989c6e25d13b06596fa07459afb1caebc61f478b098f3540542f8d819ad4066252d24a185802e25b5c6fbade6a9885fb1032b7d5b13c4d3766c079c4ce37b47a8805565fc7ef562b9278a9089dd124eccff05a0ddf54c4a0685a040cca55055598ae880177964096b1e17c1e262e53ce5e59420b029ac51f42b1cfd5bf59ee4d8f32f065fc74ed462200a79ff56b2a7194f5cadf2aee4a5e45c431d58f0469a5a3ba8f85f95e6de4db858594c34a2e860eb8010601f08364c7af8b37c599bd31076408b9653165a1e35eb02455465b297d10d16918dfe0e3aba32b7380147f903f9c1457cccde756d743907586c41dffc83ddfb7bc16ad83bf2869a7af8283363c12759e169e336fd8999ad3d6c5541c3318117b94eeb8a7c6af401b85f18584084837db89248378a726ff92e16c87cc4179acff3e550b19666729578afee9711e83dadeb246a6cc240a0e5352a18071bb8f084729fe69dc85391d44cce8f9639a9b3dad122ccf530e6e4b8a10f4b244b39a1aee887e5c27418bdc98b2e4d63306b970203010001a382018a3082018630120603551d130101ff040830060101ff020101301d0603551d0e04160414b543d00ec460f968f3803ed8f450967d6c99d969300b0603551d0f040403020186301006092b06010401823715010403020100301906092b0601040182371402040c1e0a00530075006200430041301f0603551d23041830168014be5407c26b9c7dd9f83943b8a0f6974d4499a03a306e0603551d1f046730653063a061a05f862d687474703a2f2f63726c2e74616d757a2e676f762e696c2f7075626c69632f54616d757a52636147322e63726c862e687474703a2f2f63726c322e74616d757a2e676f762e696c2f7075626c69632f54616d757a52636147322e63726c30818506082b0601050507010104793077303906082b06010505073001862d687474703a2f2f63726c2e74616d757a2e676f762e696c2f7075626c69632f54616d757a52636147322e636572303a06082b06010505073001862e687474703a2f2f63726c322e74616d757a2e676f762e696c2f7075626c69632f54616d757a52636147322e636572300d06092a864886f70d01010b0500038202010058a690d1d4abd164ec917e3006b3ec8fed3a04b9b4ece1163d7f14e10c94429d9f8d4f984a8972b8b889f86b25cb96086ee65ea3b59c5d131a88697d8d629a3dc3470ba3682772b85a06b89d5cb3e50e55e41dd293e03aa3dd3ef170473d3d6a4efc8bab8f796b7ea997ad4438d40c52cb0ad09eed3621156542b422cf5e207227335ff6bb764167e83c7b7df57b34ea112b3422fdd70984ca5e6c04ca9e186274e87f0f73f5a5b3b9266f59b50baa241a137bea6b041d2b4d66819a3591297f4f522baa28d74994484dc595d3f8ca89bc0ce22d34b2bda10056c368b4e9ef5ba07dee570a661a919f2c81086664d15a0c332eadf0e36a36d97e60c11c92ba4100f12fd7852709f213e21902db44d837b5a784a96d929cafe86d291dd60ffce4c57d98565ae1187f161c9e206c469296d00f833f2d099363830da81e5e406d396a1014c5ac3b664cd67c31e79cafb0acf6c4b9fdc08a4f64e5b060cdc4dd49aeb8ad7559c63a92dc8d3564558d94cce1d6d23301ae428ca8ad5b2dc3560dadf44e2ef3886b4393577ea626faa15fe42a4f8ad107a63127cd46245f99245e1120642413c3b4e3221d000814d2406769806e9e4806812027e565d3bee9e6470a2f130277e58da73ecf6e7a6304aaf27f50bd8365929ec6f1164188cf6697d1c84cfcb262423c0ce578f630e5135816070790977d9ddacff7e3ca186e3c4de65
##1c0098ab25fbb6a862d03abe6f6494c15958aa720f7f625652b6127bf3ec5e5e50ada621b2a
##8357a9fe1f4ffeb6015b610ae9ff02056e132dffd9d99b1a5ab76aac06bc0d47e07016232f2be2c6f15
##74bce45e40ac65ede2e0ceceeacc664d3151ca06843720e2542fd1c555ca789ca4438a84c999072676415c83827f
##411655bfdd977aa1bfd5e54fbb14d97f14349a3ee855f1df4629e1f2aec51bc2ba0fef
##48c5320a4d71824048b57f74e073196a949f73e68d45c2800f2eb68e4a5c6ad23f41eb
##605ffecd4643a94d8526f4b7a03db08dd92ba546d2bae49005963eea1f30492b25fd790925adb9adfa8ad0ec6c00e773a
##2ea77c6259b62ed4e31b8949eaca635f3195ae372e7b91c57d7b82c44150db6dd82095cf
##59c86b3b7f424a78b57725e6a166437039566bd7cd07be53d4c45c14cba3ac6f4d9153f4d044cc5ec8becfdda849c1f30d1f29b8f81
##24a54ca9f9ea6fa994d70bd9af5e6662a28b6137b62d605ffecd4643a94d8526f4b7a03db08dd92ba546d2bae49005963eea1f30492b25fd790925adb9adfa8ad0ec6c00e773a
##29424267c6170bd7ad2e53d0c60a42d18171c22840e5c5b143b115a25a0e49de4b75638d6eeb8d8fb6501839e9df6
##422077a4de121b1fbd7ebde38f270251e93c3efb08a21a3c137e62784e3d74c4703244
##3f27a7f055f0b7238a2fc8f7f23f010e035750859c86b3b7f424a78b57725e6a166437039566bd7cd07be53d4c45c14cba3ac6f4d9153f4d044cc5ec8becfdda849c1f30d1f29b8f81
##f7dbbaa8645fde7c1b539b05c9424ea63422077a4de121b1fbd7ebde38f270251e93c3efb08a21a3c137e62784e3d74c4703244
##2c369acc605d1583550655a7926c0db3a0629509cf127f8e9845444f10e74bce45e40ac65ede2e0ceceeacc664d3151ca06843720e2542fd1c555ca789ca4438a84c999072676415c83827f
##8347ad6e9c0e841ead70c2a60b2f59143b411655bfdd977aa1bfd5e54fbb14d97f14349a3ee855f1df4629e1f2aec51bc2ba0fef
##2f2358fd3c4f8143f9783ed37c0775dd41ca797853736c073f81da662b4e6f11670fed47052bec34239c499c620b68531ad50bd9c6fc71e9d76d2af0fa2e011375ee
##993ccc054cf4c5938a7b42f03c8f7b9ee91150dbe897404d5162bd7a7664b58465b193e867565d77b6e8c1f352e6ad4dac1a6ab156893d5499f5bc0c6
##de18fa5d39107d8df040bdcf5e4678ba655854386c42ea2ea77c6259b62ed4e31b8949eaca635f3195ae372e7b91c57d7b82c44150db6dd82095cf
##ee96cbebd6e1a61c5b0203010001a38201cf308201cb300b0603551d0f0404030204b0301d0603551d250416301406082b0601050507030206082b06010505070301301d0603551d0e04160414445e8317c23fbefd6a664f8bf8ca5d2e498e069f301f0603551d23041830168014b543d00ec460f968f3803ed8f450967d6c99d969306e0603551d1f046730653063a061a05f862d687474703a2f2f63726c2e74616d757a2e676f762e696c2f7075626c69632f54616d757a44657647322e63726c862e687474703a2f2f63726c322e74616d757a2e676f762e696c2f7075626c69632f54616d757a44657647322e63726c30818506082b0601050507010104793077303906082b06010505073002862d687474703a2f2f63726c2e74616d757a2e676f762e696c2f7075626c69632f54616d757a44657647322e636572303a06082b06010505073002862e687474703a2f2f63726c322e74616d757a2e676f762e696c2f7075626c69632f54616d757a44657647322e636572303c06092b0601040182371507042f302d06252b06010401823715088280812c82fad93881f59532f6f15382acad0a188794ce458586cc74020164020108302706092b060104018237150a041a3018300a06082b06010505070302300a06082b06010505070301300d06092a864886f70d01010b0500038202010038887bb6e743766646981
##08205bd308203a5a003020102020a4595e16d00000000072d300d06092a864886f70d01010b0500304a310b300906035504061302494c311d301b060355040a1314476f7665726e6d656e74206f662049737261656c311c301a0603550403131354414d555a2d44657669636573204341204732301e170d3133303830363133323831365a170d3138303830353133323831365a301e311c301a06035504030c134d696e69737472795f4f665f4a75737469636530820122300d06092a864886f70d01010105000382010f003082010a0282010100c72cf87e639d32e5859f7dbbaa8645fde7c1b539b05c9424ea63422077a4de121b1fbd7ebde38f270251e93c3efb08a21a3c137e62784e3d74c4703244
##046be5ae9ce71e0c2c6dbc062ee65693303605d1ce998d57f47483cd12703d334a2fdce6f6053924a54ca9f9ea6fa994d70bd9af5e6662a28b6137b62d605ffecd4643a94d8526f4b7a03db08dd92ba546d2bae49005963eea1f30492b25fd790925adb9adfa8ad0ec6c00e773a
##1c0098ab25fbb6a862d03abe6f6494c15958aa720f7f625652b6127bf3ec5e5e50ada621b2aee96cbebd6e1a61c5b0203010001a38201cf308201cb300b0603551d0f0404030204b0301d0603551d250416301406082b0601050507030206082b06010505070301301d0603551d0e04160414445e8317c23fbefd6a664f8bf8ca5d2e498e069f301f0603551d23041830168014b543d00ec460f968f3803ed8f450967d6c99d969306e0603551d1f046730653063a061a05f862d687474703a2f2f63726c2e74616d757a2e676f762e696c2f7075626c69632f54616d757a44657647322e63726c862e687474703a2f2f63726c322e74616d757a2e676f762e696c2f7075626c69632f54616d757a44657647322e63726c30818506082b0601050507010104793077303906082b06010505073002862d687474703a2f2f63726c2e74616d757a2e676f762e696c2f7075626c69632f54616d757a44657647322e636572303a06082b06010505073002862e687474703a2f2f63726c322e74616d757a2e676f762e696c2f7075626c69632f54616d757a44657647322e636572303c06092b0601040182371507042f302d06252b06010401823715088280812c82fad93881f59532f6f15382acad0a188794ce458586cc74020164020108302706092b060104018237150a041a3018300a06082b06010505070302300a06082b06010505070301300d06092a864886f70d01010b0500038202010038887bb6e743766646981
##8357a9fe1f4ffeb6015b610ae9ff02056e132dffd9d99b1a5ab76aac06bc0d47e07016232f2be2c6f1529424267c6170bd7ad2e53d0c60a42d18171c22840e5c5b143b115a25a0e49de4b75638d6eeb8d8fb6501839e9df6
##48c5320a4d71824048b57f74e073196a949f73e68d45c2800f2eb68e4a5c6ad23f41eb071a951aba31f9cdee95d7ee43577799ca84efb936a0e590fe2d2c2768e43e4308206b030820498a003020102020a190f31e8000000000003300d06092a864886f70d01010b05003056310b300906035504061302494c311d301b060355040a1314476f7665726e6d656e74206f662049737261656c312830260603550403131f476f7665726e6d656e74206f662049737261656c20526f6f74204341204732301e170d3133303232303039323833375a170d3238303232303039333833375a304a310b300906035504061302494c311d301b060355040a1314476f7665726e6d656e74206f662049737261656c311c301a0603550403131354414d555a2d4465766963657320434120473230820222300d06092a864886f70d01010105000382020f003082020a0282020100c8e848a8ba807c7fda9bdb591982b5597dbd74db11e7e3e1eb721b297128f19f7e855c14b28e9437a2d1e10a55d44200ea3df003f1b8e84242da166d6076ff1826724eaf46e9411f49482b19ff9fa37fbda494ccaecebb56111d8a6b23d042a99b776c487d19b0c141a253b2795d0f0d389845453e835293b7ceb978d5a989c6e25d13b06596fa07459afb1caebc61f478b098f3540542f8d819ad4066252d24a185802e25b5c6fbade6a9885fb1032b7d5b13c4d3766c079c4ce37b47a8805565fc7ef562b9278a9089dd124eccff05a0ddf54c4a0685a040cca55055598ae880177964096b1e17c1e262e53ce5e59420b029ac51f42b1cfd5bf59ee4d8f32f065fc74ed462200a79ff56b2a7194f5cadf2aee4a5e45c431d58f0469a5a3ba8f85f95e6de4db858594c34a2e860eb8010601f08364c7af8b37c599bd31076408b9653165a1e35eb02455465b297d10d16918dfe0e3aba32b7380147f903f9c1457cccde756d743907586c41dffc83ddfb7bc16ad83bf2869a7af8283363c12759e169e336fd8999ad3d6c5541c3318117b94eeb8a7c6af401b85f18584084837db89248378a726ff92e16c87cc4179acff3e550b19666729578afee9711e83dadeb246a6cc240a0e5352a18071bb8f084729fe69dc85391d44cce8f9639a9b3dad122ccf530e6e4b8a10f4b244b39a1aee887e5c27418bdc98b2e4d63306b970203010001a382018a3082018630120603551d130101ff040830060101ff020101301d0603551d0e04160414b543d00ec460f968f3803ed8f450967d6c99d969300b0603551d0f040403020186301006092b06010401823715010403020100301906092b0601040182371402040c1e0a00530075006200430041301f0603551d23041830168014be5407c26b9c7dd9f83943b8a0f6974d4499a03a306e0603551d1f046730653063a061a05f862d687474703a2f2f63726c2e74616d757a2e676f762e696c2f7075626c69632f54616d757a52636147322e63726c862e687474703a2f2f63726c322e74616d757a2e676f762e696c2f7075626c69632f54616d757a52636147322e63726c30818506082b0601050507010104793077303906082b06010505073001862d687474703a2f2f63726c2e74616d757a2e676f762e696c2f7075626c69632f54616d757a52636147322e636572303a06082b06010505073001862e687474703a2f2f63726c322e74616d757a2e676f762e696c2f7075626c69632f54616d757a52636147322e636572300d06092a864886f70d01010b0500038202010058a690d1d4abd164ec917e3006b3ec8fed3a04b9b4ece1163d7f14e10c94429d9f8d4f984a8972b8b889f86b25cb96086ee65ea3b59c5d131a88697d8d629a3dc3470ba3682772b85a06b89d5cb3e50e55e41dd293e03aa3dd3ef170473d3d6a4efc8bab8f796b7ea997ad4438d40c52cb0ad09eed3621156542b422cf5e207227335ff6bb764167e83c7b7df57b34ea112b3422fdd70984ca5e6c04ca9e186274e87f0f73f5a5b3b9266f59b50baa241a137bea6b041d2b4d66819a3591297f4f522baa28d74994484dc595d3f8ca89bc0ce22d34b2bda10056c368b4e9ef5ba07dee570a661a919f2c81086664d15a0c332eadf0e36a36d97e60c11c92ba4100f12fd7852709f213e21902db44d837b5a784a96d929cafe86d291dd60ffce4c57d98565ae1187f161c9e206c469296d00f833f2d099363830da81e5e406d396a1014c5ac3b664cd67c31e79cafb0acf6c4b9fdc08a4f64e5b060cdc4dd49aeb8ad7559c63a92dc8d3564558d94cce1d6d23301ae428ca8ad5b2dc3560dadf44e2ef3886b4393577ea626faa15fe42a4f8ad107a63127cd46245f99245e1120642413c3b4e3221d000814d2406769806e9e4806812027e565d3bee9e6470a2f130277e58da73ecf6e7a6304aaf27f50bd8365929ec6f1164188cf6697d1c84cfcb262423c0ce578f630e5135816070790977d9ddacff7e3ca186e3c4de65
##3f27a7f055f0b7238a2fc8f7f23f010e035750859c86b3b7f424a78b57725e6a166437039566bd7cd07be53d4c45c14cba3ac6f4d9153f4d044cc5ec8becfdda849c1f30d1f29b8f811c0098ab25fbb6a862d03abe6f6494c15958aa720f7f625652b6127bf3ec5e5e50ada621b2aee96cbebd6e1a61c5b0203010001a38201cf308201cb300b0603551d0f0404030204b0301d0603551d250416301406082b0601050507030206082b06010505070301301d0603551d0e04160414445e8317c23fbefd6a664f8bf8ca5d2e498e069f301f0603551d23041830168014b543d00ec460f968f3803ed8f450967d6c99d969306e0603551d1f046730653063a061a05f862d687474703a2f2f63726c2e74616d757a2e676f762e696c2f7075626c69632f54616d757a44657647322e63726c862e687474703a2f2f63726c322e74616d757a2e676f762e696c2f7075626c69632f54616d757a44657647322e63726c30818506082b0601050507010104793077303906082b06010505073002862d687474703a2f2f63726c2e74616d757a2e676f762e696c2f7075626c69632f54616d757a44657647322e636572303a06082b06010505073002862e687474703a2f2f63726c322e74616d757a2e676f762e696c2f7075626c69632f54616d757a44657647322e636572303c06092b0601040182371507042f302d06252b06010401823715088280812c82fad93881f59532f6f15382acad0a188794ce458586cc74020164020108302706092b060104018237150a041a3018300a06082b06010505070302300a06082b06010505070301300d06092a864886f70d01010b0500038202010038887bb6e743766646981
##2c369acc605d1583550655a7926c0db3a0629509cf127f8e9845444f10e74bce45e40ac65ede2e0ceceeacc664d3151ca06843720e2542fd1c555ca789ca4438a84c999072676415c83827f3f27a7f055f0b7238a2fc8f7f23f010e035750859c86b3b7f424a78b57725e6a166437039566bd7cd07be53d4c45c14cba3ac6f4d9153f4d044cc5ec8becfdda849c1f30d1f29b8f811c0098ab25fbb6a862d03abe6f6494c15958aa720f7f625652b6127bf3ec5e5e50ada621b2aee96cbebd6e1a61c5b0203010001a38201cf308201cb300b0603551d0f0404030204b0301d0603551d250416301406082b0601050507030206082b06010505070301301d0603551d0e04160414445e8317c23fbefd6a664f8bf8ca5d2e498e069f301f0603551d23041830168014b543d00ec460f968f3803ed8f450967d6c99d969306e0603551d1f046730653063a061a05f862d687474703a2f2f63726c2e74616d757a2e676f762e696c2f7075626c69632f54616d757a44657647322e63726c862e687474703a2f2f63726c322e74616d757a2e676f762e696c2f7075626c69632f54616d757a44657647322e63726c30818506082b0601050507010104793077303906082b06010505073002862d687474703a2f2f63726c2e74616d757a2e676f762e696c2f7075626c69632f54616d757a44657647322e636572303a06082b06010505073002862e687474703a2f2f63726c322e74616d757a2e676f762e696c2f7075626c69632f54616d757a44657647322e636572303c06092b0601040182371507042f302d06252b06010401823715088280812c82fad93881f59532f6f15382acad0a188794ce458586cc74020164020108302706092b060104018237150a041a3018300a06082b06010505070302300a06082b06010505070301300d06092a864886f70d01010b0500038202010038887bb6e743766646981
##8347ad6e9c0e841ead70c2a60b2f59143b411655bfdd977aa1bfd5e54fbb14d97f14349a3ee855f1df4629e1f2aec51bc2ba0fef48c5320a4d71824048b57f74e073196a949f73e68d45c2800f2eb68e4a5c6ad23f41eb071a951aba31f9cdee95d7ee43577799ca84efb936a0e590fe2d2c2768e43e4308206b030820498a003020102020a190f31e8000000000003300d06092a864886f70d01010b05003056310b300906035504061302494c311d301b060355040a1314476f7665726e6d656e74206f662049737261656c312830260603550403131f476f7665726e6d656e74206f662049737261656c20526f6f74204341204732301e170d3133303232303039323833375a170d3238303232303039333833375a304a310b300906035504061302494c311d301b060355040a1314476f7665726e6d656e74206f662049737261656c311c301a0603550403131354414d555a2d4465766963657320434120473230820222300d06092a864886f70d01010105000382020f003082020a0282020100c8e848a8ba807c7fda9bdb591982b5597dbd74db11e7e3e1eb721b297128f19f7e855c14b28e9437a2d1e10a55d44200ea3df003f1b8e84242da166d6076ff1826724eaf46e9411f49482b19ff9fa37fbda494ccaecebb56111d8a6b23d042a99b776c487d19b0c141a253b2795d0f0d389845453e835293b7ceb978d5a989c6e25d13b06596fa07459afb1caebc61f478b098f3540542f8d819ad4066252d24a185802e25b5c6fbade6a9885fb1032b7d5b13c4d3766c079c4ce37b47a8805565fc7ef562b9278a9089dd124eccff05a0ddf54c4a0685a040cca55055598ae880177964096b1e17c1e262e53ce5e59420b029ac51f42b1cfd5bf59ee4d8f32f065fc74ed462200a79ff56b2a7194f5cadf2aee4a5e45c431d58f0469a5a3ba8f85f95e6de4db858594c34a2e860eb8010601f08364c7af8b37c599bd31076408b9653165a1e35eb02455465b297d10d16918dfe0e3aba32b7380147f903f9c1457cccde756d743907586c41dffc83ddfb7bc16ad83bf2869a7af8283363c12759e169e336fd8999ad3d6c5541c3318117b94eeb8a7c6af401b85f18584084837db89248378a726ff92e16c87cc4179acff3e550b19666729578afee9711e83dadeb246a6cc240a0e5352a18071bb8f084729fe69dc85391d44cce8f9639a9b3dad122ccf530e6e4b8a10f4b244b39a1aee887e5c27418bdc98b2e4d63306b970203010001a382018a3082018630120603551d130101ff040830060101ff020101301d0603551d0e04160414b543d00ec460f968f3803ed8f450967d6c99d969300b0603551d0f040403020186301006092b06010401823715010403020100301906092b0601040182371402040c1e0a00530075006200430041301f0603551d23041830168014be5407c26b9c7dd9f83943b8a0f6974d4499a03a306e0603551d1f046730653063a061a05f862d687474703a2f2f63726c2e74616d757a2e676f762e696c2f7075626c69632f54616d757a52636147322e63726c862e687474703a2f2f63726c322e74616d757a2e676f762e696c2f7075626c69632f54616d757a52636147322e63726c30818506082b0601050507010104793077303906082b06010505073001862d687474703a2f2f63726c2e74616d757a2e676f762e696c2f7075626c69632f54616d757a52636147322e636572303a06082b06010505073001862e687474703a2f2f63726c322e74616d757a2e676f762e696c2f7075626c69632f54616d757a52636147322e636572300d06092a864886f70d01010b0500038202010058a690d1d4abd164ec917e3006b3ec8fed3a04b9b4ece1163d7f14e10c94429d9f8d4f984a8972b8b889f86b25cb96086ee65ea3b59c5d131a88697d8d629a3dc3470ba3682772b85a06b89d5cb3e50e55e41dd293e03aa3dd3ef170473d3d6a4efc8bab8f796b7ea997ad4438d40c52cb0ad09eed3621156542b422cf5e207227335ff6bb764167e83c7b7df57b34ea112b3422fdd70984ca5e6c04ca9e186274e87f0f73f5a5b3b9266f59b50baa241a137bea6b041d2b4d66819a3591297f4f522baa28d74994484dc595d3f8ca89bc0ce22d34b2bda10056c368b4e9ef5ba07dee570a661a919f2c81086664d15a0c332eadf0e36a36d97e60c11c92ba4100f12fd7852709f213e21902db44d837b5a784a96d929cafe86d291dd60ffce4c57d98565ae1187f161c9e206c469296d00f833f2d099363830da81e5e406d396a1014c5ac3b664cd67c31e79cafb0acf6c4b9fdc08a4f64e5b060cdc4dd49aeb8ad7559c63a92dc8d3564558d94cce1d6d23301ae428ca8ad5b2dc3560dadf44e2ef3886b4393577ea626faa15fe42a4f8ad107a63127cd46245f99245e1120642413c3b4e3221d000814d2406769806e9e4806812027e565d3bee9e6470a2f130277e58da73ecf6e7a6304aaf27f50bd8365929ec6f1164188cf6697d1c84cfcb262423c0ce578f630e5135816070790977d9ddacff7e3ca186e3c4de65
##2f2358fd3c4f8143f9783ed37c0775dd41ca797853736c073f81da662b4e6f11670fed47052bec34239c499c620b68531ad50bd9c6fc71e9d76d2af0fa2e011375eede18fa5d39107d8df040bdcf5e4678ba655854386c42ea2ea77c6259b62ed4e31b8949eaca635f3195ae372e7b91c57d7b82c44150db6dd82095cf
##993ccc054cf4c5938a7b42f03c8f7b9ee91150dbe897404d5162bd7a7664b58465b193e867565d77b6e8c1f352e6ad4dac1a6ab156893d5499f5bc0c6046be5ae9ce71e0c2c6dbc062ee65693303605d1ce998d57f47483cd12703d334a2fdce6f6053924a54ca9f9ea6fa994d70bd9af5e6662a28b6137b62d605ffecd4643a94d8526f4b7a03db08dd92ba546d2bae49005963eea1f30492b25fd790925adb9adfa8ad0ec6c00e773a
##08205bd308203a5a003020102020a4595e16d00000000072d300d06092a864886f70d01010b0500304a310b300906035504061302494c311d301b060355040a1314476f7665726e6d656e74206f662049737261656c311c301a0603550403131354414d555a2d44657669636573204341204732301e170d3133303830363133323831365a170d3138303830353133323831365a301e311c301a06035504030c134d696e69737472795f4f665f4a75737469636530820122300d06092a864886f70d01010105000382010f003082010a0282010100c72cf87e639d32e5859f7dbbaa8645fde7c1b539b05c9424ea63422077a4de121b1fbd7ebde38f270251e93c3efb08a21a3c137e62784e3d74c47032442c369acc605d1583550655a7926c0db3a0629509cf127f8e9845444f10e74bce45e40ac65ede2e0ceceeacc664d3151ca06843720e2542fd1c555ca789ca4438a84c999072676415c83827f3f27a7f055f0b7238a2fc8f7f23f010e035750859c86b3b7f424a78b57725e6a166437039566bd7cd07be53d4c45c14cba3ac6f4d9153f4d044cc5ec8becfdda849c1f30d1f29b8f811c0098ab25fbb6a862d03abe6f6494c15958aa720f7f625652b6127bf3ec5e5e50ada621b2aee96cbebd6e1a61c5b0203010001a38201cf308201cb300b0603551d0f0404030204b0301d0603551d250416301406082b0601050507030206082b06010505070301301d0603551d0e04160414445e8317c23fbefd6a664f8bf8ca5d2e498e069f301f0603551d23041830168014b543d00ec460f968f3803ed8f450967d6c99d969306e0603551d1f046730653063a061a05f862d687474703a2f2f63726c2e74616d757a2e676f762e696c2f7075626c69632f54616d757a44657647322e63726c862e687474703a2f2f63726c322e74616d757a2e676f762e696c2f7075626c69632f54616d757a44657647322e63726c30818506082b0601050507010104793077303906082b06010505073002862d687474703a2f2f63726c2e74616d757a2e676f762e696c2f7075626c69632f54616d757a44657647322e636572303a06082b06010505073002862e687474703a2f2f63726c322e74616d757a2e676f762e696c2f7075626c69632f54616d757a44657647322e636572303c06092b0601040182371507042f302d06252b06010401823715088280812c82fad93881f59532f6f15382acad0a188794ce458586cc74020164020108302706092b060104018237150a041a3018300a06082b06010505070302300a06082b06010505070301300d06092a864886f70d01010b0500038202010038887bb6e743766646981
##8357a9fe1f4ffeb6015b610ae9ff02056e132dffd9d99b1a5ab76aac06bc0d47e07016232f2be2c6f1529424267c6170bd7ad2e53d0c60a42d18171c22840e5c5b143b115a25a0e49de4b75638d6eeb8d8fb6501839e9df62f2358fd3c4f8143f9783ed37c0775dd41ca797853736c073f81da662b4e6f11670fed47052bec34239c499c620b68531ad50bd9c6fc71e9d76d2af0fa2e011375eede18fa5d39107d8df040bdcf5e4678ba655854386c42ea2ea77c6259b62ed4e31b8949eaca635f3195ae372e7b91c57d7b82c44150db6dd82095cf
##993ccc054cf4c5938a7b42f03c8f7b9ee91150dbe897404d5162bd7a7664b58465b193e867565d77b6e8c1f352e6ad4dac1a6ab156893d5499f5bc0c6046be5ae9ce71e0c2c6dbc062ee65693303605d1ce998d57f47483cd12703d334a2fdce6f6053924a54ca9f9ea6fa994d70bd9af5e6662a28b6137b62d605ffecd4643a94d8526f4b7a03db08dd92ba546d2bae49005963eea1f30492b25fd790925adb9adfa8ad0ec6c00e773a8347ad6e9c0e841ead70c2a60b2f59143b411655bfdd977aa1bfd5e54fbb14d97f14349a3ee855f1df4629e1f2aec51bc2ba0fef48c5320a4d71824048b57f74e073196a949f73e68d45c2800f2eb68e4a5c6ad23f41eb071a951aba31f9cdee95d7ee43577799ca84efb936a0e590fe2d2c2768e43e4308206b030820498a003020102020a190f31e8000000000003300d06092a864886f70d01010b05003056310b300906035504061302494c311d301b060355040a1314476f7665726e6d656e74206f662049737261656c312830260603550403131f476f7665726e6d656e74206f662049737261656c20526f6f74204341204732301e170d3133303232303039323833375a170d3238303232303039333833375a304a310b300906035504061302494c311d301b060355040a1314476f7665726e6d656e74206f662049737261656c311c301a0603550403131354414d555a2d4465766963657320434120473230820222300d06092a864886f70d01010105000382020f003082020a0282020100c8e848a8ba807c7fda9bdb591982b5597dbd74db11e7e3e1eb721b297128f19f7e855c14b28e9437a2d1e10a55d44200ea3df003f1b8e84242da166d6076ff1826724eaf46e9411f49482b19ff9fa37fbda494ccaecebb56111d8a6b23d042a99b776c487d19b0c141a253b2795d0f0d389845453e835293b7ceb978d5a989c6e25d13b06596fa07459afb1caebc61f478b098f3540542f8d819ad4066252d24a185802e25b5c6fbade6a9885fb1032b7d5b13c4d3766c079c4ce37b47a8805565fc7ef562b9278a9089dd124eccff05a0ddf54c4a0685a040cca55055598ae880177964096b1e17c1e262e53ce5e59420b029ac51f42b1cfd5bf59ee4d8f32f065fc74ed462200a79ff56b2a7194f5cadf2aee4a5e45c431d58f0469a5a3ba8f85f95e6de4db858594c34a2e860eb8010601f08364c7af8b37c599bd31076408b9653165a1e35eb02455465b297d10d16918dfe0e3aba32b7380147f903f9c1457cccde756d743907586c41dffc83ddfb7bc16ad83bf2869a7af8283363c12759e169e336fd8999ad3d6c5541c3318117b94eeb8a7c6af401b85f18584084837db89248378a726ff92e16c87cc4179acff3e550b19666729578afee9711e83dadeb246a6cc240a0e5352a18071bb8f084729fe69dc85391d44cce8f9639a9b3dad122ccf530e6e4b8a10f4b244b39a1aee887e5c27418bdc98b2e4d63306b970203010001a382018a3082018630120603551d130101ff040830060101ff020101301d0603551d0e04160414b543d00ec460f968f3803ed8f450967d6c99d969300b0603551d0f040403020186301006092b06010401823715010403020100301906092b0601040182371402040c1e0a00530075006200430041301f0603551d23041830168014be5407c26b9c7dd9f83943b8a0f6974d4499a03a306e0603551d1f046730653063a061a05f862d687474703a2f2f63726c2e74616d757a2e676f762e696c2f7075626c69632f54616d757a52636147322e63726c862e687474703a2f2f63726c322e74616d757a2e676f762e696c2f7075626c69632f54616d757a52636147322e63726c30818506082b0601050507010104793077303906082b06010505073001862d687474703a2f2f63726c2e74616d757a2e676f762e696c2f7075626c69632f54616d757a52636147322e636572303a06082b06010505073001862e687474703a2f2f63726c322e74616d757a2e676f762e696c2f7075626c69632f54616d757a52636147322e636572300d06092a864886f70d01010b0500038202010058a690d1d4abd164ec917e3006b3ec8fed3a04b9b4ece1163d7f14e10c94429d9f8d4f984a8972b8b889f86b25cb96086ee65ea3b59c5d131a88697d8d629a3dc3470ba3682772b85a06b89d5cb3e50e55e41dd293e03aa3dd3ef170473d3d6a4efc8bab8f796b7ea997ad4438d40c52cb0ad09eed3621156542b422cf5e207227335ff6bb764167e83c7b7df57b34ea112b3422fdd70984ca5e6c04ca9e186274e87f0f73f5a5b3b9266f59b50baa241a137bea6b041d2b4d66819a3591297f4f522baa28d74994484dc595d3f8ca89bc0ce22d34b2bda10056c368b4e9ef5ba07dee570a661a919f2c81086664d15a0c332eadf0e36a36d97e60c11c92ba4100f12fd7852709f213e21902db44d837b5a784a96d929cafe86d291dd60ffce4c57d98565ae1187f161c9e206c469296d00f833f2d099363830da81e5e406d396a1014c5ac3b664cd67c31e79cafb0acf6c4b9fdc08a4f64e5b060cdc4dd49aeb8ad7559c63a92dc8d3564558d94cce1d6d23301ae428ca8ad5b2dc3560dadf44e2ef3886b4393577ea626faa15fe42a4f8ad107a63127cd46245f99245e1120642413c3b4e3221d000814d2406769806e9e4806812027e565d3bee9e6470a2f130277e58da73ecf6e7a6304aaf27f50bd8365929ec6f1164188cf6697d1c84cfcb262423c0ce578f630e5135816070790977d9ddacff7e3ca186e3c4de65
##08205bd308203a5a003020102020a4595e16d00000000072d300d06092a864886f70d01010b0500304a310b300906035504061302494c311d301b060355040a1314476f7665726e6d656e74206f662049737261656c311c301a0603550403131354414d555a2d44657669636573204341204732301e170d3133303830363133323831365a170d3138303830353133323831365a301e311c301a06035504030c134d696e69737472795f4f665f4a75737469636530820122300d06092a864886f70d01010105000382010f003082010a0282010100c72cf87e639d32e5859f7dbbaa8645fde7c1b539b05c9424ea63422077a4de121b1fbd7ebde38f270251e93c3efb08a21a3c137e62784e3d74c47032442c369acc605d1583550655a7926c0db3a0629509cf127f8e9845444f10e74bce45e40ac65ede2e0ceceeacc664d3151ca06843720e2542fd1c555ca789ca4438a84c999072676415c83827f3f27a7f055f0b7238a2fc8f7f23f010e035750859c86b3b7f424a78b57725e6a166437039566bd7cd07be53d4c45c14cba3ac6f4d9153f4d044cc5ec8becfdda849c1f30d1f29b8f811c0098ab25fbb6a862d03abe6f6494c15958aa720f7f625652b6127bf3ec5e5e50ada621b2aee96cbebd6e1a61c5b0203010001a38201cf308201cb300b0603551d0f0404030204b0301d0603551d250416301406082b0601050507030206082b06010505070301301d0603551d0e04160414445e8317c23fbefd6a664f8bf8ca5d2e498e069f301f0603551d23041830168014b543d00ec460f968f3803ed8f450967d6c99d969306e0603551d1f046730653063a061a05f862d687474703a2f2f63726c2e74616d757a2e676f762e696c2f7075626c69632f54616d757a44657647322e63726c862e687474703a2f2f63726c322e74616d757a2e676f762e696c2f7075626c69632f54616d757a44657647322e63726c30818506082b0601050507010104793077303906082b06010505073002862d687474703a2f2f63726c2e74616d757a2e676f762e696c2f7075626c69632f54616d757a44657647322e636572303a06082b06010505073002862e687474703a2f2f63726c322e74616d757a2e676f762e696c2f7075626c69632f54616d757a44657647322e636572303c06092b0601040182371507042f302d06252b06010401823715088280812c82fad93881f59532f6f15382acad0a188794ce458586cc74020164020108302706092b060104018237150a041a3018300a06082b06010505070302300a06082b06010505070301300d06092a864886f70d01010b0500038202010038887bb6e7437666469818357a9fe1f4ffeb6015b610ae9ff02056e132dffd9d99b1a5ab76aac06bc0d47e07016232f2be2c6f1529424267c6170bd7ad2e53d0c60a42d18171c22840e5c5b143b115a25a0e49de4b75638d6eeb8d8fb6501839e9df62f2358fd3c4f8143f9783ed37c0775dd41ca797853736c073f81da662b4e6f11670fed47052bec34239c499c620b68531ad50bd9c6fc71e9d76d2af0fa2e011375eede18fa5d39107d8df040bdcf5e4678ba655854386c42ea2ea77c6259b62ed4e31b8949eaca635f3195ae372e7b91c57d7b82c44150db6dd82095cf
##08205bd308203a5a003020102020a4595e16d00000000072d300d06092a864886f70d01010b0500304a310b300906035504061302494c311d301b060355040a1314476f7665726e6d656e74206f662049737261656c311c301a0603550403131354414d555a2d44657669636573204341204732301e170d3133303830363133323831365a170d3138303830353133323831365a301e311c301a06035504030c134d696e69737472795f4f665f4a75737469636530820122300d06092a864886f70d01010105000382010f003082010a0282010100c72cf87e639d32e5859f7dbbaa8645fde7c1b539b05c9424ea63422077a4de121b1fbd7ebde38f270251e93c3efb08a21a3c137e62784e3d74c47032442c369acc605d1583550655a7926c0db3a0629509cf127f8e9845444f10e74bce45e40ac65ede2e0ceceeacc664d3151ca06843720e2542fd1c555ca789ca4438a84c999072676415c83827f3f27a7f055f0b7238a2fc8f7f23f010e035750859c86b3b7f424a78b57725e6a166437039566bd7cd07be53d4c45c14cba3ac6f4d9153f4d044cc5ec8becfdda849c1f30d1f29b8f811c0098ab25fbb6a862d03abe6f6494c15958aa720f7f625652b6127bf3ec5e5e50ada621b2aee96cbebd6e1a61c5b0203010001a38201cf308201cb300b0603551d0f0404030204b0301d0603551d250416301406082b0601050507030206082b06010505070301301d0603551d0e04160414445e8317c23fbefd6a664f8bf8ca5d2e498e069f301f0603551d23041830168014b543d00ec460f968f3803ed8f450967d6c99d969306e0603551d1f046730653063a061a05f862d687474703a2f2f63726c2e74616d757a2e676f762e696c2f7075626c69632f54616d757a44657647322e63726c862e687474703a2f2f63726c322e74616d757a2e676f762e696c2f7075626c69632f54616d757a44657647322e63726c30818506082b0601050507010104793077303906082b06010505073002862d687474703a2f2f63726c2e74616d757a2e676f762e696c2f7075626c69632f54616d757a44657647322e636572303a06082b06010505073002862e687474703a2f2f63726c322e74616d757a2e676f762e696c2f7075626c69632f54616d757a44657647322e636572303c06092b0601040182371507042f302d06252b06010401823715088280812c82fad93881f59532f6f15382acad0a188794ce458586cc74020164020108302706092b060104018237150a041a3018300a06082b06010505070302300a06082b06010505070301300d06092a864886f70d01010b0500038202010038887bb6e7437666469818357a9fe1f4ffeb6015b610ae9ff02056e132dffd9d99b1a5ab76aac06bc0d47e07016232f2be2c6f1529424267c6170bd7ad2e53d0c60a42d18171c22840e5c5b143b115a25a0e49de4b75638d6eeb8d8fb6501839e9df62f2358fd3c4f8143f9783ed37c0775dd41ca797853736c073f81da662b4e6f11670fed47052bec34239c499c620b68531ad50bd9c6fc71e9d76d2af0fa2e011375eede18fa5d39107d8df040bdcf5e4678ba655854386c42ea2ea77c6259b62ed4e31b8949eaca635f3195ae372e7b91c57d7b82c44150db6dd82095cf993ccc054cf4c5938a7b42f03c8f7b9ee91150dbe897404d5162bd7a7664b58465b193e867565d77b6e8c1f352e6ad4dac1a6ab156893d5499f5bc0c6046be5ae9ce71e0c2c6dbc062ee65693303605d1ce998d57f47483cd12703d334a2fdce6f6053924a54ca9f9ea6fa994d70bd9af5e6662a28b6137b62d605ffecd4643a94d8526f4b7a03db08dd92ba546d2bae49005963eea1f30492b25fd790925adb9adfa8ad0ec6c00e773a8347ad6e9c0e841ead70c2a60b2f59143b411655bfdd977aa1bfd5e54fbb14d97f14349a3ee855f1df4629e1f2aec51bc2ba0fef48c5320a4d71824048b57f74e073196a949f73e68d45c2800f2eb68e4a5c6ad23f41eb071a951aba31f9cdee95d7ee43577799ca84efb936a0e590fe2d2c2768e43e4308206b030820498a003020102020a190f31e8000000000003300d06092a864886f70d01010b05003056310b300906035504061302494c311d301b060355040a1314476f7665726e6d656e74206f662049737261656c312830260603550403131f476f7665726e6d656e74206f662049737261656c20526f6f74204341204732301e170d3133303232303039323833375a170d3238303232303039333833375a304a310b300906035504061302494c311d301b060355040a1314476f7665726e6d656e74206f662049737261656c311c301a0603550403131354414d555a2d4465766963657320434120473230820222300d06092a864886f70d01010105000382020f003082020a0282020100c8e848a8ba807c7fda9bdb591982b5597dbd74db11e7e3e1eb721b297128f19f7e855c14b28e9437a2d1e10a55d44200ea3df003f1b8e84242da166d6076ff1826724eaf46e9411f49482b19ff9fa37fbda494ccaecebb56111d8a6b23d042a99b776c487d19b0c141a253b2795d0f0d389845453e835293b7ceb978d5a989c6e25d13b06596fa07459afb1caebc61f478b098f3540542f8d819ad4066252d24a185802e25b5c6fbade6a9885fb1032b7d5b13c4d3766c079c4ce37b47a8805565fc7ef562b9278a9089dd124eccff05a0ddf54c4a0685a040cca55055598ae880177964096b1e17c1e262e53ce5e59420b029ac51f42b1cfd5bf59ee4d8f32f065fc74ed462200a79ff56b2a7194f5cadf2aee4a5e45c431d58f0469a5a3ba8f85f95e6de4db858594c34a2e860eb8010601f08364c7af8b37c599bd31076408b9653165a1e35eb02455465b297d10d16918dfe0e3aba32b7380147f903f9c1457cccde756d743907586c41dffc83ddfb7bc16ad83bf2869a7af8283363c12759e169e336fd8999ad3d6c5541c3318117b94eeb8a7c6af401b85f18584084837db89248378a726ff92e16c87cc4179acff3e550b19666729578afee9711e83dadeb246a6cc240a0e5352a18071bb8f084729fe69dc85391d44cce8f9639a9b3dad122ccf530e6e4b8a10f4b244b39a1aee887e5c27418bdc98b2e4d63306b970203010001a382018a3082018630120603551d130101ff040830060101ff020101301d0603551d0e04160414b543d00ec460f968f3803ed8f450967d6c99d969300b0603551d0f040403020186301006092b06010401823715010403020100301906092b0601040182371402040c1e0a00530075006200430041301f0603551d23041830168014be5407c26b9c7dd9f83943b8a0f6974d4499a03a306e0603551d1f046730653063a061a05f862d687474703a2f2f63726c2e74616d757a2e676f762e696c2f7075626c69632f54616d757a52636147322e63726c862e687474703a2f2f63726c322e74616d757a2e676f762e696c2f7075626c69632f54616d757a52636147322e63726c30818506082b0601050507010104793077303906082b06010505073001862d687474703a2f2f63726c2e74616d757a2e676f762e696c2f7075626c69632f54616d757a52636147322e636572303a06082b06010505073001862e687474703a2f2f63726c322e74616d757a2e676f762e696c2f7075626c69632f54616d757a52636147322e636572300d06092a864886f70d01010b0500038202010058a690d1d4abd164ec917e3006b3ec8fed3a04b9b4ece1163d7f14e10c94429d9f8d4f984a8972b8b889f86b25cb96086ee65ea3b59c5d131a88697d8d629a3dc3470ba3682772b85a06b89d5cb3e50e55e41dd293e03aa3dd3ef170473d3d6a4efc8bab8f796b7ea997ad4438d40c52cb0ad09eed3621156542b422cf5e207227335ff6bb764167e83c7b7df57b34ea112b3422fdd70984ca5e6c04ca9e186274e87f0f73f5a5b3b9266f59b50baa241a137bea6b041d2b4d66819a3591297f4f522baa28d74994484dc595d3f8ca89bc0ce22d34b2bda10056c368b4e9ef5ba07dee570a661a919f2c81086664d15a0c332eadf0e36a36d97e60c11c92ba4100f12fd7852709f213e21902db44d837b5a784a96d929cafe86d291dd60ffce4c57d98565ae1187f161c9e206c469296d00f833f2d099363830da81e5e406d396a1014c5ac3b664cd67c31e79cafb0acf6c4b9fdc08a4f64e5b060cdc4dd49aeb8ad7559c63a92dc8d3564558d94cce1d6d23301ae428ca8ad5b2dc3560dadf44e2ef3886b4393577ea626faa15fe42a4f8ad107a63127cd46245f99245e1120642413c3b4e3221d000814d2406769806e9e4806812027e565d3bee9e6470a2f130277e58da73ecf6e7a6304aaf27f50bd8365929ec6f1164188cf6697d1c84cfcb262423c0ce578f630e5135816070790977d9ddacff7e3ca186e3c4de65
231
642
##לוק
##753
543
##חן
##449
759
##99933
##ותף
##042
549
##ימה
233
##651
##רק
342
בשלב
542
בז
פסקה
##ולות
87
העותרת
2003
##שיא
##293
223
##מעות
##טל
פורסם
##wn
sa¸y
sa¸y€b
204
באמצעות
לאור
בהס
##9982
##לית
##דרש
##221
##תית
##רכז
זכויות
##eo
אכן
מטעם
טרם
261
##יעות
##כלית
##תיים
213
המקרה
התביעה
יסוד
##פקיד
##וץ
##מכים
365
שח
000t
174
לכל
##iy
משפ
##00011
ביחס
החזקתו
171
##ey
2012
בצ
263
##zo
שאין
##סף
##ושב
שש
מספר
177
##לם
למתן
indexed
##037
320
ועדת
224
בידי
בעניינ
ומש
##בירה
אזרחות
f2
פרט
##03b
28800011
225
##ברי
אולם
סבור
בעת
##00004
הביט
65400004
שהמ
338
##תם
##mode
pagemode
ביט
##uy
מאשר
905
##008
דברי
##15f
227
##0ed
760
422
##99911
##fy
##משך
זמן
הכנס
eo
244
002463
##קודת
##001
##zz
260
cmap
ai
##ular
הסכ
##yþ
התשס
031
יב
לעני
##או
57799911
##00012
שלפני
346
##cc9
ברי
192
245
##f9
361
ev
##ראה
בחוק
124
להוצאות
##ברת
לטענת
##zi
##48f
creator
366
לערער
ea
שבה
217
##ava
##ווה
ee
215
##ואה
65399933
הארץ
##7323
##ינטרס
cou
##ושה
שיפוט
הפע
##xa
468
מתו
##ופע
257
##08b
ואין
המבקשים
302
יכול
311
met
ליום
appliance
הגשת
558
386
230
מינה
לתוצאה
##f3f
count
##וכן
353
כבר
##2cf
##d4
הוועדה
המא
##ירוע
391
המועד
272
271
316
2019
להח
##סקה
##אית
##ובות
313
452
אחת
2015
##כון
154
לשם
החל
שינויים
קובע
2009
עומ
בתח
##ניים
##op
##985
d°
241
##date
##מע
ab
creation
375
creationdate
243
504
##ei
##20c
2016
מבין
ריש
##01050004820100
533
106
במהל
##ותה
253
##nn
boldmt
קיב
##שט
אריתריאה
microsoft
שניתן
java
##ערב
103
##yp
343
התח
חודשים
מנה
399
הובא
##869
364
##מל
370
##סקנה
ציבור
להיד
sm
109
קיימ
##פוף
x1
הוס
##ירים
די
236
modd
262
384
##qq
moddate
##hh
חק
356
arial
##08202
lang
img
516
לתקנות
##ועצה
268
##51f
נוספת
מכוח
ua
##har
שנת
eu
374
##zw
דנן
512
362
תקופת
##יוע
##005
אחרת
המתלו
לרבות
111
מז
אס
שבו
291
##ערכה
שי
301
##2e63
אביב
זכ
315
##2044
##גר
uu
##ðn
##¬cea
d°¬cea
##202d
##0c753
##2563182
##300b06092a864886f70d010701a0820c753
##08205bd308203a5a003020102020a4595e16d00000000072d300d06092a864886f70d01010b0500304a310b300906035504061302494c311d301b060355040a1314476f7665726e6d656e74206f662049737261656c311c301a0603550403131354414d555a2d44657669636573204341204732301e170d3133303830363133323831365a170d3138303830353133323831365a301e311c301a06035504030c134d696e69737472795f4f665f4a75737469636530820122300d06092a864886f70d01010105000382010f003082010a0282010100c72cf87e639d32e5859f7dbbaa8645fde7c1b539b05c9424ea63422077a4de121b1fbd7ebde38f270251e93c3efb08a21a3c137e62784e3d74c47032442c369acc605d1583550655a7926c0db3a0629509cf127f8e9845444f10e74bce45e40ac65ede2e0ceceeacc664d3151ca06843720e2542fd1c555ca789ca4438a84c999072676415c83827f3f27a7f055f0b7238a2fc8f7f23f010e035750859c86b3b7f424a78b57725e6a166437039566bd7cd07be53d4c45c14cba3ac6f4d9153f4d044cc5ec8becfdda849c1f30d1f29b8f811c0098ab25fbb6a862d03abe6f6494c15958aa720f7f625652b6127bf3ec5e5e50ada621b2aee96cbebd6e1a61c5b0203010001a38201cf308201cb300b0603551d0f0404030204b0301d0603551d250416301406082b0601050507030206082b06010505070301301d0603551d0e04160414445e8317c23fbefd6a664f8bf8ca5d2e498e069f301f0603551d23041830168014b543d00ec460f968f3803ed8f450967d6c99d969306e0603551d1f046730653063a061a05f862d687474703a2f2f63726c2e74616d757a2e676f762e696c2f7075626c69632f54616d757a44657647322e63726c862e687474703a2f2f63726c322e74616d757a2e676f762e696c2f7075626c69632f54616d757a44657647322e63726c30818506082b0601050507010104793077303906082b06010505073002862d687474703a2f2f63726c2e74616d757a2e676f762e696c2f7075626c69632f54616d757a44657647322e636572303a06082b06010505073002862e687474703a2f2f63726c322e74616d757a2e676f762e696c2f7075626c69632f54616d757a44657647322e636572303c06092b0601040182371507042f302d06252b06010401823715088280812c82fad93881f59532f6f15382acad0a188794ce458586cc74020164020108302706092b060104018237150a041a3018300a06082b06010505070302300a06082b06010505070301300d06092a864886f70d01010b0500038202010038887bb6e7437666469818357a9fe1f4ffeb6015b610ae9ff02056e132dffd9d99b1a5ab76aac06bc0d47e07016232f2be2c6f1529424267c6170bd7ad2e53d0c60a42d18171c22840e5c5b143b115a25a0e49de4b75638d6eeb8d8fb6501839e9df62f2358fd3c4f8143f9783ed37c0775dd41ca797853736c073f81da662b4e6f11670fed47052bec34239c499c620b68531ad50bd9c6fc71e9d76d2af0fa2e011375eede18fa5d39107d8df040bdcf5e4678ba655854386c42ea2ea77c6259b62ed4e31b8949eaca635f3195ae372e7b91c57d7b82c44150db6dd82095cf993ccc054cf4c5938a7b42f03c8f7b9ee91150dbe897404d5162bd7a7664b58465b193e867565d77b6e8c1f352e6ad4dac1a6ab156893d5499f5bc0c6046be5ae9ce71e0c2c6dbc062ee65693303605d1ce998d57f47483cd12703d334a2fdce6f6053924a54ca9f9ea6fa994d70bd9af5e6662a28b6137b62d605ffecd4643a94d8526f4b7a03db08dd92ba546d2bae49005963eea1f30492b25fd790925adb9adfa8ad0ec6c00e773a8347ad6e9c0e841ead70c2a60b2f59143b411655bfdd977aa1bfd5e54fbb14d97f14349a3ee855f1df4629e1f2aec51bc2ba0fef48c5320a4d71824048b57f74e073196a949f73e68d45c2800f2eb68e4a5c6ad23f41eb071a951aba31f9cdee95d7ee43577799ca84efb936a0e590fe2d2c2768e43e4308206b030820498a003020102020a190f31e8000000000003300d06092a864886f70d01010b05003056310b300906035504061302494c311d301b060355040a1314476f7665726e6d656e74206f662049737261656c312830260603550403131f476f7665726e6d656e74206f662049737261656c20526f6f74204341204732301e170d3133303232303039323833375a170d3238303232303039333833375a304a310b300906035504061302494c311d301b060355040a1314476f7665726e6d656e74206f662049737261656c311c301a0603550403131354414d555a2d4465766963657320434120473230820222300d06092a864886f70d01010105000382020f003082020a0282020100c8e848a8ba807c7fda9bdb591982b5597dbd74db11e7e3e1eb721b297128f19f7e855c14b28e9437a2d1e10a55d44200ea3df003f1b8e84242da166d6076ff1826724eaf46e9411f49482b19ff9fa37fbda494ccaecebb56111d8a6b23d042a99b776c487d19b0c141a253b2795d0f0d389845453e835293b7ceb978d5a989c6e25d13b06596fa07459afb1caebc61f478b098f3540542f8d819ad4066252d24a185802e25b5c6fbade6a9885fb1032b7d5b13c4d3766c079c4ce37b47a8805565fc7ef562b9278a9089dd124eccff05a0ddf54c4a0685a040cca55055598ae880177964096b1e17c1e262e53ce5e59420b029ac51f42b1cfd5bf59ee4d8f32f065fc74ed462200a79ff56b2a7194f5cadf2aee4a5e45c431d58f0469a5a3ba8f85f95e6de4db858594c34a2e860eb8010601f08364c7af8b37c599bd31076408b9653165a1e35eb02455465b297d10d16918dfe0e3aba32b7380147f903f9c1457cccde756d743907586c41dffc83ddfb7bc16ad83bf2869a7af8283363c12759e169e336fd8999ad3d6c5541c3318117b94eeb8a7c6af401b85f18584084837db89248378a726ff92e16c87cc4179acff3e550b19666729578afee9711e83dadeb246a6cc240a0e5352a18071bb8f084729fe69dc85391d44cce8f9639a9b3dad122ccf530e6e4b8a10f4b244b39a1aee887e5c27418bdc98b2e4d63306b970203010001a382018a3082018630120603551d130101ff040830060101ff020101301d0603551d0e04160414b543d00ec460f968f3803ed8f450967d6c99d969300b0603551d0f040403020186301006092b06010401823715010403020100301906092b0601040182371402040c1e0a00530075006200430041301f0603551d23041830168014be5407c26b9c7dd9f83943b8a0f6974d4499a03a306e0603551d1f046730653063a061a05f862d687474703a2f2f63726c2e74616d757a2e676f762e696c2f7075626c69632f54616d757a52636147322e63726c862e687474703a2f2f63726c322e74616d757a2e676f762e696c2f7075626c69632f54616d757a52636147322e63726c30818506082b0601050507010104793077303906082b06010505073001862d687474703a2f2f63726c2e74616d757a2e676f762e696c2f7075626c69632f54616d757a52636147322e636572303a06082b06010505073001862e687474703a2f2f63726c322e74616d757a2e676f762e696c2f7075626c69632f54616d757a52636147322e636572300d06092a864886f70d01010b0500038202010058a690d1d4abd164ec917e3006b3ec8fed3a04b9b4ece1163d7f14e10c94429d9f8d4f984a8972b8b889f86b25cb96086ee65ea3b59c5d131a88697d8d629a3dc3470ba3682772b85a06b89d5cb3e50e55e41dd293e03aa3dd3ef170473d3d6a4efc8bab8f796b7ea997ad4438d40c52cb0ad09eed3621156542b422cf5e207227335ff6bb764167e83c7b7df57b34ea112b3422fdd70984ca5e6c04ca9e186274e87f0f73f5a5b3b9266f59b50baa241a137bea6b041d2b4d66819a3591297f4f522baa28d74994484dc595d3f8ca89bc0ce22d34b2bda10056c368b4e9ef5ba07dee570a661a919f2c81086664d15a0c332eadf0e36a36d97e60c11c92ba4100f12fd7852709f213e21902db44d837b5a784a96d929cafe86d291dd60ffce4c57d98565ae1187f161c9e206c469296d00f833f2d099363830da81e5e406d396a1014c5ac3b664cd67c31e79cafb0acf6c4b9fdc08a4f64e5b060cdc4dd49aeb8ad7559c63a92dc8d3564558d94cce1d6d23301ae428ca8ad5b2dc3560dadf44e2ef3886b4393577ea626faa15fe42a4f8ad107a63127cd46245f99245e1120642413c3b4e3221d000814d2406769806e9e4806812027e565d3bee9e6470a2f130277e58da73ecf6e7a6304aaf27f50bd8365929ec6f1164188cf6697d1c84cfcb262423c0ce578f630e5135816070790977d9ddacff7e3ca186e3c4de652563182
##300b06092a864886f70d010701a0820c75308205bd308203a5a003020102020a4595e16d00000000072d300d06092a864886f70d01010b0500304a310b300906035504061302494c311d301b060355040a1314476f7665726e6d656e74206f662049737261656c311c301a0603550403131354414d555a2d44657669636573204341204732301e170d3133303830363133323831365a170d3138303830353133323831365a301e311c301a06035504030c134d696e69737472795f4f665f4a75737469636530820122300d06092a864886f70d01010105000382010f003082010a0282010100c72cf87e639d32e5859f7dbbaa8645fde7c1b539b05c9424ea63422077a4de121b1fbd7ebde38f270251e93c3efb08a21a3c137e62784e3d74c47032442c369acc605d1583550655a7926c0db3a0629509cf127f8e9845444f10e74bce45e40ac65ede2e0ceceeacc664d3151ca06843720e2542fd1c555ca789ca4438a84c999072676415c83827f3f27a7f055f0b7238a2fc8f7f23f010e035750859c86b3b7f424a78b57725e6a166437039566bd7cd07be53d4c45c14cba3ac6f4d9153f4d044cc5ec8becfdda849c1f30d1f29b8f811c0098ab25fbb6a862d03abe6f6494c15958aa720f7f625652b6127bf3ec5e5e50ada621b2aee96cbebd6e1a61c5b0203010001a38201cf308201cb300b0603551d0f0404030204b0301d0603551d250416301406082b0601050507030206082b06010505070301301d0603551d0e04160414445e8317c23fbefd6a664f8bf8ca5d2e498e069f301f0603551d23041830168014b543d00ec460f968f3803ed8f450967d6c99d969306e0603551d1f046730653063a061a05f862d687474703a2f2f63726c2e74616d757a2e676f762e696c2f7075626c69632f54616d757a44657647322e63726c862e687474703a2f2f63726c322e74616d757a2e676f762e696c2f7075626c69632f54616d757a44657647322e63726c30818506082b0601050507010104793077303906082b06010505073002862d687474703a2f2f63726c2e74616d757a2e676f762e696c2f7075626c69632f54616d757a44657647322e636572303a06082b06010505073002862e687474703a2f2f63726c322e74616d757a2e676f762e696c2f7075626c69632f54616d757a44657647322e636572303c06092b0601040182371507042f302d06252b06010401823715088280812c82fad93881f59532f6f15382acad0a188794ce458586cc74020164020108302706092b060104018237150a041a3018300a06082b06010505070302300a06082b06010505070301300d06092a864886f70d01010b0500038202010038887bb6e7437666469818357a9fe1f4ffeb6015b610ae9ff02056e132dffd9d99b1a5ab76aac06bc0d47e07016232f2be2c6f1529424267c6170bd7ad2e53d0c60a42d18171c22840e5c5b143b115a25a0e49de4b75638d6eeb8d8fb6501839e9df62f2358fd3c4f8143f9783ed37c0775dd41ca797853736c073f81da662b4e6f11670fed47052bec34239c499c620b68531ad50bd9c6fc71e9d76d2af0fa2e011375eede18fa5d39107d8df040bdcf5e4678ba655854386c42ea2ea77c6259b62ed4e31b8949eaca635f3195ae372e7b91c57d7b82c44150db6dd82095cf993ccc054cf4c5938a7b42f03c8f7b9ee91150dbe897404d5162bd7a7664b58465b193e867565d77b6e8c1f352e6ad4dac1a6ab156893d5499f5bc0c6046be5ae9ce71e0c2c6dbc062ee65693303605d1ce998d57f47483cd12703d334a2fdce6f6053924a54ca9f9ea6fa994d70bd9af5e6662a28b6137b62d605ffecd4643a94d8526f4b7a03db08dd92ba546d2bae49005963eea1f30492b25fd790925adb9adfa8ad0ec6c00e773a8347ad6e9c0e841ead70c2a60b2f59143b411655bfdd977aa1bfd5e54fbb14d97f14349a3ee855f1df4629e1f2aec51bc2ba0fef48c5320a4d71824048b57f74e073196a949f73e68d45c2800f2eb68e4a5c6ad23f41eb071a951aba31f9cdee95d7ee43577799ca84efb936a0e590fe2d2c2768e43e4308206b030820498a003020102020a190f31e8000000000003300d06092a864886f70d01010b05003056310b300906035504061302494c311d301b060355040a1314476f7665726e6d656e74206f662049737261656c312830260603550403131f476f7665726e6d656e74206f662049737261656c20526f6f74204341204732301e170d3133303232303039323833375a170d3238303232303039333833375a304a310b300906035504061302494c311d301b060355040a1314476f7665726e6d656e74206f662049737261656c311c301a0603550403131354414d555a2d4465766963657320434120473230820222300d06092a864886f70d01010105000382020f003082020a0282020100c8e848a8ba807c7fda9bdb591982b5597dbd74db11e7e3e1eb721b297128f19f7e855c14b28e9437a2d1e10a55d44200ea3df003f1b8e84242da166d6076ff1826724eaf46e9411f49482b19ff9fa37fbda494ccaecebb56111d8a6b23d042a99b776c487d19b0c141a253b2795d0f0d389845453e835293b7ceb978d5a989c6e25d13b06596fa07459afb1caebc61f478b098f3540542f8d819ad4066252d24a185802e25b5c6fbade6a9885fb1032b7d5b13c4d3766c079c4ce37b47a8805565fc7ef562b9278a9089dd124eccff05a0ddf54c4a0685a040cca55055598ae880177964096b1e17c1e262e53ce5e59420b029ac51f42b1cfd5bf59ee4d8f32f065fc74ed462200a79ff56b2a7194f5cadf2aee4a5e45c431d58f0469a5a3ba8f85f95e6de4db858594c34a2e860eb8010601f08364c7af8b37c599bd31076408b9653165a1e35eb02455465b297d10d16918dfe0e3aba32b7380147f903f9c1457cccde756d743907586c41dffc83ddfb7bc16ad83bf2869a7af8283363c12759e169e336fd8999ad3d6c5541c3318117b94eeb8a7c6af401b85f18584084837db89248378a726ff92e16c87cc4179acff3e550b19666729578afee9711e83dadeb246a6cc240a0e5352a18071bb8f084729fe69dc85391d44cce8f9639a9b3dad122ccf530e6e4b8a10f4b244b39a1aee887e5c27418bdc98b2e4d63306b970203010001a382018a3082018630120603551d130101ff040830060101ff020101301d0603551d0e04160414b543d00ec460f968f3803ed8f450967d6c99d969300b0603551d0f040403020186301006092b06010401823715010403020100301906092b0601040182371402040c1e0a00530075006200430041301f0603551d23041830168014be5407c26b9c7dd9f83943b8a0f6974d4499a03a306e0603551d1f046730653063a061a05f862d687474703a2f2f63726c2e74616d757a2e676f762e696c2f7075626c69632f54616d757a52636147322e63726c862e687474703a2f2f63726c322e74616d757a2e676f762e696c2f7075626c69632f54616d757a52636147322e63726c30818506082b0601050507010104793077303906082b06010505073001862d687474703a2f2f63726c2e74616d757a2e676f762e696c2f7075626c69632f54616d757a52636147322e636572303a06082b06010505073001862e687474703a2f2f63726c322e74616d757a2e676f762e696c2f7075626c69632f54616d757a52636147322e636572300d06092a864886f70d01010b0500038202010058a690d1d4abd164ec917e3006b3ec8fed3a04b9b4ece1163d7f14e10c94429d9f8d4f984a8972b8b889f86b25cb96086ee65ea3b59c5d131a88697d8d629a3dc3470ba3682772b85a06b89d5cb3e50e55e41dd293e03aa3dd3ef170473d3d6a4efc8bab8f796b7ea997ad4438d40c52cb0ad09eed3621156542b422cf5e207227335ff6bb764167e83c7b7df57b34ea112b3422fdd70984ca5e6c04ca9e186274e87f0f73f5a5b3b9266f59b50baa241a137bea6b041d2b4d66819a3591297f4f522baa28d74994484dc595d3f8ca89bc0ce22d34b2bda10056c368b4e9ef5ba07dee570a661a919f2c81086664d15a0c332eadf0e36a36d97e60c11c92ba4100f12fd7852709f213e21902db44d837b5a784a96d929cafe86d291dd60ffce4c57d98565ae1187f161c9e206c469296d00f833f2d099363830da81e5e406d396a1014c5ac3b664cd67c31e79cafb0acf6c4b9fdc08a4f64e5b060cdc4dd49aeb8ad7559c63a92dc8d3564558d94cce1d6d23301ae428ca8ad5b2dc3560dadf44e2ef3886b4393577ea626faa15fe42a4f8ad107a63127cd46245f99245e1120642413c3b4e3221d000814d2406769806e9e4806812027e565d3bee9e6470a2f130277e58da73ecf6e7a6304aaf27f50bd8365929ec6f1164188cf6697d1c84cfcb262423c0ce578f630e5135816070790977d9ddacff7e3ca186e3c4de652563182
519
כול
537
##311b3
##254414d555a
##657669636573
##0603550403131254414d555a
##310b300906035504061302494c311d301b060355040a1314476f7665726e6d656e74204f662049737261656c
##687474703a2f2f63726c2e74616d757a2e676f762e696c2f7075626c69632f74616d757a
##0190603550403131254414d555a
##049310b300906035504061302494c311d301b060355040a1314476f7665726e6d656e74204f662049737261656c
##862b687474703a2f2f63726c2e74616d757a2e676f762e696c2f7075626c69632f74616d757a
##2e637274
##2044657669636573
##202d2044657669636573
##311b30190603550403131254414d555a
##049310b300906035504061302494c311d301b060355040a1314476f7665726e6d656e74204f662049737261656c311b30190603550403131254414d555a
##202d2044657669636573204341
##049310b300906035504061302494c311d301b060355040a1314476f7665726e6d656e74204f662049737261656c311b30190603550403131254414d555a202d2044657669636573204341
##כנס
המוס
התשי
##בירות
##ומית
##חינת
##אלת
##ca04
371
הלי
קר
int
274
555
184
##0818
385
520
240
לנו
גור
000n
##יתי
בהליך
##דק
ga
113
##יעו
המשפטי
##טיב
##זיק
##נע
##83016
##01a301
##00a0818
##311c301a301
##a301806092a864886f70d010903310b06092a864886f70d010701301c06092a864886f70d010905310f1
##b060b2a864886f70d0109100
##02306092a864886f70d01090431
##020101310f300d06092a864886f70d0101050500
##20c311c301a301
##00a0818a301806092a864886f70d010903310b06092a864886f70d010701301c06092a864886f70d010905310f1
##b060b2a864886f70d010910020c311c301a301
##02306092a864886f70d0109043116
##b060b2a864886f70d010910020c311c301a30183016
279
ay
הראש
בתוקף
##699
היתה
##גש
349
##0014
455
smask
##וצה
176
נמצא
סמכות
עת
כאן
ואף
##ורי
##שע
##one
במהלך
##יקר
##גה
מעמד
##996
341
2008
העובדה
החברה
בשנת
##ls
180
למוחזק
##22f
מט
##חו
##לוקת
##סיק
##קבות
במע
##erp
ue
##073
##מצא
##נוע
בכתב
2018
io
##ורר
##99829
##tn
מתק
הליך
##866
##b8
363
##וטל
##צת
הסדר
pu
שכ
למופע
טענת
##786
##ספת
di
##קול
להם
##20
com
הוצאות
העונש
שנית
לער
רוב
2020
##no
402
237
תחילת
##אן
מנהל
תה
##none
pagelayout
usenone
##יוד
נערך
317
שחרורו
התו
מני
נסיבות
##יאות
האינטרס
##שטיין
##כח
רע
115
1993
sa¸y€b°
119
##047
##נייה
705
270
ca
מבקש
##אשם
##00005
337
##ימוע
131
טענה
##ya
מורה
122
par
בהקשר
שיקול
יאוחר
שהיית
##תיקון
##na
##ערכת
עבירות
הגיש
567
##ula
##put
##וים
##יוב
728
interp
מפ
##od
##ודש
##olate
img0
יצ
interpolate
המשותף
הייתה
##jt
##033313
##שא
התייחס
232
metad
metadata
חשש
##lep
##ינים
##o×
faaaaj
sing
##צות
##action
149
529
בשבתו
בפועל
openaction
##lepage
singlepage
##pl
117
##act
כבית
##289
mar
339
מעת
76900005
##71a
part
##9e
eh
##יבים
1991
##תום
##יצוי
##c23
##נתו
עסק
##כנון
372
##ינתי
לביט
##2dd
f3
##ריות
שלי
חוות
##חתה
הזכות
f13
000b
877
הכר
##02b060b2a864886f70d010910020c311c301a30183016
##002
900024
299988
ההגירה
##873
##לילי
##e09
רכ
ie
##ועבר
##195
##דרה
קטן
פרק
חוזר
העיר
451
יו
##dit
שופט
##4ad
##מית
##יסה
775
תב
##חזק
##323
108
##31313
לז
שהיה
774
##יהו
##ono
121
##77f
##704
שיפוטית
לחזור
##sa
מאסר
##16c
להיות
239
116
##183
357
##יעור
output
מעבר
1952
הסכם
##יוחד
אישור
המצדיק
##מכת
##aaa
##גוד
##ym
באי
יר
סכום
##tu
לכא
##ינות
והמ
f4
##1db
dr
##you
##גון
סיכ
##שבון
cl
עילה
##go
##432d
##746
173
##596
לבקשת
dis
האישום
החק
##999969
142
בערעור
האפשר
235
הנוגע
##מורה
מישראל
##36
##15d
קוד
##911
הדעת
למק
מצב
שליש
בשפה
להורות
נגדו
##1fa
2017
במקום
בהקדם
יל
נדחית
##88d
##ver
בעקבות
שת
טוען
##04f
you
comp
##טרם
##ich
##72e
719
ות
##cw
העיק
##vv
structparents
עליה
המקרקעין
242
הינו
התי
##וכנות
878
מכל
yi
שהת
לבחון
##zu
##ופי
##play
display
##ind
##ולת
##בון
##ari
הראשונה
cor
##ופו
בכפוף
##ða
סביר
עצמו
אחרים
subject
##por
למערער
##eby
##נד
להידחות
##43a
##ננת
521
נה
see
##ווח
##ial
אנו
timesnewromanpsmt
##uuuu
##ודן
##f7
which
##גם
רח
##8313
##048
##יוני
##rap
עבודה
כהן
##f3d
right
הני
להגיש
mark
##bff
הבלתי
להגשת
אגף
##501
כתב
ור
##e61
##יך
az
whe
corpor
lzw
##uct
אינם
תקנה
כש
##onotype
##פיה
corporation
20new
20roman
##ish
משום
##ters
f1
##ve
monotype
פגם
under
הרחקה
from
contr
##ell
all
נוספים
הוגשה
##aim
וס
לאפשר
##ort
כלשה
kiv
rights
##גל
##version
בסך
only
##vid
compu
kivun
computers
##sing
##elo
publ
##יקורת
לשקול
##749
##les
##bedd
pur
רב
##נם
joi
##e05
האג
product
##043
##ated
but
##ection
##זו
משמעות
##ove
##כרז
ובמ
non
##דש
her
##mpor
##טור
exp
##7ca
דעתו
בעתירה
צה
##49b
##בורה
##arily
נעשה
tempor
##עיפים
char
typ
document
##ובי
dist
##ograp
##ited
down
##load
help
persons
restrictions
imp
##ography
temporarily
contract
download
##0022
##gg
embedd
printer
typography
embedding
hol
שאינו
partic
##7265
provid
limited
##3a5
##nis
dam
##ings
##tain
##ders
whether
נכנסתי
##itation
purpose
##647
condit
free
descrip
##ability
##soci
subst
description
claim
##ress
associ
tort
##ts
692
provided
##sign®
particular
##583
fur
##זכיר
##fri
liability
##wise
81999969
קבלת
otherwise
substant
502
##סת
conn
event
conditions
limitation
זמ
##rr
damages
grant
distri
substantial
##690a
based
obtain
##pedia
charge
##028d
express
hereby
arising
יובא
joint
liable
##fringe
lea
above
connection
##fringement
applies
whom
##lied
granted
source
modi
sell
##2b86
יוד
wikipedia
eula
##ails
kind
files
associated
publish
modify
##bute
implied
develo
developed
merch
iy
restriction
##tness
documentation
obtaining
fitness
details
warranty
distribute
##nished
holders
merchant
authors
warranties
nonin
furnished
jointly
subl
merge
dealings
merchantability
noninfringement
sublicense
embedded
##b4d
שבע
##3u
##7475
פני
##סה
##טי
##3133
##6e02
##e4c
##5ee
##9f2a
שהוג
##ינם
##גיעה
##9ff
##21ac
##831353
##2073
##6f53
שהב
##דון
בשם
##2313831353
##ידת
##abs
בהן
שבפני
תג
arx
היוע
##9746
##99805
123
##206279
20co
##20436f53
4469676
##69676eae
##69676e61
##16c2073
##7265206279
##74757265206279
##974616c2073
##20436f5369676eae
4469676974616c2073
##69676e6174757265206279
4469676974616c207369676e6174757265206279
4469676974616c207369676e617475726520627920436f5369676eae
282
למד
##ימים
המועצה
tabs
בטעות
השר
##נתה
000y
##6302
שנה
הראיות
##ky
##bd6
שימוש
השחרור
141
במס
##itle
הצורך
והוא
leading
בענייננו
מנהליים
חייב
הצב
834
##חים
מוג
הוכ
420
לבקשה
##צור
##ינתן
208
##ליטים
fal
##אלי
##דיניות
העל
##1c5
##יטת
##02f
ושה
שעל
המשנה
בהמשך
##5a3
##a081
##jb
האזרח
לעשות
##686
קיו
##רחקה
נב
##43022
##ka
למשל
##03706
##ריים
##00d06096086480165030402010500
##וקש
##300d06096086480165030402010500
##31283026302
##06092a864886f70d0109043122
##020101310f300d06096086480165030402010500
##0b2a864886f70d010910022f
##43022042
##00d06096086480165030402010500a081
##3128302630243022042
##0b2a864886f70d010910022f3128302630243022042
##037060b2a864886f70d010910022f3128302630243022042
##כמת
##פצ
##8c3
##ac9
במידה
##ילים
677
##ינשטיין
##0c5
##56dd
dest
##אג
##074
##bi
שהיא
##וגיה
013
הראשון
הרב
יחד
##c40f
##dd8
001
##1f93
##224c
##oooo
##bd6d
##088
1010
188
##5e01
תיקון
לשחר
החריג
##031c
198
רישיון
118
עז
##ודות
##aþ
tz
הליכי
ואולם
187
##דרי
היועץ
182
לדחות
שונים
false
מסוי
שהג
דברים
128
title
##tree
433
צורך
##4979
##144
646
תל
##פל
423
##מוך
מלא
191
##00d06092a864886f70d010101050004820100
העתק
623
##87a
נכס
##ציב
שלו
##על
בניגוד
##011
אש
##1u
##9941
##671
##תר
הכלל
כלפי
רובינשטיין
##ברות
##ys
להרח
##כרעה
##יכוב
##ונים
מצאתי
טיפול
ליתן
##3b3
120
##8ab
מעש
dsy
500000
##iz
lzwdecode
4381
ts
##רונים
dsx
בהוצאות
ראוי
##us
להכ
##65a3
##נון
כו
##4341
##בית
##תיות
##xx
ראיות
##וקה
007
##eq
2665
##eca
##1dc
##ליטה
המל
הקודמת
##זון
408
##033
##aq
##pg
לממשלה
##98f
##צאת
##נהג
כבוד
##487
לפסק
##ורות
##oþ
הקודם
הפרט
033
318
שלפנינו
bor
אצל
##וחלט
החש
##ku
מכן
##02306092a864886f70d01090431160414
יסודה
##cc4
##שלום
תקנות
נציג
##c3f
border
##יונית
##טרת
##ומת
401
סה
##99585
##יתר
בפר
##0e69
##אותו
##736d
##999847
להתערב
##02148
##7777
##ומות
##oz
##026b
##ja
##דיקה
##ושא
מידע
xyz
מיוחד
##694d
##שום
##4f09
##862c
מאז
##0006
##וסר
תשלום
##6361
##ילוי
קיים
##בריאות
##7264
##וחרר
##גב
שתי
מוע
##89b
חריג
##טה
##713
##020105
##7c709
שבתום
##4b306
##63647
##9165f
מוצע
##cc9d8
##617274
##646576
##524341
##2f74616d757a
##687474703a2f2f63647
##300d06092a864886f70d01010505003
##02e736d
##153f9165f
##0380e69
##300d06092a864886f70d01010505000382
##862b687474703a2f2f63726c2e74616d757a2e676f762e696c2f7075626c69632f74616d757a446576
##2e6372743
##026b7c709
##4f094b306
##862c687474703a2f2f63647
##63617264
##cc9d8026b7c709
##61727463617264
##2f74616d757a646576
##02e736d61727463617264
##153f9165f0380e69
##4f094b306cc9d8026b7c709
##862c687474703a2f2f6364702e736d61727463617264
##4f094b306cc9d8026b7c709153f9165f0380e69
##862c687474703a2f2f6364702e736d617274636172642e676f762e696c2f
921
427
עבור
##קד
##6c6
166
בנוסף
##9953
הכס
##70d3133
הציבורי
קשר
בתקלה
os
לדיון
##1574
במח
152
##וררות
##ef1
ממועד
137
פעולה
##4dbd
##רכוש
035
##ss
ממונה
רצ
##jj
לקבלת
אותם
145
##øuuuu
##ord
##0eae
ועד
ההרחקה
##wa
469
##0ec1
##665
רפואית
הפס
ah
##ne
##עין
##uq
138
568
סהרונים
##a0b
541
סדר
947
##נח
##02103
אפוא
##ולי
##759
##סור
##7d10f
##23082
חברי
##0414979
##21acd9
##4dbd8c3
##0c0201013058304a310b300906035504061302494c311d301b060355040a1314476f7665726e6d656e74206f662049737261656c311c301a0603550403131354414d555a2d44657669636573204341204732020a
##050500a0818a301806092a864886f70d010903310b06092a864886f70d010701301c06092a864886f70d010905310f1
##c6f2dd
##4241574
##0eb23082
##4595e16d00000000072d300d06092a864886f70d0101050500a0818a301806092a864886f70d010903310b06092a864886f70d010701301c06092a864886f70d010905310f1
30820ec1
##06092a864886f70d010702a0820eb23082
##48f21acd9
##082020c0201013058304a310b300906035504061302494c311d301b060355040a1314476f7665726e6d656e74206f662049737261656c311c301a0603550403131354414d555a2d44657669636573204341204732020a
##300b06092a864886f70d010701a0820c75308205bd308203a5a003020102020a4595e16d00000000072d300d06092a864886f70d01010b0500304a310b300906035504061302494c311d301b060355040a1314476f7665726e6d656e74206f662049737261656c311c301a0603550403131354414d555a2d44657669636573204341204732301e170d3133303830363133323831365a170d3138303830353133323831365a301e311c301a06035504030c134d696e69737472795f4f665f4a75737469636530820122300d06092a864886f70d01010105000382010f003082010a0282010100c72cf87e639d32e5859f7dbbaa8645fde7c1b539b05c9424ea63422077a4de121b1fbd7ebde38f270251e93c3efb08a21a3c137e62784e3d74c47032442c369acc605d1583550655a7926c0db3a0629509cf127f8e9845444f10e74bce45e40ac65ede2e0ceceeacc664d3151ca06843720e2542fd1c555ca789ca4438a84c999072676415c83827f3f27a7f055f0b7238a2fc8f7f23f010e035750859c86b3b7f424a78b57725e6a166437039566bd7cd07be53d4c45c14cba3ac6f4d9153f4d044cc5ec8becfdda849c1f30d1f29b8f811c0098ab25fbb6a862d03abe6f6494c15958aa720f7f625652b6127bf3ec5e5e50ada621b2aee96cbebd6e1a61c5b0203010001a38201cf308201cb300b0603551d0f0404030204b0301d0603551d250416301406082b0601050507030206082b06010505070301301d0603551d0e04160414445e8317c23fbefd6a664f8bf8ca5d2e498e069f301f0603551d23041830168014b543d00ec460f968f3803ed8f450967d6c99d969306e0603551d1f046730653063a061a05f862d687474703a2f2f63726c2e74616d757a2e676f762e696c2f7075626c69632f54616d757a44657647322e63726c862e687474703a2f2f63726c322e74616d757a2e676f762e696c2f7075626c69632f54616d757a44657647322e63726c30818506082b0601050507010104793077303906082b06010505073002862d687474703a2f2f63726c2e74616d757a2e676f762e696c2f7075626c69632f54616d757a44657647322e636572303a06082b06010505073002862e687474703a2f2f63726c322e74616d757a2e676f762e696c2f7075626c69632f54616d757a44657647322e636572303c06092b0601040182371507042f302d06252b06010401823715088280812c82fad93881f59532f6f15382acad0a188794ce458586cc74020164020108302706092b060104018237150a041a3018300a06082b06010505070302300a06082b06010505070301300d06092a864886f70d01010b0500038202010038887bb6e7437666469818357a9fe1f4ffeb6015b610ae9ff02056e132dffd9d99b1a5ab76aac06bc0d47e07016232f2be2c6f1529424267c6170bd7ad2e53d0c60a42d18171c22840e5c5b143b115a25a0e49de4b75638d6eeb8d8fb6501839e9df62f2358fd3c4f8143f9783ed37c0775dd41ca797853736c073f81da662b4e6f11670fed47052bec34239c499c620b68531ad50bd9c6fc71e9d76d2af0fa2e011375eede18fa5d39107d8df040bdcf5e4678ba655854386c42ea2ea77c6259b62ed4e31b8949eaca635f3195ae372e7b91c57d7b82c44150db6dd82095cf993ccc054cf4c5938a7b42f03c8f7b9ee91150dbe897404d5162bd7a7664b58465b193e867565d77b6e8c1f352e6ad4dac1a6ab156893d5499f5bc0c6046be5ae9ce71e0c2c6dbc062ee65693303605d1ce998d57f47483cd12703d334a2fdce6f6053924a54ca9f9ea6fa994d70bd9af5e6662a28b6137b62d605ffecd4643a94d8526f4b7a03db08dd92ba546d2bae49005963eea1f30492b25fd790925adb9adfa8ad0ec6c00e773a8347ad6e9c0e841ead70c2a60b2f59143b411655bfdd977aa1bfd5e54fbb14d97f14349a3ee855f1df4629e1f2aec51bc2ba0fef48c5320a4d71824048b57f74e073196a949f73e68d45c2800f2eb68e4a5c6ad23f41eb071a951aba31f9cdee95d7ee43577799ca84efb936a0e590fe2d2c2768e43e4308206b030820498a003020102020a190f31e8000000000003300d06092a864886f70d01010b05003056310b300906035504061302494c311d301b060355040a1314476f7665726e6d656e74206f662049737261656c312830260603550403131f476f7665726e6d656e74206f662049737261656c20526f6f74204341204732301e170d3133303232303039323833375a170d3238303232303039333833375a304a310b300906035504061302494c311d301b060355040a1314476f7665726e6d656e74206f662049737261656c311c301a0603550403131354414d555a2d4465766963657320434120473230820222300d06092a864886f70d01010105000382020f003082020a0282020100c8e848a8ba807c7fda9bdb591982b5597dbd74db11e7e3e1eb721b297128f19f7e855c14b28e9437a2d1e10a55d44200ea3df003f1b8e84242da166d6076ff1826724eaf46e9411f49482b19ff9fa37fbda494ccaecebb56111d8a6b23d042a99b776c487d19b0c141a253b2795d0f0d389845453e835293b7ceb978d5a989c6e25d13b06596fa07459afb1caebc61f478b098f3540542f8d819ad4066252d24a185802e25b5c6fbade6a9885fb1032b7d5b13c4d3766c079c4ce37b47a8805565fc7ef562b9278a9089dd124eccff05a0ddf54c4a0685a040cca55055598ae880177964096b1e17c1e262e53ce5e59420b029ac51f42b1cfd5bf59ee4d8f32f065fc74ed462200a79ff56b2a7194f5cadf2aee4a5e45c431d58f0469a5a3ba8f85f95e6de4db858594c34a2e860eb8010601f08364c7af8b37c599bd31076408b9653165a1e35eb02455465b297d10d16918dfe0e3aba32b7380147f903f9c1457cccde756d743907586c41dffc83ddfb7bc16ad83bf2869a7af8283363c12759e169e336fd8999ad3d6c5541c3318117b94eeb8a7c6af401b85f18584084837db89248378a726ff92e16c87cc4179acff3e550b19666729578afee9711e83dadeb246a6cc240a0e5352a18071bb8f084729fe69dc85391d44cce8f9639a9b3dad122ccf530e6e4b8a10f4b244b39a1aee887e5c27418bdc98b2e4d63306b970203010001a382018a3082018630120603551d130101ff040830060101ff020101301d0603551d0e04160414b543d00ec460f968f3803ed8f450967d6c99d969300b0603551d0f040403020186301006092b06010401823715010403020100301906092b0601040182371402040c1e0a00530075006200430041301f0603551d23041830168014be5407c26b9c7dd9f83943b8a0f6974d4499a03a306e0603551d1f046730653063a061a05f862d687474703a2f2f63726c2e74616d757a2e676f762e696c2f7075626c69632f54616d757a52636147322e63726c862e687474703a2f2f63726c322e74616d757a2e676f762e696c2f7075626c69632f54616d757a52636147322e63726c30818506082b0601050507010104793077303906082b06010505073001862d687474703a2f2f63726c2e74616d757a2e676f762e696c2f7075626c69632f54616d757a52636147322e636572303a06082b06010505073001862e687474703a2f2f63726c322e74616d757a2e676f762e696c2f7075626c69632f54616d757a52636147322e636572300d06092a864886f70d01010b0500038202010058a690d1d4abd164ec917e3006b3ec8fed3a04b9b4ece1163d7f14e10c94429d9f8d4f984a8972b8b889f86b25cb96086ee65ea3b59c5d131a88697d8d629a3dc3470ba3682772b85a06b89d5cb3e50e55e41dd293e03aa3dd3ef170473d3d6a4efc8bab8f796b7ea997ad4438d40c52cb0ad09eed3621156542b422cf5e207227335ff6bb764167e83c7b7df57b34ea112b3422fdd70984ca5e6c04ca9e186274e87f0f73f5a5b3b9266f59b50baa241a137bea6b041d2b4d66819a3591297f4f522baa28d74994484dc595d3f8ca89bc0ce22d34b2bda10056c368b4e9ef5ba07dee570a661a919f2c81086664d15a0c332eadf0e36a36d97e60c11c92ba4100f12fd7852709f213e21902db44d837b5a784a96d929cafe86d291dd60ffce4c57d98565ae1187f161c9e206c469296d00f833f2d099363830da81e5e406d396a1014c5ac3b664cd67c31e79cafb0acf6c4b9fdc08a4f64e5b060cdc4dd49aeb8ad7559c63a92dc8d3564558d94cce1d6d23301ae428ca8ad5b2dc3560dadf44e2ef3886b4393577ea626faa15fe42a4f8ad107a63127cd46245f99245e1120642413c3b4e3221d000814d2406769806e9e4806812027e565d3bee9e6470a2f130277e58da73ecf6e7a6304aaf27f50bd8365929ec6f1164188cf6697d1c84cfcb262423c0ce578f630e5135816070790977d9ddacff7e3ca186e3c4de65256318202103
##ca044dbd8c3
##020101310f300d06092a864886f70d0101050500300b06092a864886f70d010701a0820c75308205bd308203a5a003020102020a4595e16d00000000072d300d06092a864886f70d01010b0500304a310b300906035504061302494c311d301b060355040a1314476f7665726e6d656e74206f662049737261656c311c301a0603550403131354414d555a2d44657669636573204341204732301e170d3133303830363133323831365a170d3138303830353133323831365a301e311c301a06035504030c134d696e69737472795f4f665f4a75737469636530820122300d06092a864886f70d01010105000382010f003082010a0282010100c72cf87e639d32e5859f7dbbaa8645fde7c1b539b05c9424ea63422077a4de121b1fbd7ebde38f270251e93c3efb08a21a3c137e62784e3d74c47032442c369acc605d1583550655a7926c0db3a0629509cf127f8e9845444f10e74bce45e40ac65ede2e0ceceeacc664d3151ca06843720e2542fd1c555ca789ca4438a84c999072676415c83827f3f27a7f055f0b7238a2fc8f7f23f010e035750859c86b3b7f424a78b57725e6a166437039566bd7cd07be53d4c45c14cba3ac6f4d9153f4d044cc5ec8becfdda849c1f30d1f29b8f811c0098ab25fbb6a862d03abe6f6494c15958aa720f7f625652b6127bf3ec5e5e50ada621b2aee96cbebd6e1a61c5b0203010001a38201cf308201cb300b0603551d0f0404030204b0301d0603551d250416301406082b0601050507030206082b06010505070301301d0603551d0e04160414445e8317c23fbefd6a664f8bf8ca5d2e498e069f301f0603551d23041830168014b543d00ec460f968f3803ed8f450967d6c99d969306e0603551d1f046730653063a061a05f862d687474703a2f2f63726c2e74616d757a2e676f762e696c2f7075626c69632f54616d757a44657647322e63726c862e687474703a2f2f63726c322e74616d757a2e676f762e696c2f7075626c69632f54616d757a44657647322e63726c30818506082b0601050507010104793077303906082b06010505073002862d687474703a2f2f63726c2e74616d757a2e676f762e696c2f7075626c69632f54616d757a44657647322e636572303a06082b06010505073002862e687474703a2f2f63726c322e74616d757a2e676f762e696c2f7075626c69632f54616d757a44657647322e636572303c06092b0601040182371507042f302d06252b06010401823715088280812c82fad93881f59532f6f15382acad0a188794ce458586cc74020164020108302706092b060104018237150a041a3018300a06082b06010505070302300a06082b06010505070301300d06092a864886f70d01010b0500038202010038887bb6e7437666469818357a9fe1f4ffeb6015b610ae9ff02056e132dffd9d99b1a5ab76aac06bc0d47e07016232f2be2c6f1529424267c6170bd7ad2e53d0c60a42d18171c22840e5c5b143b115a25a0e49de4b75638d6eeb8d8fb6501839e9df62f2358fd3c4f8143f9783ed37c0775dd41ca797853736c073f81da662b4e6f11670fed47052bec34239c499c620b68531ad50bd9c6fc71e9d76d2af0fa2e011375eede18fa5d39107d8df040bdcf5e4678ba655854386c42ea2ea77c6259b62ed4e31b8949eaca635f3195ae372e7b91c57d7b82c44150db6dd82095cf993ccc054cf4c5938a7b42f03c8f7b9ee91150dbe897404d5162bd7a7664b58465b193e867565d77b6e8c1f352e6ad4dac1a6ab156893d5499f5bc0c6046be5ae9ce71e0c2c6dbc062ee65693303605d1ce998d57f47483cd12703d334a2fdce6f6053924a54ca9f9ea6fa994d70bd9af5e6662a28b6137b62d605ffecd4643a94d8526f4b7a03db08dd92ba546d2bae49005963eea1f30492b25fd790925adb9adfa8ad0ec6c00e773a8347ad6e9c0e841ead70c2a60b2f59143b411655bfdd977aa1bfd5e54fbb14d97f14349a3ee855f1df4629e1f2aec51bc2ba0fef48c5320a4d71824048b57f74e073196a949f73e68d45c2800f2eb68e4a5c6ad23f41eb071a951aba31f9cdee95d7ee43577799ca84efb936a0e590fe2d2c2768e43e4308206b030820498a003020102020a190f31e8000000000003300d06092a864886f70d01010b05003056310b300906035504061302494c311d301b060355040a1314476f7665726e6d656e74206f662049737261656c312830260603550403131f476f7665726e6d656e74206f662049737261656c20526f6f74204341204732301e170d3133303232303039323833375a170d3238303232303039333833375a304a310b300906035504061302494c311d301b060355040a1314476f7665726e6d656e74206f662049737261656c311c301a0603550403131354414d555a2d4465766963657320434120473230820222300d06092a864886f70d01010105000382020f003082020a0282020100c8e848a8ba807c7fda9bdb591982b5597dbd74db11e7e3e1eb721b297128f19f7e855c14b28e9437a2d1e10a55d44200ea3df003f1b8e84242da166d6076ff1826724eaf46e9411f49482b19ff9fa37fbda494ccaecebb56111d8a6b23d042a99b776c487d19b0c141a253b2795d0f0d389845453e835293b7ceb978d5a989c6e25d13b06596fa07459afb1caebc61f478b098f3540542f8d819ad4066252d24a185802e25b5c6fbade6a9885fb1032b7d5b13c4d3766c079c4ce37b47a8805565fc7ef562b9278a9089dd124eccff05a0ddf54c4a0685a040cca55055598ae880177964096b1e17c1e262e53ce5e59420b029ac51f42b1cfd5bf59ee4d8f32f065fc74ed462200a79ff56b2a7194f5cadf2aee4a5e45c431d58f0469a5a3ba8f85f95e6de4db858594c34a2e860eb8010601f08364c7af8b37c599bd31076408b9653165a1e35eb02455465b297d10d16918dfe0e3aba32b7380147f903f9c1457cccde756d743907586c41dffc83ddfb7bc16ad83bf2869a7af8283363c12759e169e336fd8999ad3d6c5541c3318117b94eeb8a7c6af401b85f18584084837db89248378a726ff92e16c87cc4179acff3e550b19666729578afee9711e83dadeb246a6cc240a0e5352a18071bb8f084729fe69dc85391d44cce8f9639a9b3dad122ccf530e6e4b8a10f4b244b39a1aee887e5c27418bdc98b2e4d63306b970203010001a382018a3082018630120603551d130101ff040830060101ff020101301d0603551d0e04160414b543d00ec460f968f3803ed8f450967d6c99d969300b0603551d0f040403020186301006092b06010401823715010403020100301906092b0601040182371402040c1e0a00530075006200430041301f0603551d23041830168014be5407c26b9c7dd9f83943b8a0f6974d4499a03a306e0603551d1f046730653063a061a05f862d687474703a2f2f63726c2e74616d757a2e676f762e696c2f7075626c69632f54616d757a52636147322e63726c862e687474703a2f2f63726c322e74616d757a2e676f762e696c2f7075626c69632f54616d757a52636147322e63726c30818506082b0601050507010104793077303906082b06010505073001862d687474703a2f2f63726c2e74616d757a2e676f762e696c2f7075626c69632f54616d757a52636147322e636572303a06082b06010505073001862e687474703a2f2f63726c322e74616d757a2e676f762e696c2f7075626c69632f54616d757a52636147322e636572300d06092a864886f70d01010b0500038202010058a690d1d4abd164ec917e3006b3ec8fed3a04b9b4ece1163d7f14e10c94429d9f8d4f984a8972b8b889f86b25cb96086ee65ea3b59c5d131a88697d8d629a3dc3470ba3682772b85a06b89d5cb3e50e55e41dd293e03aa3dd3ef170473d3d6a4efc8bab8f796b7ea997ad4438d40c52cb0ad09eed3621156542b422cf5e207227335ff6bb764167e83c7b7df57b34ea112b3422fdd70984ca5e6c04ca9e186274e87f0f73f5a5b3b9266f59b50baa241a137bea6b041d2b4d66819a3591297f4f522baa28d74994484dc595d3f8ca89bc0ce22d34b2bda10056c368b4e9ef5ba07dee570a661a919f2c81086664d15a0c332eadf0e36a36d97e60c11c92ba4100f12fd7852709f213e21902db44d837b5a784a96d929cafe86d291dd60ffce4c57d98565ae1187f161c9e206c469296d00f833f2d099363830da81e5e406d396a1014c5ac3b664cd67c31e79cafb0acf6c4b9fdc08a4f64e5b060cdc4dd49aeb8ad7559c63a92dc8d3564558d94cce1d6d23301ae428ca8ad5b2dc3560dadf44e2ef3886b4393577ea626faa15fe42a4f8ad107a63127cd46245f99245e1120642413c3b4e3221d000814d2406769806e9e4806812027e565d3bee9e6470a2f130277e58da73ecf6e7a6304aaf27f50bd8365929ec6f1164188cf6697d1c84cfcb262423c0ce578f630e5135816070790977d9ddacff7e3ca186e3c4de65256318202103
##0eae020101310f300d06092a864886f70d0101050500300b06092a864886f70d010701a0820c75308205bd308203a5a003020102020a4595e16d00000000072d300d06092a864886f70d01010b0500304a310b300906035504061302494c311d301b060355040a1314476f7665726e6d656e74206f662049737261656c311c301a0603550403131354414d555a2d44657669636573204341204732301e170d3133303830363133323831365a170d3138303830353133323831365a301e311c301a06035504030c134d696e69737472795f4f665f4a75737469636530820122300d06092a864886f70d01010105000382010f003082010a0282010100c72cf87e639d32e5859f7dbbaa8645fde7c1b539b05c9424ea63422077a4de121b1fbd7ebde38f270251e93c3efb08a21a3c137e62784e3d74c47032442c369acc605d1583550655a7926c0db3a0629509cf127f8e9845444f10e74bce45e40ac65ede2e0ceceeacc664d3151ca06843720e2542fd1c555ca789ca4438a84c999072676415c83827f3f27a7f055f0b7238a2fc8f7f23f010e035750859c86b3b7f424a78b57725e6a166437039566bd7cd07be53d4c45c14cba3ac6f4d9153f4d044cc5ec8becfdda849c1f30d1f29b8f811c0098ab25fbb6a862d03abe6f6494c15958aa720f7f625652b6127bf3ec5e5e50ada621b2aee96cbebd6e1a61c5b0203010001a38201cf308201cb300b0603551d0f0404030204b0301d0603551d250416301406082b0601050507030206082b06010505070301301d0603551d0e04160414445e8317c23fbefd6a664f8bf8ca5d2e498e069f301f0603551d23041830168014b543d00ec460f968f3803ed8f450967d6c99d969306e0603551d1f046730653063a061a05f862d687474703a2f2f63726c2e74616d757a2e676f762e696c2f7075626c69632f54616d757a44657647322e63726c862e687474703a2f2f63726c322e74616d757a2e676f762e696c2f7075626c69632f54616d757a44657647322e63726c30818506082b0601050507010104793077303906082b06010505073002862d687474703a2f2f63726c2e74616d757a2e676f762e696c2f7075626c69632f54616d757a44657647322e636572303a06082b06010505073002862e687474703a2f2f63726c322e74616d757a2e676f762e696c2f7075626c69632f54616d757a44657647322e636572303c06092b0601040182371507042f302d06252b06010401823715088280812c82fad93881f59532f6f15382acad0a188794ce458586cc74020164020108302706092b060104018237150a041a3018300a06082b06010505070302300a06082b06010505070301300d06092a864886f70d01010b0500038202010038887bb6e7437666469818357a9fe1f4ffeb6015b610ae9ff02056e132dffd9d99b1a5ab76aac06bc0d47e07016232f2be2c6f1529424267c6170bd7ad2e53d0c60a42d18171c22840e5c5b143b115a25a0e49de4b75638d6eeb8d8fb6501839e9df62f2358fd3c4f8143f9783ed37c0775dd41ca797853736c073f81da662b4e6f11670fed47052bec34239c499c620b68531ad50bd9c6fc71e9d76d2af0fa2e011375eede18fa5d39107d8df040bdcf5e4678ba655854386c42ea2ea77c6259b62ed4e31b8949eaca635f3195ae372e7b91c57d7b82c44150db6dd82095cf993ccc054cf4c5938a7b42f03c8f7b9ee91150dbe897404d5162bd7a7664b58465b193e867565d77b6e8c1f352e6ad4dac1a6ab156893d5499f5bc0c6046be5ae9ce71e0c2c6dbc062ee65693303605d1ce998d57f47483cd12703d334a2fdce6f6053924a54ca9f9ea6fa994d70bd9af5e6662a28b6137b62d605ffecd4643a94d8526f4b7a03db08dd92ba546d2bae49005963eea1f30492b25fd790925adb9adfa8ad0ec6c00e773a8347ad6e9c0e841ead70c2a60b2f59143b411655bfdd977aa1bfd5e54fbb14d97f14349a3ee855f1df4629e1f2aec51bc2ba0fef48c5320a4d71824048b57f74e073196a949f73e68d45c2800f2eb68e4a5c6ad23f41eb071a951aba31f9cdee95d7ee43577799ca84efb936a0e590fe2d2c2768e43e4308206b030820498a003020102020a190f31e8000000000003300d06092a864886f70d01010b05003056310b300906035504061302494c311d301b060355040a1314476f7665726e6d656e74206f662049737261656c312830260603550403131f476f7665726e6d656e74206f662049737261656c20526f6f74204341204732301e170d3133303232303039323833375a170d3238303232303039333833375a304a310b300906035504061302494c311d301b060355040a1314476f7665726e6d656e74206f662049737261656c311c301a0603550403131354414d555a2d4465766963657320434120473230820222300d06092a864886f70d01010105000382020f003082020a0282020100c8e848a8ba807c7fda9bdb591982b5597dbd74db11e7e3e1eb721b297128f19f7e855c14b28e9437a2d1e10a55d44200ea3df003f1b8e84242da166d6076ff1826724eaf46e9411f49482b19ff9fa37fbda494ccaecebb56111d8a6b23d042a99b776c487d19b0c141a253b2795d0f0d389845453e835293b7ceb978d5a989c6e25d13b06596fa07459afb1caebc61f478b098f3540542f8d819ad4066252d24a185802e25b5c6fbade6a9885fb1032b7d5b13c4d3766c079c4ce37b47a8805565fc7ef562b9278a9089dd124eccff05a0ddf54c4a0685a040cca55055598ae880177964096b1e17c1e262e53ce5e59420b029ac51f42b1cfd5bf59ee4d8f32f065fc74ed462200a79ff56b2a7194f5cadf2aee4a5e45c431d58f0469a5a3ba8f85f95e6de4db858594c34a2e860eb8010601f08364c7af8b37c599bd31076408b9653165a1e35eb02455465b297d10d16918dfe0e3aba32b7380147f903f9c1457cccde756d743907586c41dffc83ddfb7bc16ad83bf2869a7af8283363c12759e169e336fd8999ad3d6c5541c3318117b94eeb8a7c6af401b85f18584084837db89248378a726ff92e16c87cc4179acff3e550b19666729578afee9711e83dadeb246a6cc240a0e5352a18071bb8f084729fe69dc85391d44cce8f9639a9b3dad122ccf530e6e4b8a10f4b244b39a1aee887e5c27418bdc98b2e4d63306b970203010001a382018a3082018630120603551d130101ff040830060101ff020101301d0603551d0e04160414b543d00ec460f968f3803ed8f450967d6c99d969300b0603551d0f040403020186301006092b06010401823715010403020100301906092b0601040182371402040c1e0a00530075006200430041301f0603551d23041830168014be5407c26b9c7dd9f83943b8a0f6974d4499a03a306e0603551d1f046730653063a061a05f862d687474703a2f2f63726c2e74616d757a2e676f762e696c2f7075626c69632f54616d757a52636147322e63726c862e687474703a2f2f63726c322e74616d757a2e676f762e696c2f7075626c69632f54616d757a52636147322e63726c30818506082b0601050507010104793077303906082b06010505073001862d687474703a2f2f63726c2e74616d757a2e676f762e696c2f7075626c69632f54616d757a52636147322e636572303a06082b06010505073001862e687474703a2f2f63726c322e74616d757a2e676f762e696c2f7075626c69632f54616d757a52636147322e636572300d06092a864886f70d01010b0500038202010058a690d1d4abd164ec917e3006b3ec8fed3a04b9b4ece1163d7f14e10c94429d9f8d4f984a8972b8b889f86b25cb96086ee65ea3b59c5d131a88697d8d629a3dc3470ba3682772b85a06b89d5cb3e50e55e41dd293e03aa3dd3ef170473d3d6a4efc8bab8f796b7ea997ad4438d40c52cb0ad09eed3621156542b422cf5e207227335ff6bb764167e83c7b7df57b34ea112b3422fdd70984ca5e6c04ca9e186274e87f0f73f5a5b3b9266f59b50baa241a137bea6b041d2b4d66819a3591297f4f522baa28d74994484dc595d3f8ca89bc0ce22d34b2bda10056c368b4e9ef5ba07dee570a661a919f2c81086664d15a0c332eadf0e36a36d97e60c11c92ba4100f12fd7852709f213e21902db44d837b5a784a96d929cafe86d291dd60ffce4c57d98565ae1187f161c9e206c469296d00f833f2d099363830da81e5e406d396a1014c5ac3b664cd67c31e79cafb0acf6c4b9fdc08a4f64e5b060cdc4dd49aeb8ad7559c63a92dc8d3564558d94cce1d6d23301ae428ca8ad5b2dc3560dadf44e2ef3886b4393577ea626faa15fe42a4f8ad107a63127cd46245f99245e1120642413c3b4e3221d000814d2406769806e9e4806812027e565d3bee9e6470a2f130277e58da73ecf6e7a6304aaf27f50bd8365929ec6f1164188cf6697d1c84cfcb262423c0ce578f630e5135816070790977d9ddacff7e3ca186e3c4de65256318202103
##7d10fc6f2dd
##04149794241574
30820ec106092a864886f70d010702a0820eb23082
##48f21acd9ca044dbd8c3
##082020c0201013058304a310b300906035504061302494c311d301b060355040a1314476f7665726e6d656e74206f662049737261656c311c301a0603550403131354414d555a2d44657669636573204341204732020a4595e16d00000000072d300d06092a864886f70d0101050500a0818a301806092a864886f70d010903310b06092a864886f70d010701301c06092a864886f70d010905310f1
##0eae020101310f300d06092a864886f70d0101050500300b06092a864886f70d010701a0820c75308205bd308203a5a003020102020a4595e16d00000000072d300d06092a864886f70d01010b0500304a310b300906035504061302494c311d301b060355040a1314476f7665726e6d656e74206f662049737261656c311c301a0603550403131354414d555a2d44657669636573204341204732301e170d3133303830363133323831365a170d3138303830353133323831365a301e311c301a06035504030c134d696e69737472795f4f665f4a75737469636530820122300d06092a864886f70d01010105000382010f003082010a0282010100c72cf87e639d32e5859f7dbbaa8645fde7c1b539b05c9424ea63422077a4de121b1fbd7ebde38f270251e93c3efb08a21a3c137e62784e3d74c47032442c369acc605d1583550655a7926c0db3a0629509cf127f8e9845444f10e74bce45e40ac65ede2e0ceceeacc664d3151ca06843720e2542fd1c555ca789ca4438a84c999072676415c83827f3f27a7f055f0b7238a2fc8f7f23f010e035750859c86b3b7f424a78b57725e6a166437039566bd7cd07be53d4c45c14cba3ac6f4d9153f4d044cc5ec8becfdda849c1f30d1f29b8f811c0098ab25fbb6a862d03abe6f6494c15958aa720f7f625652b6127bf3ec5e5e50ada621b2aee96cbebd6e1a61c5b0203010001a38201cf308201cb300b0603551d0f0404030204b0301d0603551d250416301406082b0601050507030206082b06010505070301301d0603551d0e04160414445e8317c23fbefd6a664f8bf8ca5d2e498e069f301f0603551d23041830168014b543d00ec460f968f3803ed8f450967d6c99d969306e0603551d1f046730653063a061a05f862d687474703a2f2f63726c2e74616d757a2e676f762e696c2f7075626c69632f54616d757a44657647322e63726c862e687474703a2f2f63726c322e74616d757a2e676f762e696c2f7075626c69632f54616d757a44657647322e63726c30818506082b0601050507010104793077303906082b06010505073002862d687474703a2f2f63726c2e74616d757a2e676f762e696c2f7075626c69632f54616d757a44657647322e636572303a06082b06010505073002862e687474703a2f2f63726c322e74616d757a2e676f762e696c2f7075626c69632f54616d757a44657647322e636572303c06092b0601040182371507042f302d06252b06010401823715088280812c82fad93881f59532f6f15382acad0a188794ce458586cc74020164020108302706092b060104018237150a041a3018300a06082b06010505070302300a06082b06010505070301300d06092a864886f70d01010b0500038202010038887bb6e7437666469818357a9fe1f4ffeb6015b610ae9ff02056e132dffd9d99b1a5ab76aac06bc0d47e07016232f2be2c6f1529424267c6170bd7ad2e53d0c60a42d18171c22840e5c5b143b115a25a0e49de4b75638d6eeb8d8fb6501839e9df62f2358fd3c4f8143f9783ed37c0775dd41ca797853736c073f81da662b4e6f11670fed47052bec34239c499c620b68531ad50bd9c6fc71e9d76d2af0fa2e011375eede18fa5d39107d8df040bdcf5e4678ba655854386c42ea2ea77c6259b62ed4e31b8949eaca635f3195ae372e7b91c57d7b82c44150db6dd82095cf993ccc054cf4c5938a7b42f03c8f7b9ee91150dbe897404d5162bd7a7664b58465b193e867565d77b6e8c1f352e6ad4dac1a6ab156893d5499f5bc0c6046be5ae9ce71e0c2c6dbc062ee65693303605d1ce998d57f47483cd12703d334a2fdce6f6053924a54ca9f9ea6fa994d70bd9af5e6662a28b6137b62d605ffecd4643a94d8526f4b7a03db08dd92ba546d2bae49005963eea1f30492b25fd790925adb9adfa8ad0ec6c00e773a8347ad6e9c0e841ead70c2a60b2f59143b411655bfdd977aa1bfd5e54fbb14d97f14349a3ee855f1df4629e1f2aec51bc2ba0fef48c5320a4d71824048b57f74e073196a949f73e68d45c2800f2eb68e4a5c6ad23f41eb071a951aba31f9cdee95d7ee43577799ca84efb936a0e590fe2d2c2768e43e4308206b030820498a003020102020a190f31e8000000000003300d06092a864886f70d01010b05003056310b300906035504061302494c311d301b060355040a1314476f7665726e6d656e74206f662049737261656c312830260603550403131f476f7665726e6d656e74206f662049737261656c20526f6f74204341204732301e170d3133303232303039323833375a170d3238303232303039333833375a304a310b300906035504061302494c311d301b060355040a1314476f7665726e6d656e74206f662049737261656c311c301a0603550403131354414d555a2d4465766963657320434120473230820222300d06092a864886f70d01010105000382020f003082020a0282020100c8e848a8ba807c7fda9bdb591982b5597dbd74db11e7e3e1eb721b297128f19f7e855c14b28e9437a2d1e10a55d44200ea3df003f1b8e84242da166d6076ff1826724eaf46e9411f49482b19ff9fa37fbda494ccaecebb56111d8a6b23d042a99b776c487d19b0c141a253b2795d0f0d389845453e835293b7ceb978d5a989c6e25d13b06596fa07459afb1caebc61f478b098f3540542f8d819ad4066252d24a185802e25b5c6fbade6a9885fb1032b7d5b13c4d3766c079c4ce37b47a8805565fc7ef562b9278a9089dd124eccff05a0ddf54c4a0685a040cca55055598ae880177964096b1e17c1e262e53ce5e59420b029ac51f42b1cfd5bf59ee4d8f32f065fc74ed462200a79ff56b2a7194f5cadf2aee4a5e45c431d58f0469a5a3ba8f85f95e6de4db858594c34a2e860eb8010601f08364c7af8b37c599bd31076408b9653165a1e35eb02455465b297d10d16918dfe0e3aba32b7380147f903f9c1457cccde756d743907586c41dffc83ddfb7bc16ad83bf2869a7af8283363c12759e169e336fd8999ad3d6c5541c3318117b94eeb8a7c6af401b85f18584084837db89248378a726ff92e16c87cc4179acff3e550b19666729578afee9711e83dadeb246a6cc240a0e5352a18071bb8f084729fe69dc85391d44cce8f9639a9b3dad122ccf530e6e4b8a10f4b244b39a1aee887e5c27418bdc98b2e4d63306b970203010001a382018a3082018630120603551d130101ff040830060101ff020101301d0603551d0e04160414b543d00ec460f968f3803ed8f450967d6c99d969300b0603551d0f040403020186301006092b06010401823715010403020100301906092b0601040182371402040c1e0a00530075006200430041301f0603551d23041830168014be5407c26b9c7dd9f83943b8a0f6974d4499a03a306e0603551d1f046730653063a061a05f862d687474703a2f2f63726c2e74616d757a2e676f762e696c2f7075626c69632f54616d757a52636147322e63726c862e687474703a2f2f63726c322e74616d757a2e676f762e696c2f7075626c69632f54616d757a52636147322e63726c30818506082b0601050507010104793077303906082b06010505073001862d687474703a2f2f63726c2e74616d757a2e676f762e696c2f7075626c69632f54616d757a52636147322e636572303a06082b06010505073001862e687474703a2f2f63726c322e74616d757a2e676f762e696c2f7075626c69632f54616d757a52636147322e636572300d06092a864886f70d01010b0500038202010058a690d1d4abd164ec917e3006b3ec8fed3a04b9b4ece1163d7f14e10c94429d9f8d4f984a8972b8b889f86b25cb96086ee65ea3b59c5d131a88697d8d629a3dc3470ba3682772b85a06b89d5cb3e50e55e41dd293e03aa3dd3ef170473d3d6a4efc8bab8f796b7ea997ad4438d40c52cb0ad09eed3621156542b422cf5e207227335ff6bb764167e83c7b7df57b34ea112b3422fdd70984ca5e6c04ca9e186274e87f0f73f5a5b3b9266f59b50baa241a137bea6b041d2b4d66819a3591297f4f522baa28d74994484dc595d3f8ca89bc0ce22d34b2bda10056c368b4e9ef5ba07dee570a661a919f2c81086664d15a0c332eadf0e36a36d97e60c11c92ba4100f12fd7852709f213e21902db44d837b5a784a96d929cafe86d291dd60ffce4c57d98565ae1187f161c9e206c469296d00f833f2d099363830da81e5e406d396a1014c5ac3b664cd67c31e79cafb0acf6c4b9fdc08a4f64e5b060cdc4dd49aeb8ad7559c63a92dc8d3564558d94cce1d6d23301ae428ca8ad5b2dc3560dadf44e2ef3886b4393577ea626faa15fe42a4f8ad107a63127cd46245f99245e1120642413c3b4e3221d000814d2406769806e9e4806812027e565d3bee9e6470a2f130277e58da73ecf6e7a6304aaf27f50bd8365929ec6f1164188cf6697d1c84cfcb262423c0ce578f630e5135816070790977d9ddacff7e3ca186e3c4de65256318202103082020c0201013058304a310b300906035504061302494c311d301b060355040a1314476f7665726e6d656e74206f662049737261656c311c301a0603550403131354414d555a2d44657669636573204341204732020a4595e16d00000000072d300d06092a864886f70d0101050500a0818a301806092a864886f70d010903310b06092a864886f70d010701301c06092a864886f70d010905310f1
##7d10fc6f2dd48f21acd9ca044dbd8c3
##041497942415747d10fc6f2dd48f21acd9ca044dbd8c3
30820ec106092a864886f70d010702a0820eb230820eae020101310f300d06092a864886f70d0101050500300b06092a864886f70d010701a0820c75308205bd308203a5a003020102020a4595e16d00000000072d300d06092a864886f70d01010b0500304a310b300906035504061302494c311d301b060355040a1314476f7665726e6d656e74206f662049737261656c311c301a0603550403131354414d555a2d44657669636573204341204732301e170d3133303830363133323831365a170d3138303830353133323831365a301e311c301a06035504030c134d696e69737472795f4f665f4a75737469636530820122300d06092a864886f70d01010105000382010f003082010a0282010100c72cf87e639d32e5859f7dbbaa8645fde7c1b539b05c9424ea63422077a4de121b1fbd7ebde38f270251e93c3efb08a21a3c137e62784e3d74c47032442c369acc605d1583550655a7926c0db3a0629509cf127f8e9845444f10e74bce45e40ac65ede2e0ceceeacc664d3151ca06843720e2542fd1c555ca789ca4438a84c999072676415c83827f3f27a7f055f0b7238a2fc8f7f23f010e035750859c86b3b7f424a78b57725e6a166437039566bd7cd07be53d4c45c14cba3ac6f4d9153f4d044cc5ec8becfdda849c1f30d1f29b8f811c0098ab25fbb6a862d03abe6f6494c15958aa720f7f625652b6127bf3ec5e5e50ada621b2aee96cbebd6e1a61c5b0203010001a38201cf308201cb300b0603551d0f0404030204b0301d0603551d250416301406082b0601050507030206082b06010505070301301d0603551d0e04160414445e8317c23fbefd6a664f8bf8ca5d2e498e069f301f0603551d23041830168014b543d00ec460f968f3803ed8f450967d6c99d969306e0603551d1f046730653063a061a05f862d687474703a2f2f63726c2e74616d757a2e676f762e696c2f7075626c69632f54616d757a44657647322e63726c862e687474703a2f2f63726c322e74616d757a2e676f762e696c2f7075626c69632f54616d757a44657647322e63726c30818506082b0601050507010104793077303906082b06010505073002862d687474703a2f2f63726c2e74616d757a2e676f762e696c2f7075626c69632f54616d757a44657647322e636572303a06082b06010505073002862e687474703a2f2f63726c322e74616d757a2e676f762e696c2f7075626c69632f54616d757a44657647322e636572303c06092b0601040182371507042f302d06252b06010401823715088280812c82fad93881f59532f6f15382acad0a188794ce458586cc74020164020108302706092b060104018237150a041a3018300a06082b06010505070302300a06082b06010505070301300d06092a864886f70d01010b0500038202010038887bb6e7437666469818357a9fe1f4ffeb6015b610ae9ff02056e132dffd9d99b1a5ab76aac06bc0d47e07016232f2be2c6f1529424267c6170bd7ad2e53d0c60a42d18171c22840e5c5b143b115a25a0e49de4b75638d6eeb8d8fb6501839e9df62f2358fd3c4f8143f9783ed37c0775dd41ca797853736c073f81da662b4e6f11670fed47052bec34239c499c620b68531ad50bd9c6fc71e9d76d2af0fa2e011375eede18fa5d39107d8df040bdcf5e4678ba655854386c42ea2ea77c6259b62ed4e31b8949eaca635f3195ae372e7b91c57d7b82c44150db6dd82095cf993ccc054cf4c5938a7b42f03c8f7b9ee91150dbe897404d5162bd7a7664b58465b193e867565d77b6e8c1f352e6ad4dac1a6ab156893d5499f5bc0c6046be5ae9ce71e0c2c6dbc062ee65693303605d1ce998d57f47483cd12703d334a2fdce6f6053924a54ca9f9ea6fa994d70bd9af5e6662a28b6137b62d605ffecd4643a94d8526f4b7a03db08dd92ba546d2bae49005963eea1f30492b25fd790925adb9adfa8ad0ec6c00e773a8347ad6e9c0e841ead70c2a60b2f59143b411655bfdd977aa1bfd5e54fbb14d97f14349a3ee855f1df4629e1f2aec51bc2ba0fef48c5320a4d71824048b57f74e073196a949f73e68d45c2800f2eb68e4a5c6ad23f41eb071a951aba31f9cdee95d7ee43577799ca84efb936a0e590fe2d2c2768e43e4308206b030820498a003020102020a190f31e8000000000003300d06092a864886f70d01010b05003056310b300906035504061302494c311d301b060355040a1314476f7665726e6d656e74206f662049737261656c312830260603550403131f476f7665726e6d656e74206f662049737261656c20526f6f74204341204732301e170d3133303232303039323833375a170d3238303232303039333833375a304a310b300906035504061302494c311d301b060355040a1314476f7665726e6d656e74206f662049737261656c311c301a0603550403131354414d555a2d4465766963657320434120473230820222300d06092a864886f70d01010105000382020f003082020a0282020100c8e848a8ba807c7fda9bdb591982b5597dbd74db11e7e3e1eb721b297128f19f7e855c14b28e9437a2d1e10a55d44200ea3df003f1b8e84242da166d6076ff1826724eaf46e9411f49482b19ff9fa37fbda494ccaecebb56111d8a6b23d042a99b776c487d19b0c141a253b2795d0f0d389845453e835293b7ceb978d5a989c6e25d13b06596fa07459afb1caebc61f478b098f3540542f8d819ad4066252d24a185802e25b5c6fbade6a9885fb1032b7d5b13c4d3766c079c4ce37b47a8805565fc7ef562b9278a9089dd124eccff05a0ddf54c4a0685a040cca55055598ae880177964096b1e17c1e262e53ce5e59420b029ac51f42b1cfd5bf59ee4d8f32f065fc74ed462200a79ff56b2a7194f5cadf2aee4a5e45c431d58f0469a5a3ba8f85f95e6de4db858594c34a2e860eb8010601f08364c7af8b37c599bd31076408b9653165a1e35eb02455465b297d10d16918dfe0e3aba32b7380147f903f9c1457cccde756d743907586c41dffc83ddfb7bc16ad83bf2869a7af8283363c12759e169e336fd8999ad3d6c5541c3318117b94eeb8a7c6af401b85f18584084837db89248378a726ff92e16c87cc4179acff3e550b19666729578afee9711e83dadeb246a6cc240a0e5352a18071bb8f084729fe69dc85391d44cce8f9639a9b3dad122ccf530e6e4b8a10f4b244b39a1aee887e5c27418bdc98b2e4d63306b970203010001a382018a3082018630120603551d130101ff040830060101ff020101301d0603551d0e04160414b543d00ec460f968f3803ed8f450967d6c99d969300b0603551d0f040403020186301006092b06010401823715010403020100301906092b0601040182371402040c1e0a00530075006200430041301f0603551d23041830168014be5407c26b9c7dd9f83943b8a0f6974d4499a03a306e0603551d1f046730653063a061a05f862d687474703a2f2f63726c2e74616d757a2e676f762e696c2f7075626c69632f54616d757a52636147322e63726c862e687474703a2f2f63726c322e74616d757a2e676f762e696c2f7075626c69632f54616d757a52636147322e63726c30818506082b0601050507010104793077303906082b06010505073001862d687474703a2f2f63726c2e74616d757a2e676f762e696c2f7075626c69632f54616d757a52636147322e636572303a06082b06010505073001862e687474703a2f2f63726c322e74616d757a2e676f762e696c2f7075626c69632f54616d757a52636147322e636572300d06092a864886f70d01010b0500038202010058a690d1d4abd164ec917e3006b3ec8fed3a04b9b4ece1163d7f14e10c94429d9f8d4f984a8972b8b889f86b25cb96086ee65ea3b59c5d131a88697d8d629a3dc3470ba3682772b85a06b89d5cb3e50e55e41dd293e03aa3dd3ef170473d3d6a4efc8bab8f796b7ea997ad4438d40c52cb0ad09eed3621156542b422cf5e207227335ff6bb764167e83c7b7df57b34ea112b3422fdd70984ca5e6c04ca9e186274e87f0f73f5a5b3b9266f59b50baa241a137bea6b041d2b4d66819a3591297f4f522baa28d74994484dc595d3f8ca89bc0ce22d34b2bda10056c368b4e9ef5ba07dee570a661a919f2c81086664d15a0c332eadf0e36a36d97e60c11c92ba4100f12fd7852709f213e21902db44d837b5a784a96d929cafe86d291dd60ffce4c57d98565ae1187f161c9e206c469296d00f833f2d099363830da81e5e406d396a1014c5ac3b664cd67c31e79cafb0acf6c4b9fdc08a4f64e5b060cdc4dd49aeb8ad7559c63a92dc8d3564558d94cce1d6d23301ae428ca8ad5b2dc3560dadf44e2ef3886b4393577ea626faa15fe42a4f8ad107a63127cd46245f99245e1120642413c3b4e3221d000814d2406769806e9e4806812027e565d3bee9e6470a2f130277e58da73ecf6e7a6304aaf27f50bd8365929ec6f1164188cf6697d1c84cfcb262423c0ce578f630e5135816070790977d9ddacff7e3ca186e3c4de65256318202103082020c0201013058304a310b300906035504061302494c311d301b060355040a1314476f7665726e6d656e74206f662049737261656c311c301a0603550403131354414d555a2d44657669636573204341204732020a4595e16d00000000072d300d06092a864886f70d0101050500a0818a301806092a864886f70d010903310b06092a864886f70d010701301c06092a864886f70d010905310f1
וד
בנק
979
הנתב
269
בתל
כניסה
##99976
##1ad
ביד
##לוונ
##ילא
nu
84999847
oc
ההליכים
מתוך
הינה
##00879
##ניק
לעבוד
##pb
##ובן
עבוד
##æu
ui
תביעה
##b2d
98799
נכון
להביא
##ˆˆ
tc
לכ
##316
המתלוננת
צד
באר
מהות
word
##צג
##1d93
הנתבעת
לתיקון
##187c
##יוון
##1700
##yh
##דיר
בל
##aaf
li
##0031
##b45
בקב
##state
151
##וחות
##xtg
##99243
נזק
##חינה
##ניהם
ערכ
עבר
584
extg
extgstate
ce
196
920
##02f06092a864886f70d0109043122
##0u
##67178
##45300
jd±
##c98be
##935b3
##037060b2a864886f70d010910022f31283026302430220420d
##fa1dc
##65b701
##08287a
##6c6819
##4595e16d00000000072d300d06096086480165030402010500a081
##330645300
##0201013058304a310b300906035504061302494c311d301b060355040a1314476f7665726e6d656e74206f662049737261656c311c301a0603550403131354414d555a2d44657669636573204341204732020a4595e16d00000000072d300d06096086480165030402010500a081
##08b1d93
##51fcc4
##187c935b3
##6717808b1d93
##c98be6c6819
##037060b2a864886f70d010910022f31283026302430220420d6717808b1d93
##fa1dc08287a
##65b70151fcc4
##330645300fa1dc08287a
##187c935b302f06092a864886f70d0109043122
##c98be6c681965b70151fcc4
##037060b2a864886f70d010910022f31283026302430220420d6717808b1d93c98be6c681965b70151fcc4
##330645300fa1dc08287a187c935b302f06092a864886f70d0109043122
##037060b2a864886f70d010910022f31283026302430220420d6717808b1d93c98be6c681965b70151fcc4330645300fa1dc08287a187c935b302f06092a864886f70d0109043122
מניעה
רקע
ביה
##יקוח
הזמן
##ובדים
615
##מנית
##ßaa
בהחלטה
##009
הוראת
037
דחה
##נתי
631
##עים
##יהוי
בתנאים
##ga
##31d
##ציבות
מבלי
לביצוע
##194
tw
להפ
144
שיל
בגדר
##ca8
נמחק
##ceee
ספק
¸cw
##mm
הנכס
460
##וראות
הממשלה
לנשיא
##בור
עש
אינני
כת
##oø
##ðnoooo
##קודה
פלו
והן
##מיד
עדי
se
העבירה
קיום
##øuuuuyþ
ne
עקר
ריב
##7de
##02b060b2a864886f70d010910020c311c301a30183016041497942415747d10fc6f2dd48f21acd9ca044dbd8c3
הבא
027
אישר
##øuuuuyþßaa
714
##ערבות
258
olayout
המד
##9989
במקרים
##4ca
##וחה
החלטות
שהייתו
מאחר
645
097
האפשרי
יחס
##יחוד
##יודעין
98799133
בסיס
##ישוב
הודעה
##תייש
##ðnooooo×
ואת
כחוק
תושב
##kz
##2f5
לפיו
om
##תקיים
##99536
##ðnooooo×øuuuuyþßaa
במצב
אותי
שהע
441
##4i
הנשיא
שאלה
איש
נח
הגנה
כסף
התקיים
##ירור
##תחשב
##ונו
##4373
בכלא
t1
##2ade
##oc
##708
##219
דו
##חדים
##097
שית
##0026
148
450
למי
זכאי
##52d
##æceee
##80
##2333
286
ופ
##997
הטיפול
##4b74
השאלה
מתאים
הפלילי
186
חי
##09f
##85a1
נראה
##טיח
##מם
e÷
נוסח
הסכום
##חיית
134
##וזה
ההסכם
הפר
שלה
162
##ha
im19
##ואר
הצו
##ðu
aø
##a0b23
מתורג
##vet
##00073
לגב
158
ממנו
לדון
##רשם
##je
המקומית
999
הרפוא
##ומו
##70d313331313
נדרש
helvet
helvetica
type1
32202148
למעשה
##ינן
##0313
לביקורת
2006
##כאה
##849
yc
##00415
455665
עקב
##מוק
##ˆi
אפשרות
##ריע
980
##yya
135
675
לפע
##wu
##ולו
להצ
מסוג
##טו
התע
אליה
##ופות
##vt
##יעוד
lo
##qe
172
והש
f5
##מכויות
##km
עיר
283
##hi
##894
לל
##qx
טוענת
##ינוך
יבוא
מרכז
שיו
##וכר
הומ
285
##0d5
שנקבעו
##יקות
##013
##וצאה
מור
##659
##יכה
618
##oð
##cef
143
בתחום
הקר
שאל
חברת
חברה
##וכה
התשמ
בטרם
020
##827
הבנק
ולאחר
מהווה
עמדת
179
##zx
##7a8
לרשות
2005
##צהיר
348
מינהליים
המנהל
##00293
אור
178
f9
התייחסות
תפ
##ho
##yr
המינה
דרי
##la
הדבר
itxt
##628
034
517
##þo
תום
806
##¹u
באותו
הגב
636
פיר
הסתנן
561
##zy
130
תוקף
הטענה
##קבלה
##מנות
##יטה
נדחתה
##su
##c26
##æo
##מק
1954
##יקול
חודש
##c9a
##99921
עורך
##99316
עונש
##025
השני
298
##פציפ
155
##e4
153
##מנה
030
לענין
671
חז
##7516
תשע
סוג
ציין
##והר
התנאים
##דל
##ﾚﾘ
wa
עיון
133
עניינו
##רכב
##1615
מכך
שקבע
בנוגע
כללי
##wo
e°
ועוד
09700012
בכניסה
##וטר
להימ
מעצרו
##193
##765
משפחה
ובין
##732365a3
##יצוג
##גורים
127
##œa
##uj
הבאה
##562
##e21
תכלית
מוק
682
מיוחדים
##0333132333
##70d3133313130333132333
##70d3133313130333132333732365a3
952
ya
##677
חדש
##453
בעבר
##mi
eb
משקל
נק
##ði
##uh
##לקמן
##a1f
ובר
הנאשם
##ובל
##שון
##9895
575
להק
##782
כדלקמן
##שית
הסמכות
##4500
והה
157
מהאר
##fc
##6fe
##1709
##zm
94799805
בעצ
##efa
1240
##והים
מנ
נדחה
##228
##7u
נתו
חול
להשת
##צוין
##אגיד
##יעתו
בערובה
תעודת
##נין
עבד
קודם
הקש
מוד
פגיעה
##בל
טען
הנס
לבצע
136
ולפי
ed
##סיס
ולע
נוספות
ממשמורת
התא
הגעתי
##e76
165
284
uy
##7607
למדינה
לבוא
השב
606
המפורט
מהארץ
ומא
לקיים
##085
##€a
הרצ
##ברר
fs
##ra
##ארכת
169
##en
לצד
להוראות
168
004
##85a3
##ודעה
665
##כלי
129
13ו
ניה
משפטית
##82d
##793f
##סס
##zs
##32f
##822
לכאורה
##99854
yy
##f71
763
##יצב
משנה
##335a
im10
מוכן
שפ
תכנית
##פח
##cg
##99902
באדר
שכר
##526
קיבל
רפואיות
##וציא
##77e
כלי
ליד
175
סעיפים
דומה
המשך
לכלל
גרס
##438
##ירושלים
שונות
##שרות
691
##vh
דיו
##99927
תפקיד
yo
690
##ובתו
##b67
150
##00317
להחלט
673
הצה
##uf
##673
##וסיף
הגישה
##e21cb
מסוכנות
##01221
##976
נדר
##gi
gd
פעולות
##2cd
האירוע
##סיקה
##יקף
##פטור
לידי
##7876
הכנסת
ניס
והא
##ניט
##eee
##ובעת
##דרת
024
##¯o
באתי
##001709
עבירה
לפקודת
##פרט
קיימת
struct
לטובת
##5303
##root
לדבר
התכנון
##a2
##treeroot
structtreeroot
למועד
##b5f
##111
אינן
647
##119
##ציה
##מוש
מהמ
הסף
##7559
המוק
##þi
טעמים
##eab
##8100
יתר
תקופה
ומת
ואח
וק
##rv
##שנות
##0fb
##iq
הרכב
##00146
העליון
colors
##dea
לשנות
##e69
ראשי
894
##þe
כנ
##25b
##dz
ביקש
סבורני
228
##סקת
ויש
854
##יהן
והיא
רישום
at
##73de
##יקולים
חר
032
##732
##c4b
##95d
##pz
האינטרסים
##פון
היחס
כולל
##ברית
נערכה
שמר
##735
##ירתו
##מדה
ושהיה
##וצג
##58ec
##0384
##jo
##ccdc
גל
##cd7e
##7d3
##לול
הבח
מצד
##לוף
##d7b
##ומחה
שירותי
2004
##0323
שעי
##צד
האפשרות
מיוצג
715
##4433
העונשין
בדיון
ביותר
האחרון
##þy
השימוע
2046
מהם
##74f
אנ
##ca806
80699921
139
##2bf
718
##מוז
להארכת
156
##81b
כר
##093
הדר
##cz
##7cf
לפנות
מקרה
faaada
למבקש
כע
בחלק
##6u
##וצר
##ושת
539
##95a3
##15b
##ייע
20000
##æe
##ושי
##כלוס
##ובלת
חזק
##hz
yu
והב
292
הגור
בירושלים
##ee1
הוע
494
##45b
##גת
##vo
##00049
מסמכים
##ריכה
השירות
##99097
בתג
##8ff
##ינית
לדברי
##יתוח
ההגנה
האדם
##168
##896
##ca3
393
##a22
##זכירות
וביודעין
##405
##שתית
מזכיר
##28d
##tt
##c9d
##טחון
##73d
כתו
##יצויים
הקט
##פקת
##20d
##7e0f
##סוף
aq
##8629
##יסוד
##ניח
לפס
##bdf
##תננים
##eba
עזב
##71b
הביטחון
דמי
##hm
מקרקעין
ye
##0b9
שנות
אינטרס
שלום
##6f6a
האזרחי
ey
fonts
##מתו
45199585
##79d
אפ
538
##29d
כשל
תמ
##70e
##55f
לכן
מתח
הערה
036
יפו
##ke
בפסקה
התיק
##4a3
474
פרס
ידוע
הייתי
##0015
dg
##s3
##2db
האמורה
##לכה
בענין
ראשית
##d55
185
##ij
za
##כש
021
##8af
209
המעצר
##0414f
##54a
475
##403
##01d0603551d0e0416
שעה
##69b
##67b
##o5
o®
##0343
##33a
##bde
##ותם
ובע
ילדים
בבקשת
##7fe
האגרה
##לוונט
##cec
מדינה
עפ
##baa
##ƒi
025
הנת
##ויה
##þu
##8m
017
##בד
##xn
##797607
562
##4u
##23a
תחת
##6ed
##6bf
##821
למקור
למח
##7aa
##שראלי
לחל
המה
##59f
עתירה
ni
בהחלטת
##77c
קרי
164
להוכ
הגיע
##00037
ולפיכך
##1v
אחרי
##py
מחייב
183
מבית
##®a
##ינויים
##עדר
בדיקות
201409
1038
##68b
##56a
##7ef
##681
בשער
סכ
##c19
##54d
147
הועדה
שמו
##be3
016
##4944
##788
##66b
9p
##qi
20000005
חופ
##851
ברק
##04c
מיד
##נהלות
מעור
שהה
##24e
##שק
השלי
##aa1
לעת
הוראה
392
מכאן
##מבר
הראוי
כספי
עמדה
##yyyyyyyyyyyyyyyy
##de11
30820ec106092a864886f70d010702a0820eb230820eae020101310f300d06092a864886f70d0101050500300b06092a864886f70d010701a0820c75308205bd308203a5a003020102020a4595e16d00000000072d300d06092a864886f70d01010b0500304a310b300906035504061302494c311d301b060355040a1314476f7665726e6d656e74206f662049737261656c311c301a0603550403131354414d555a2d44657669636573204341204732301e170d3133303830363133323831365a170d3138303830353133323831365a301e311c301a06035504030c134d696e69737472795f4f665f4a75737469636530820122300d06092a864886f70d01010105000382010f003082010a0282010100c72cf87e639d32e5859f7dbbaa8645fde7c1b539b05c9424ea63422077a4de121b1fbd7ebde38f270251e93c3efb08a21a3c137e62784e3d74c47032442c369acc605d1583550655a7926c0db3a0629509cf127f8e9845444f10e74bce45e40ac65ede2e0ceceeacc664d3151ca06843720e2542fd1c555ca789ca4438a84c999072676415c83827f3f27a7f055f0b7238a2fc8f7f23f010e035750859c86b3b7f424a78b57725e6a166437039566bd7cd07be53d4c45c14cba3ac6f4d9153f4d044cc5ec8becfdda849c1f30d1f29b8f811c0098ab25fbb6a862d03abe6f6494c15958aa720f7f625652b6127bf3ec5e5e50ada621b2aee96cbebd6e1a61c5b0203010001a38201cf308201cb300b0603551d0f0404030204b0301d0603551d250416301406082b0601050507030206082b06010505070301301d0603551d0e04160414445e8317c23fbefd6a664f8bf8ca5d2e498e069f301f0603551d23041830168014b543d00ec460f968f3803ed8f450967d6c99d969306e0603551d1f046730653063a061a05f862d687474703a2f2f63726c2e74616d757a2e676f762e696c2f7075626c69632f54616d757a44657647322e63726c862e687474703a2f2f63726c322e74616d757a2e676f762e696c2f7075626c69632f54616d757a44657647322e63726c30818506082b0601050507010104793077303906082b06010505073002862d687474703a2f2f63726c2e74616d757a2e676f762e696c2f7075626c69632f54616d757a44657647322e636572303a06082b06010505073002862e687474703a2f2f63726c322e74616d757a2e676f762e696c2f7075626c69632f54616d757a44657647322e636572303c06092b0601040182371507042f302d06252b06010401823715088280812c82fad93881f59532f6f15382acad0a188794ce458586cc74020164020108302706092b060104018237150a041a3018300a06082b06010505070302300a06082b06010505070301300d06092a864886f70d01010b0500038202010038887bb6e7437666469818357a9fe1f4ffeb6015b610ae9ff02056e132dffd9d99b1a5ab76aac06bc0d47e07016232f2be2c6f1529424267c6170bd7ad2e53d0c60a42d18171c22840e5c5b143b115a25a0e49de4b75638d6eeb8d8fb6501839e9df62f2358fd3c4f8143f9783ed37c0775dd41ca797853736c073f81da662b4e6f11670fed47052bec34239c499c620b68531ad50bd9c6fc71e9d76d2af0fa2e011375eede18fa5d39107d8df040bdcf5e4678ba655854386c42ea2ea77c6259b62ed4e31b8949eaca635f3195ae372e7b91c57d7b82c44150db6dd82095cf993ccc054cf4c5938a7b42f03c8f7b9ee91150dbe897404d5162bd7a7664b58465b193e867565d77b6e8c1f352e6ad4dac1a6ab156893d5499f5bc0c6046be5ae9ce71e0c2c6dbc062ee65693303605d1ce998d57f47483cd12703d334a2fdce6f6053924a54ca9f9ea6fa994d70bd9af5e6662a28b6137b62d605ffecd4643a94d8526f4b7a03db08dd92ba546d2bae49005963eea1f30492b25fd790925adb9adfa8ad0ec6c00e773a8347ad6e9c0e841ead70c2a60b2f59143b411655bfdd977aa1bfd5e54fbb14d97f14349a3ee855f1df4629e1f2aec51bc2ba0fef48c5320a4d71824048b57f74e073196a949f73e68d45c2800f2eb68e4a5c6ad23f41eb071a951aba31f9cdee95d7ee43577799ca84efb936a0e590fe2d2c2768e43e4308206b030820498a003020102020a190f31e8000000000003300d06092a864886f70d01010b05003056310b300906035504061302494c311d301b060355040a1314476f7665726e6d656e74206f662049737261656c312830260603550403131f476f7665726e6d656e74206f662049737261656c20526f6f74204341204732301e170d3133303232303039323833375a170d3238303232303039333833375a3
[...]
